{
  "version": "1.0",
  "truncation": {
    "direction": "Right",
    "max_length": 128,
    "strategy": "LongestFirst",
    "stride": 0
  },
  "padding": {
    "strategy": "BatchLongest",
    "direction": "Right",
    "pad_to_multiple_of": null,
    "pad_id": 0,
    "pad_type_id": 0,
    "pad_token": "[PAD]"
  },
  "added_tokens": [
    {
      "id": 0,
      "content": "[PAD]",
      "single_word": false,
      "lstrip": false,
      "rstrip": false,
      "normalized": false,
      "special": true
    },
    {
      "id": 1,
      "content": "[SOS]",
      "single_word": false,
      "lstrip": false,
      "rstrip": false,
      "normalized": false,
      "special": true
    },
    {
      "id": 2,
      "content": "[EOS]",
      "single_word": false,
      "lstrip": false,
      "rstrip": false,
      "normalized": false,
      "special": true
    },
    {
      "id": 3,
      "content": "[MASK]",
      "single_word": false,
      "lstrip": false,
      "rstrip": false,
      "normalized": false,
      "special": true
    },
    {
      "id": 4,
      "content": "[RETRIEVAL]",
      "single_word": false,
      "lstrip": false,
      "rstrip": false,
      "normalized": false,
      "special": true
    },
    {
      "id": 5,
      "content": "[UNK]",
      "single_word": false,
      "lstrip": false,
      "rstrip": false,
      "normalized": false,
      "special": true
    }
  ],
  "normalizer": null,
  "pre_tokenizer": {
    "type": "BertPreTokenizer"
  },
  "post_processor": {
    "type": "TemplateProcessing",
    "single": [
      {
        "SpecialToken": {
          "id": "[RETRIEVAL]",
          "type_id": 0
        }
      },
      {
        "SpecialToken": {
          "id": "[SOS]",
          "type_id": 0
        }
      },
      {
        "Sequence": {
          "id": "A",
          "type_id": 0
        }
      },
      {
        "SpecialToken": {
          "id": "[EOS]",
          "type_id": 0
        }
      }
    ],
    "pair": [
      {
        "SpecialToken": {
          "id": "[RETRIEVAL]",
          "type_id": 0
        }
      },
      {
        "SpecialToken": {
          "id": "[SOS]",
          "type_id": 0
        }
      },
      {
        "Sequence": {
          "id": "A",
          "type_id": 0
        }
      },
      {
        "SpecialToken": {
          "id": "[EOS]",
          "type_id": 0
        }
      },
      {
        "Sequence": {
          "id": "B",
          "type_id": 1
        }
      },
      {
        "SpecialToken": {
          "id": "[EOS]",
          "type_id": 1
        }
      }
    ],
    "special_tokens": {
      "[EOS]": {
        "id": "[EOS]",
        "ids": [
          2
        ],
        "tokens": [
          "[EOS]"
        ]
      },
      "[RETRIEVAL]": {
        "id": "[RETRIEVAL]",
        "ids": [
          4
        ],
        "tokens": [
          "[RETRIEVAL]"
        ]
      },
      "[SOS]": {
        "id": "[SOS]",
        "ids": [
          1
        ],
        "tokens": [
          "[SOS]"
        ]
      }
    }
  },
  "decoder": {
    "type": "WordPiece",
    "prefix": "##",
    "cleanup": true
  },
  "model": {
    "type": "WordPiece",
    "unk_token": "[UNK]",
    "continuing_subword_prefix": "##",
    "max_input_chars_per_word": 100,
    "vocab": {
      "[PAD]": 0,
      "[SOS]": 1,
      "[EOS]": 2,
      "[MASK]": 3,
      "[RETRIEVAL]": 4,
      "[UNK]": 5,
      "!": 6,
      "\"": 7,
      "#": 8,
      "$": 9,
      "%": 10,
      "&": 11,
      "'": 12,
      "(": 13,
      ")": 14,
      "*": 15,
      ",": 16,
      "-": 17,
      ".": 18,
      "/": 19,
      "0": 20,
      "1": 21,
      "2": 22,
      "3": 23,
      "4": 24,
      "5": 25,
      "6": 26,
      "7": 27,
      "8": 28,
      "9": 29,
      ":": 30,
      ";": 31,
      "A": 32,
      "B": 33,
      "C": 34,
      "D": 35,
      "E": 36,
      "F": 37,
      "G": 38,
      "H": 39,
      "I": 40,
      "J": 41,
      "K": 42,
      "L": 43,
      "M": 44,
      "N": 45,
      "O": 46,
      "P": 47,
      "R": 48,
      "S": 49,
      "T": 50,
      "U": 51,
      "V": 52,
      "W": 53,
      "Y": 54,
      "[": 55,
      "\\": 56,
      "]": 57,
      "_": 58,
      "`": 59,
      "a": 60,
      "b": 61,
      "c": 62,
      "d": 63,
      "e": 64,
      "f": 65,
      "g": 66,
      "h": 67,
      "i": 68,
      "j": 69,
      "k": 70,
      "l": 71,
      "m": 72,
      "n": 73,
      "o": 74,
      "p": 75,
      "q": 76,
      "r": 77,
      "s": 78,
      "t": 79,
      "u": 80,
      "v": 81,
      "w": 82,
      "x": 83,
      "y": 84,
      "z": 85,
      "{": 86,
      "}": 87,
      "è": 88,
      "é": 89,
      "—": 90,
      "’": 91,
      "##r": 92,
      "##a": 93,
      "##t": 94,
      "##o": 95,
      "##g": 96,
      "##p": 97,
      "##h": 98,
      "##y": 99,
      "##m": 100,
      "##s": 101,
      "##i": 102,
      "##n": 103,
      "##c": 104,
      "##e": 105,
      "##l": 106,
      "##w": 107,
      "##f": 108,
      "##d": 109,
      "##u": 110,
      "##N": 111,
      "##C": 112,
      "##5": 113,
      "##k": 114,
      "##F": 115,
      "##b": 116,
      "##v": 117,
      "##L": 118,
      "##U": 119,
      "##z": 120,
      "##x": 121,
      "##j": 122,
      "##0": 123,
      "##4": 124,
      "##A": 125,
      "##1": 126,
      "##6": 127,
      "##q": 128,
      "##2": 129,
      "##9": 130,
      "##3": 131,
      "##8": 132,
      "##B": 133,
      "##D": 134,
      "##M": 135,
      "##7": 136,
      "##E": 137,
      "##P": 138,
      "##O": 139,
      "##H": 140,
      "##S": 141,
      "##T": 142,
      "##é": 143,
      "##J": 144,
      "##R": 145,
      "##è": 146,
      "##er": 147,
      "##in": 148,
      "##he": 149,
      "##at": 150,
      "##it": 151,
      "##ar": 152,
      "the": 153,
      "##nit": 154,
      "##an": 155,
      "##ct": 156,
      "##ed": 157,
      "##nd": 158,
      "Unit": 159,
      "##ian": 160,
      "##re": 161,
      "##on": 162,
      "##al": 163,
      "##rat": 164,
      "##ing": 165,
      "##rater": 166,
      "##st": 167,
      "##en": 168,
      "The": 169,
      "##or": 170,
      "##ra": 171,
      "su": 172,
      "##ac": 173,
      "##hi": 174,
      "##ou": 175,
      "##ion": 176,
      "##es": 177,
      "##ect": 178,
      "##ly": 179,
      "##ectar": 180,
      "Nectar": 181,
      "Nectarian": 182,
      "##ent": 183,
      "Crater": 184,
      "##la": 185,
      "##mb": 186,
      "##erra": 187,
      "and": 188,
      "##mbr": 189,
      "Imbr": 190,
      "##om": 191,
      "by": 192,
      "Imbrian": 193,
      "##ound": 194,
      "is": 195,
      "di": 196,
      "sur": 197,
      "of": 198,
      "unit": 199,
      "##as": 200,
      "##ic": 201,
      "##ure": 202,
      "##os": 203,
      "##le": 204,
      "##lain": 205,
      "crater": 206,
      "##act": 207,
      "##fac": 208,
      "re": 209,
      "##ge": 210,
      "de": 211,
      "##face": 212,
      "##ary": 213,
      "surface": 214,
      "##der": 215,
      "##og": 216,
      "##orm": 217,
      "##ru": 218,
      "##ies": 219,
      "##his": 220,
      "##mp": 221,
      "##si": 222,
      "##ation": 223,
      "st": 224,
      "bound": 225,
      "##ve": 226,
      "##ol": 227,
      "##omin": 228,
      "##ver": 229,
      "##asin": 230,
      "dist": 231,
      "##inct": 232,
      "Terra": 233,
      "distinct": 234,
      "are": 235,
      "##pp": 236,
      "##lains": 237,
      "##ated": 238,
      "##ruct": 239,
      "##vi": 240,
      "##olog": 241,
      "ex": 242,
      "##ow": 243,
      "struct": 244,
      "##mpact": 245,
      "to": 246,
      "terra": 247,
      "ge": 248,
      "##ri": 249,
      "##th": 250,
      "##ical": 251,
      "whi": 252,
      "##eri": 253,
      "impact": 254,
      "terrain": 255,
      "geolog": 256,
      "units": 257,
      "##se": 258,
      "##ine": 259,
      "geological": 260,
      "This": 261,
      "##ch": 262,
      "con": 263,
      "in": 264,
      "##ur": 265,
      "##order": 266,
      "border": 267,
      "##ith": 268,
      "domin": 269,
      "Pre": 270,
      "sm": 271,
      "def": 272,
      "with": 273,
      "##ter": 274,
      "##ormation": 275,
      "which": 276,
      "##ig": 277,
      "##et": 278,
      "Basin": 279,
      "##oth": 280,
      "mar": 281,
      "##eat": 282,
      "##ures": 283,
      "ma": 284,
      "feat": 285,
      "##dj": 286,
      "reg": 287,
      "region": 288,
      "sh": 289,
      "##round": 290,
      "adj": 291,
      "defin": 292,
      "Plains": 293,
      "##pos": 294,
      "##pper": 295,
      "boundary": 296,
      "##ros": 297,
      "##acent": 298,
      "adjacent": 299,
      "##ooth": 300,
      "##ea": 301,
      "##ition": 302,
      "smooth": 303,
      "cont": 304,
      "##ant": 305,
      "##ross": 306,
      "over": 307,
      "##gest": 308,
      "ac": 309,
      "##ggest": 310,
      "suggest": 311,
      "across": 312,
      "se": 313,
      "lar": 314,
      "mat": 315,
      "##ous": 316,
      "Upper": 317,
      "craters": 318,
      "##xt": 319,
      "##zed": 320,
      "##eavi": 321,
      "##eavily": 322,
      "com": 323,
      "##igh": 324,
      "##jor": 325,
      "major": 326,
      "plain": 327,
      "heavily": 328,
      "##oc": 329,
      "cratered": 330,
      "##if": 331,
      "##ut": 332,
      "##sive": 333,
      "##ple": 334,
      "##up": 335,
      "area": 336,
      "##and": 337,
      "##we": 338,
      "##ally": 339,
      "features": 340,
      "dis": 341,
      "large": 342,
      "##ati": 343,
      "Mar": 344,
      "##etwe": 345,
      "##etween": 346,
      "##ble": 347,
      "between": 348,
      "##vid": 349,
      "Mare": 350,
      "vi": 351,
      "bordered": 352,
      "structure": 353,
      "##cc": 354,
      "form": 355,
      "Formation": 356,
      "ol": 357,
      "occ": 358,
      "##lay": 359,
      "##aries": 360,
      "##um": 361,
      "boundaries": 362,
      "occup": 363,
      "older": 364,
      "rel": 365,
      "or": 366,
      "line": 367,
      "th": 368,
      "pr": 369,
      "##ond": 370,
      "##cond": 371,
      "mo": 372,
      "##ands": 373,
      "##ap": 374,
      "##condary": 375,
      "##ph": 376,
      "basin": 377,
      "mark": 378,
      "surround": 379,
      "plains": 380,
      "##ext": 381,
      "##erial": 382,
      "material": 383,
      "structur": 384,
      "##its": 385,
      "##ates": 386,
      "##ower": 387,
      "##sible": 388,
      "loc": 389,
      "##play": 390,
      "##vided": 391,
      "visible": 392,
      "##acies": 393,
      "display": 394,
      "##un": 395,
      "##ul": 396,
      "##ndi": 397,
      "##ndivided": 398,
      "pri": 399,
      "Undivided": 400,
      "##ari": 401,
      "prim": 402,
      "##ran": 403,
      "These": 404,
      "suggesting": 405,
      "##all": 406,
      "##cap": 407,
      "text": 408,
      "lands": 409,
      "landscap": 410,
      "landscape": 411,
      "##ized": 412,
      "comple": 413,
      "occupies": 414,
      "##ost": 415,
      "Facies": 416,
      "surrounding": 417,
      "##alized": 418,
      "show": 419,
      "complex": 420,
      "dominated": 421,
      "##ll": 422,
      "localized": 423,
      "inter": 424,
      "formation": 425,
      "##hib": 426,
      "exhib": 427,
      "defined": 428,
      "Se": 429,
      "this": 430,
      "linear": 431,
      "ext": 432,
      "##ti": 433,
      "cent": 434,
      "shar": 435,
      "##li": 436,
      "##res": 437,
      "##ale": 438,
      "##ogra": 439,
      "sp": 440,
      "##ating": 441,
      "co": 442,
      "pat": 443,
      "Secondary": 444,
      "sharp": 445,
      "##hen": 446,
      "##ratost": 447,
      "Eratost": 448,
      "##henian": 449,
      "Eratosthenian": 450,
      "##rans": 451,
      "ab": 452,
      "##unar": 453,
      "trans": 454,
      "high": 455,
      "##ark": 456,
      "sub": 457,
      "transition": 458,
      "that": 459,
      "lunar": 460,
      "##ensive": 461,
      "##ear": 462,
      "displays": 463,
      "extensive": 464,
      "exp": 465,
      "cover": 466,
      "##wo": 467,
      "expan": 468,
      "##pogra": 469,
      "##rient": 470,
      "##ong": 471,
      "Orient": 472,
      "Orientale": 473,
      "##ast": 474,
      "##erous": 475,
      "##umerous": 476,
      "##lying": 477,
      "topogra": 478,
      "##us": 479,
      "an": 480,
      "two": 481,
      "forms": 482,
      "centr": 483,
      "depos": 484,
      "##ack": 485,
      "structural": 486,
      "##eve": 487,
      "##par": 488,
      "central": 489,
      "dark": 490,
      "dominant": 491,
      "abut": 492,
      "Heve": 493,
      "##lius": 494,
      "Hevelius": 495,
      "numerous": 496,
      "primary": 497,
      "separ": 498,
      "vari": 499,
      "##ill": 500,
      "within": 501,
      "ch": 502,
      "dominates": 503,
      "##ground": 504,
      "borders": 505,
      "##ific": 506,
      "cle": 507,
      "Lower": 508,
      "##phy": 509,
      "clear": 510,
      "##ominent": 511,
      "mare": 512,
      "und": 513,
      "prominent": 514,
      "##sif": 515,
      "these": 516,
      "texture": 517,
      "spati": 518,
      "ind": 519,
      "marking": 520,
      "app": 521,
      "indic": 522,
      "vast": 523,
      "##aract": 524,
      "##ain": 525,
      "charact": 526,
      "##age": 527,
      "##ineated": 528,
      "appear": 529,
      "characteri": 530,
      "##long": 531,
      "##ate": 532,
      "topography": 533,
      "##posed": 534,
      "under": 535,
      "me": 536,
      "##ations": 537,
      "fl": 538,
      "meet": 539,
      "exhibits": 540,
      "smoother": 541,
      "##ackground": 542,
      "##lu": 543,
      "##ative": 544,
      "##assif": 545,
      "##ity": 546,
      "contact": 547,
      "defining": 548,
      "while": 549,
      "as": 550,
      "##uous": 551,
      "##fer": 552,
      "up": 553,
      "small": 554,
      "##uated": 555,
      "sharply": 556,
      "markings": 557,
      "feature": 558,
      "mod": 559,
      "shows": 560,
      "##gh": 561,
      "##mpos": 562,
      "##erimpos": 563,
      "dif": 564,
      "sit": 565,
      "formations": 566,
      "##ern": 567,
      "differ": 568,
      "characterized": 569,
      "##ad": 570,
      "suggests": 571,
      "##hes": 572,
      "##erv": 573,
      "sup": 574,
      "cru": 575,
      "crust": 576,
      "structures": 577,
      "##erimposed": 578,
      "relative": 579,
      "fr": 580,
      "##resent": 581,
      "del": 582,
      "from": 583,
      "along": 584,
      "en": 585,
      "underlying": 586,
      "sc": 587,
      "upon": 588,
      "##ches": 589,
      "situated": 590,
      "indicating": 591,
      "Massif": 592,
      "##hip": 593,
      "##ationship": 594,
      "relationship": 595,
      "##inuous": 596,
      "different": 597,
      "defines": 598,
      "##ged": 599,
      "const": 600,
      "fill": 601,
      "patches": 602,
      "##atter": 603,
      "##rast": 604,
      "contrast": 605,
      "subst": 606,
      "spatially": 607,
      "##id": 608,
      "un": 609,
      "##ger": 610,
      "im": 611,
      "expansive": 612,
      "##ulti": 613,
      "highly": 614,
      "abuts": 615,
      "##ner": 616,
      "##ium": 617,
      "##ist": 618,
      "terrains": 619,
      "##ment": 620,
      "Imbrium": 621,
      "##uxt": 622,
      "##uxta": 623,
      "##ultiple": 624,
      "constit": 625,
      "##rix": 626,
      "matrix": 627,
      "constitut": 628,
      "majority": 629,
      "##ign": 630,
      "juxta": 631,
      "##ular": 632,
      "overla": 633,
      "cratering": 634,
      "Lineated": 635,
      "##rate": 636,
      "In": 637,
      "varied": 638,
      "constitutes": 639,
      "##op": 640,
      "##gged": 641,
      "lower": 642,
      "darker": 643,
      "##ugged": 644,
      "appears": 645,
      "##ied": 646,
      "rugged": 647,
      "sign": 648,
      "substrate": 649,
      "more": 650,
      "background": 651,
      "regions": 652,
      "peri": 653,
      "rep": 654,
      "zon": 655,
      "##position": 656,
      "##ificant": 657,
      "significant": 658,
      "expanse": 659,
      "relatively": 660,
      "represent": 661,
      "crustal": 662,
      "areas": 663,
      "##oun": 664,
      "Inner": 665,
      "define": 666,
      "Units": 667,
      "tra": 668,
      "##ci": 669,
      "##ere": 670,
      "##pping": 671,
      "int": 672,
      "overall": 673,
      "##enc": 674,
      "min": 675,
      "##ough": 676,
      "##ling": 677,
      "##ight": 678,
      "superimposed": 679,
      "##eral": 680,
      "multiple": 681,
      "ag": 682,
      "deposits": 683,
      "image": 684,
      "##tire": 685,
      "entire": 686,
      "bordering": 687,
      "ob": 688,
      "obs": 689,
      "smaller": 690,
      "##gin": 691,
      "overlapping": 692,
      "forming": 693,
      "deposition": 694,
      "##uter": 695,
      "observ": 696,
      "##attered": 697,
      "continuous": 698,
      "impacted": 699,
      "marked": 700,
      "interact": 701,
      "##qu": 702,
      "##ified": 703,
      "exhibit": 704,
      "fra": 705,
      "##own": 706,
      "##ro": 707,
      "##ainst": 708,
      "against": 709,
      "on": 710,
      "periph": 711,
      "traver": 712,
      "##here": 713,
      "margin": 714,
      "##ie": 715,
      "##arily": 716,
      "primarily": 717,
      "hist": 718,
      "histor": 719,
      "upper": 720,
      "zone": 721,
      "##ther": 722,
      "be": 723,
      "##ay": 724,
      "it": 725,
      "inc": 726,
      "##antling": 727,
      "##cient": 728,
      "ancient": 729,
      "##ial": 730,
      "overlying": 731,
      "observed": 732,
      "##kn": 733,
      "##hic": 734,
      "##ence": 735,
      "##ming": 736,
      "##ayer": 737,
      "main": 738,
      "Outer": 739,
      "##iz": 740,
      "minor": 741,
      "layer": 742,
      "covered": 743,
      "##ster": 744,
      "##ew": 745,
      "##luster": 746,
      "##gular": 747,
      "Mantling": 748,
      "##known": 749,
      "inf": 750,
      "Cop": 751,
      "##ernic": 752,
      "Copernic": 753,
      "where": 754,
      "res": 755,
      "secondary": 756,
      "Ma": 757,
      "Copernican": 758,
      "scattered": 759,
      "at": 760,
      "textur": 761,
      "ele": 762,
      "wid": 763,
      "##lud": 764,
      "includ": 765,
      "##rre": 766,
      "##rregular": 767,
      "deline": 768,
      "irregular": 769,
      "##ying": 770,
      "into": 771,
      "##phic": 772,
      "li": 773,
      "composed": 774,
      "history": 775,
      "##ification": 776,
      "highl": 777,
      "##iform": 778,
      "uniform": 779,
      "Fra": 780,
      "##hel": 781,
      "overw": 782,
      "##helming": 783,
      "overwhelming": 784,
      "meets": 785,
      "infill": 786,
      "##ighter": 787,
      "showing": 788,
      "coverage": 789,
      "bro": 790,
      "lighter": 791,
      "##veral": 792,
      "modification": 793,
      "modified": 794,
      "delineated": 795,
      "cur": 796,
      "##uro": 797,
      "Mauro": 798,
      "pos": 799,
      "reve": 800,
      "reveal": 801,
      "textured": 802,
      "##ree": 803,
      "rest": 804,
      "par": 805,
      "##ot": 806,
      "##ses": 807,
      "overwhelmingly": 808,
      "exhibiting": 809,
      "vary": 810,
      "elev": 811,
      "##ort": 812,
      "structurally": 813,
      "varying": 814,
      "Cluster": 815,
      "transitions": 816,
      "##ke": 817,
      "##tern": 818,
      "##est": 819,
      "like": 820,
      "contrasting": 821,
      "##ounger": 822,
      "resur": 823,
      "several": 824,
      "peripheral": 825,
      "resurfac": 826,
      "gen": 827,
      "##ock": 828,
      "##ted": 829,
      "Background": 830,
      "ed": 831,
      "man": 832,
      "pattern": 833,
      "spatial": 834,
      "low": 835,
      "##pre": 836,
      "larger": 837,
      "sou": 838,
      "##oo": 839,
      "separates": 840,
      "disc": 841,
      "three": 842,
      "inters": 843,
      "elevated": 844,
      "younger": 845,
      "##pped": 846,
      "##espre": 847,
      "##espread": 848,
      "##ortion": 849,
      "widespread": 850,
      "ar": 851,
      "##ting": 852,
      "fram": 853,
      "regional": 854,
      "##quent": 855,
      "juxtaposed": 856,
      "##lat": 857,
      "##ont": 858,
      "clearly": 859,
      "view": 860,
      "##righ": 861,
      "##sed": 862,
      "patch": 863,
      "portion": 864,
      "contain": 865,
      "position": 866,
      "both": 867,
      "##te": 868,
      "##latea": 869,
      "separating": 870,
      "nor": 871,
      "north": 872,
      "many": 873,
      "near": 874,
      "##ook": 875,
      "bl": 876,
      "##erally": 877,
      "bounded": 878,
      "brigh": 879,
      "##sist": 880,
      "##lateau": 881,
      "resurfacing": 882,
      "##ep": 883,
      "consist": 884,
      "south": 885,
      "rough": 886,
      "overlay": 887,
      "see": 888,
      "pro": 889,
      "relie": 890,
      "relief": 891,
      "mapped": 892,
      "other": 893,
      "##lies": 894,
      "##rup": 895,
      "including": 896,
      "##ined": 897,
      "mas": 898,
      "Sup": 899,
      "##im": 900,
      "ev": 901,
      "##ene": 902,
      "siz": 903,
      "##ank": 904,
      "Superimposed": 905,
      "depositional": 906,
      "infilling": 907,
      "##oor": 908,
      "##led": 909,
      "##rete": 910,
      "##ab": 911,
      "juxtaposition": 912,
      "topographic": 913,
      "##pes": 914,
      "Un": 915,
      "Unknown": 916,
      "event": 917,
      "intersect": 918,
      "discrete": 919,
      "sizes": 920,
      "materials": 921,
      "##ery": 922,
      "separated": 923,
      "dep": 924,
      "composition": 925,
      "##rough": 926,
      "It": 927,
      "##ded": 928,
      "pre": 929,
      "delineate": 930,
      "##able": 931,
      "generally": 932,
      "##is": 933,
      "differential": 934,
      "reveals": 935,
      "all": 936,
      "floor": 937,
      "##od": 938,
      "##sequent": 939,
      "represents": 940,
      "sect": 941,
      "contacts": 942,
      "edge": 943,
      "covers": 944,
      "subsequent": 945,
      "lat": 946,
      "displaying": 947,
      "broad": 948,
      "bright": 949,
      "##ved": 950,
      "conf": 951,
      "##unct": 952,
      "filling": 953,
      "arran": 954,
      "deep": 955,
      "its": 956,
      "layered": 957,
      "##resh": 958,
      "traverse": 959,
      "occupy": 960,
      "##oin": 961,
      "##inear": 962,
      "relationships": 963,
      "lying": 964,
      "present": 965,
      "##gement": 966,
      "arrangement": 967,
      "##ions": 968,
      "##ology": 969,
      "sinuous": 970,
      "##orph": 971,
      "##uring": 972,
      "separate": 973,
      "consists": 974,
      "right": 975,
      "morph": 976,
      "various": 977,
      "massif": 978,
      "Sm": 979,
      "##ive": 980,
      "flat": 981,
      "al": 982,
      "representing": 983,
      "ground": 984,
      "flank": 985,
      "##lis": 986,
      "parti": 987,
      "covering": 988,
      "uniformly": 989,
      "pred": 990,
      "adjoin": 991,
      "##rosion": 992,
      "##ef": 993,
      "fresh": 994,
      "predomin": 995,
      "erosion": 996,
      "predominant": 997,
      "marks": 998,
      "center": 999,
      "partially": 1000,
      "scene": 1001,
      "est": 1002,
      "##ablis": 1003,
      "establis": 1004,
      "cut": 1005,
      "##ced": 1006,
      "##00": 1007,
      "provid": 1008,
      "sits": 1009,
      "massive": 1010,
      "unknown": 1011,
      "##ges": 1012,
      "##olated": 1013,
      "Impact": 1014,
      "##onoun": 1015,
      "##onounced": 1016,
      "enc": 1017,
      "den": 1018,
      "band": 1019,
      "highlight": 1020,
      "##ir": 1021,
      "##sing": 1022,
      "patterns": 1023,
      "strat": 1024,
      "super": 1025,
      "confined": 1026,
      "meeting": 1027,
      "##ld": 1028,
      "##iguous": 1029,
      "contiguous": 1030,
      "isolated": 1031,
      "morphology": 1032,
      "##uch": 1033,
      "pronounced": 1034,
      "interacts": 1035,
      "sequ": 1036,
      "found": 1037,
      "curved": 1038,
      "look": 1039,
      "##ield": 1040,
      "occupying": 1041,
      "field": 1042,
      "underlies": 1043,
      "##cted": 1044,
      "deg": 1045,
      "much": 1046,
      "##urally": 1047,
      "impacts": 1048,
      "events": 1049,
      "##faces": 1050,
      "pres": 1051,
      "qu": 1052,
      "lef": 1053,
      "left": 1054,
      "most": 1055,
      "St": 1056,
      "sequence": 1057,
      "exposed": 1058,
      "am": 1059,
      "cre": 1060,
      "framed": 1061,
      "##ress": 1062,
      "featuring": 1063,
      "##ore": 1064,
      "##du": 1065,
      "belong": 1066,
      "black": 1067,
      "act": 1068,
      "flatter": 1069,
      "Struct": 1070,
      "##rupted": 1071,
      "deposit": 1072,
      "predominantly": 1073,
      "##cent": 1074,
      "contained": 1075,
      "##oriz": 1076,
      "plateau": 1077,
      "basins": 1078,
      "##ader": 1079,
      "broader": 1080,
      "horiz": 1081,
      "rests": 1082,
      "depress": 1083,
      "structured": 1084,
      "##ess": 1085,
      "##iated": 1086,
      "horizont": 1087,
      "formed": 1088,
      "has": 1089,
      "fore": 1090,
      "##tle": 1091,
      "foreground": 1092,
      "among": 1093,
      "##rant": 1094,
      "quad": 1095,
      "quadrant": 1096,
      "##linear": 1097,
      "flow": 1098,
      "##vilinear": 1099,
      "Al": 1100,
      "##verse": 1101,
      "curvilinear": 1102,
      "##dued": 1103,
      "punct": 1104,
      "trough": 1105,
      "Alpes": 1106,
      "pock": 1107,
      "##urther": 1108,
      "##iv": 1109,
      "subdued": 1110,
      "transitional": 1111,
      "filled": 1112,
      "foundation": 1113,
      "##ard": 1114,
      "Mo": 1115,
      "##ss": 1116,
      "rougher": 1117,
      "Moon": 1118,
      "fills": 1119,
      "##ically": 1120,
      "##by": 1121,
      "restri": 1122,
      "##gment": 1123,
      "evid": 1124,
      "diverse": 1125,
      "Plateau": 1126,
      "restricted": 1127,
      "bas": 1128,
      "further": 1129,
      "comp": 1130,
      "topographical": 1131,
      "spe": 1132,
      "variations": 1133,
      "west": 1134,
      "fract": 1135,
      "margins": 1136,
      "stri": 1137,
      "subtle": 1138,
      "punctuated": 1139,
      "ty": 1140,
      "dot": 1141,
      "expos": 1142,
      "perv": 1143,
      "##asive": 1144,
      "pervasive": 1145,
      "sing": 1146,
      "Numerous": 1147,
      "Structurally": 1148,
      "light": 1149,
      "flanked": 1150,
      "highlights": 1151,
      "fa": 1152,
      "nest": 1153,
      "creating": 1154,
      "faul": 1155,
      "mature": 1156,
      "ass": 1157,
      "##irc": 1158,
      "assoc": 1159,
      "circ": 1160,
      "spec": 1161,
      "very": 1162,
      "include": 1163,
      "indicates": 1164,
      "lies": 1165,
      "Rook": 1166,
      "##ob": 1167,
      "facies": 1168,
      "not": 1169,
      "100": 1170,
      "geology": 1171,
      "periphery": 1172,
      "interaction": 1173,
      "proc": 1174,
      "##esses": 1175,
      "Mont": 1176,
      "Montes": 1177,
      "circular": 1178,
      "serv": 1179,
      "Nectaris": 1180,
      "dra": 1181,
      "zones": 1182,
      "southern": 1183,
      "##anss": 1184,
      "##anssen": 1185,
      "Janssen": 1186,
      "indicative": 1187,
      "associated": 1188,
      "##king": 1189,
      "##erior": 1190,
      "provides": 1191,
      "east": 1192,
      "highlands": 1193,
      "interrupted": 1194,
      "degra": 1195,
      "processes": 1196,
      "later": 1197,
      "##ately": 1198,
      "surrounded": 1199,
      "##so": 1200,
      "also": 1201,
      "##ivity": 1202,
      "overlays": 1203,
      "An": 1204,
      "upl": 1205,
      "##urface": 1206,
      "ep": 1207,
      "northern": 1208,
      "activity": 1209,
      "set": 1210,
      "dem": 1211,
      "establish": 1212,
      "appearing": 1213,
      "highland": 1214,
      "horizontal": 1215,
      "contrasts": 1216,
      "presence": 1217,
      "##ork": 1218,
      "Small": 1219,
      "##und": 1220,
      "foundational": 1221,
      "rim": 1222,
      "located": 1223,
      "##rupt": 1224,
      "Multiple": 1225,
      "adjoins": 1226,
      "With": 1227,
      "types": 1228,
      "Within": 1229,
      "dominate": 1230,
      "overlies": 1231,
      "##omp": 1232,
      "##rect": 1233,
      "segment": 1234,
      "##arr": 1235,
      "serves": 1236,
      "##low": 1237,
      "direct": 1238,
      "edges": 1239,
      "out": 1240,
      "cross": 1241,
      "next": 1242,
      "##omb": 1243,
      "##ove": 1244,
      "bomb": 1245,
      "encomp": 1246,
      "encompas": 1247,
      "##edded": 1248,
      "##alle": 1249,
      "surrounds": 1250,
      "sector": 1251,
      "##pen": 1252,
      "WA": 1253,
      "WAC": 1254,
      "##mat": 1255,
      "for": 1256,
      "##mbedded": 1257,
      "wide": 1258,
      "through": 1259,
      "nestled": 1260,
      "##igra": 1261,
      "spar": 1262,
      "distinctly": 1263,
      "##west": 1264,
      "shad": 1265,
      "Lar": 1266,
      "sparse": 1267,
      "Large": 1268,
      "##rib": 1269,
      "ton": 1270,
      "moder": 1271,
      "related": 1272,
      "traversed": 1273,
      "##ce": 1274,
      "belonging": 1275,
      "##nob": 1276,
      "establishing": 1277,
      "##nobby": 1278,
      "##ssif": 1279,
      "##lassif": 1280,
      "evidence": 1281,
      "directly": 1282,
      "single": 1283,
      "looks": 1284,
      "pl": 1285,
      "##edi": 1286,
      "stratigra": 1287,
      "shap": 1288,
      "interfaces": 1289,
      "##lassified": 1290,
      "mi": 1291,
      "shadow": 1292,
      "##per": 1293,
      "above": 1294,
      "textures": 1295,
      "##stic": 1296,
      "##ribut": 1297,
      "dramat": 1298,
      "##persed": 1299,
      "##entified": 1300,
      "largely": 1301,
      "##ai": 1302,
      "geogra": 1303,
      "interface": 1304,
      "traversing": 1305,
      "##allel": 1306,
      "characteristic": 1307,
      "exist": 1308,
      "cap": 1309,
      "dom": 1310,
      "depression": 1311,
      "revealing": 1312,
      "general": 1313,
      "cor": 1314,
      "dense": 1315,
      "Sp": 1316,
      "erosional": 1317,
      "Heavily": 1318,
      "compositional": 1319,
      "contains": 1320,
      "##tled": 1321,
      "domain": 1322,
      "largest": 1323,
      "toned": 1324,
      "part": 1325,
      "##ne": 1326,
      "##ving": 1327,
      "Dark": 1328,
      "shaped": 1329,
      "Spati": 1330,
      "parallel": 1331,
      "Knobby": 1332,
      "depi": 1333,
      "one": 1334,
      "embedded": 1335,
      "deeply": 1336,
      "delineating": 1337,
      "dens": 1338,
      "substant": 1339,
      "cluster": 1340,
      "Smooth": 1341,
      "mix": 1342,
      "rem": 1343,
      "variable": 1344,
      "superposition": 1345,
      "distribut": 1346,
      "post": 1347,
      "bands": 1348,
      "id": 1349,
      "gent": 1350,
      "presenting": 1351,
      "plan": 1352,
      "abutting": 1353,
      "##ces": 1354,
      "traverses": 1355,
      "##ardment": 1356,
      "bombardment": 1357,
      "arc": 1358,
      "substantial": 1359,
      "##ach": 1360,
      "basal": 1361,
      "Spatially": 1362,
      "Sc": 1363,
      "##ines": 1364,
      "Scattered": 1365,
      "ima": 1366,
      "degraded": 1367,
      "##ogene": 1368,
      "compri": 1369,
      "ne": 1370,
      "intersected": 1371,
      "hom": 1372,
      "lateral": 1373,
      "superposed": 1374,
      "density": 1375,
      "period": 1376,
      "less": 1377,
      "capt": 1378,
      "##medi": 1379,
      "only": 1380,
      "exposures": 1381,
      "##rol": 1382,
      "control": 1383,
      "bod": 1384,
      "identified": 1385,
      "adjoining": 1386,
      "minim": 1387,
      "##los": 1388,
      "geographic": 1389,
      "##ject": 1390,
      "captures": 1391,
      "modif": 1392,
      "stre": 1393,
      "sequent": 1394,
      "##heast": 1395,
      "interacting": 1396,
      "thin": 1397,
      "interspersed": 1398,
      "##de": 1399,
      "chan": 1400,
      "higher": 1401,
      "One": 1402,
      "faulting": 1403,
      "extensively": 1404,
      "extent": 1405,
      "each": 1406,
      "##sel": 1407,
      "layers": 1408,
      "Smaller": 1409,
      "##inus": 1410,
      "Craters": 1411,
      "section": 1412,
      "##uate": 1413,
      "##ogeneous": 1414,
      "##yst": 1415,
      "lith": 1416,
      "surfaces": 1417,
      "delineates": 1418,
      "##ninus": 1419,
      "Apen": 1420,
      "##ological": 1421,
      "positioned": 1422,
      "Apenninus": 1423,
      "##unction": 1424,
      "outer": 1425,
      "##strat": 1426,
      "likely": 1427,
      "imaged": 1428,
      "tur": 1429,
      "turn": 1430,
      "Both": 1431,
      "recent": 1432,
      "##ome": 1433,
      "junction": 1434,
      "block": 1435,
      "blank": 1436,
      "dramatic": 1437,
      "blanket": 1438,
      "##bly": 1439,
      "significantly": 1440,
      "map": 1441,
      "Dist": 1442,
      "outl": 1443,
      "Distinct": 1444,
      "syst": 1445,
      "abrupt": 1446,
      "specific": 1447,
      "syste": 1448,
      "##isod": 1449,
      "episod": 1450,
      "pocked": 1451,
      "intern": 1452,
      "distributed": 1453,
      "##ell": 1454,
      "ter": 1455,
      "##bed": 1456,
      "##surface": 1457,
      "##eter": 1458,
      "brighter": 1459,
      "bed": 1460,
      "notic": 1461,
      "##rong": 1462,
      "nearly": 1463,
      "classified": 1464,
      "marginal": 1465,
      "characteriz": 1466,
      "cuts": 1467,
      "subsurface": 1468,
      "no": 1469,
      "##bor": 1470,
      "##ferent": 1471,
      "entirely": 1472,
      "##vy": 1473,
      "##arc": 1474,
      "striking": 1475,
      "##ifferent": 1476,
      "demarc": 1477,
      "dotted": 1478,
      "##ected": 1479,
      "juxtapos": 1480,
      "##ighbor": 1481,
      "neighbor": 1482,
      "narr": 1483,
      "below": 1484,
      "noticea": 1485,
      "internal": 1486,
      "##rock": 1487,
      "moderate": 1488,
      "stable": 1489,
      "bedrock": 1490,
      "##other": 1491,
      "histories": 1492,
      "##jecta": 1493,
      "sequential": 1494,
      "arcuate": 1495,
      "ejecta": 1496,
      "existing": 1497,
      "##aic": 1498,
      "rid": 1499,
      "To": 1500,
      "scale": 1501,
      "mos": 1502,
      "mosaic": 1503,
      "##ak": 1504,
      "atop": 1505,
      "planar": 1506,
      "minimal": 1507,
      "system": 1508,
      "constra": 1509,
      "intersection": 1510,
      "geologically": 1511,
      "strong": 1512,
      "Linear": 1513,
      "itsel": 1514,
      "itself": 1515,
      "another": 1516,
      "observable": 1517,
      "providing": 1518,
      "##rated": 1519,
      "corner": 1520,
      "immedi": 1521,
      "presents": 1522,
      "geom": 1523,
      "##ments": 1524,
      "narrow": 1525,
      "neighboring": 1526,
      "depressions": 1527,
      "constrained": 1528,
      "##aly": 1529,
      "episodes": 1530,
      "consistent": 1531,
      "##lie": 1532,
      "Different": 1533,
      "##36": 1534,
      "domains": 1535,
      "Ge": 1536,
      "##ave": 1537,
      "overlaying": 1538,
      "rock": 1539,
      "##ls": 1540,
      "##eath": 1541,
      "##ewer": 1542,
      "##aised": 1543,
      "raised": 1544,
      "such": 1545,
      "core": 1546,
      "run": 1547,
      "body": 1548,
      "lim": 1549,
      "segmented": 1550,
      "uplif": 1551,
      "gra": 1552,
      "##ide": 1553,
      "diss": 1554,
      "sections": 1555,
      "shadowed": 1556,
      "##sibly": 1557,
      "deposited": 1558,
      "streak": 1559,
      "southwest": 1560,
      "##ework": 1561,
      "seem": 1562,
      "periods": 1563,
      "##hed": 1564,
      "framework": 1565,
      "##cts": 1566,
      "abutted": 1567,
      "##ace": 1568,
      "layering": 1569,
      "##A3": 1570,
      "##mark": 1571,
      "lines": 1572,
      "pockmark": 1573,
      "encompassing": 1574,
      "##etr": 1575,
      "##eavy": 1576,
      "##29": 1577,
      "7A3": 1578,
      "##E29": 1579,
      "7A3E29": 1580,
      "mot": 1581,
      "superior": 1582,
      "frame": 1583,
      "##69": 1584,
      "##6936": 1585,
      "##ible": 1586,
      "western": 1587,
      "preserv": 1588,
      "C9": 1589,
      "prov": 1590,
      "C96936": 1591,
      "##ences": 1592,
      "noticeable": 1593,
      "mottled": 1594,
      "##lop": 1595,
      "##ially": 1596,
      "##ense": 1597,
      "variation": 1598,
      "stratigraphy": 1599,
      "portions": 1600,
      "##ecton": 1601,
      "tecton": 1602,
      "##strating": 1603,
      "##ole": 1604,
      "centrally": 1605,
      "provin": 1606,
      "##work": 1607,
      "containing": 1608,
      "geometr": 1609,
      "overlap": 1610,
      "##eneath": 1611,
      "base": 1612,
      "fine": 1613,
      "intersecting": 1614,
      "albed": 1615,
      "newer": 1616,
      "overlaid": 1617,
      "fault": 1618,
      "##ably": 1619,
      "pockmarked": 1620,
      "##aining": 1621,
      "fracture": 1622,
      "##ven": 1623,
      "Its": 1624,
      "differing": 1625,
      "geographically": 1626,
      "albedo": 1627,
      "abruptly": 1628,
      "dominating": 1629,
      "side": 1630,
      "resurfaced": 1631,
      "immediately": 1632,
      "##vol": 1633,
      "concent": 1634,
      "invol": 1635,
      "##has": 1636,
      "old": 1637,
      "local": 1638,
      "leve": 1639,
      "depicts": 1640,
      "##side": 1641,
      "been": 1642,
      "establishes": 1643,
      "intense": 1644,
      "##ifically": 1645,
      "##out": 1646,
      "patterned": 1647,
      "enclos": 1648,
      "heavy": 1649,
      "provinces": 1650,
      "well": 1651,
      "##acked": 1652,
      "gently": 1653,
      "##onent": 1654,
      "component": 1655,
      "host": 1656,
      "ages": 1657,
      "specifically": 1658,
      "homogeneous": 1659,
      "There": 1660,
      "masses": 1661,
      "Text": 1662,
      "demon": 1663,
      "streaks": 1664,
      "##ts": 1665,
      "transitioning": 1666,
      "belongs": 1667,
      "mass": 1668,
      "frames": 1669,
      "troughs": 1670,
      "dissected": 1671,
      "have": 1672,
      "##rees": 1673,
      "degrees": 1674,
      "##cas": 1675,
      "showcas": 1676,
      "tectonic": 1677,
      "complete": 1678,
      "Surface": 1679,
      "pot": 1680,
      "potent": 1681,
      "##ning": 1682,
      "beneath": 1683,
      "eith": 1684,
      "either": 1685,
      "Several": 1686,
      "##och": 1687,
      "positions": 1688,
      "alongside": 1689,
      "Maund": 1690,
      "Maunder": 1691,
      "looking": 1692,
      "##weep": 1693,
      "northwest": 1694,
      "epoch": 1695,
      "stage": 1696,
      "interior": 1697,
      "stratigraphic": 1698,
      "##ited": 1699,
      "subsequently": 1700,
      "involving": 1701,
      "sweep": 1702,
      "stacked": 1703,
      "Over": 1704,
      "differences": 1705,
      "##icular": 1706,
      "Line": 1707,
      "particular": 1708,
      "ill": 1709,
      "superimpos": 1710,
      "irregularly": 1711,
      "particularly": 1712,
      "interplay": 1713,
      "textural": 1714,
      "##sis": 1715,
      "sparsely": 1716,
      "##rop": 1717,
      "around": 1718,
      "##ron": 1719,
      "##alysis": 1720,
      "remaining": 1721,
      "##il": 1722,
      "possibly": 1723,
      "upland": 1724,
      "##BD": 1725,
      "lightly": 1726,
      "scarr": 1727,
      "##gether": 1728,
      "pe": 1729,
      "##ding": 1730,
      "Pat": 1731,
      "Two": 1732,
      "Texturally": 1733,
      "pale": 1734,
      "sweeping": 1735,
      "FBD": 1736,
      "##inu": 1737,
      "cutting": 1738,
      "seems": 1739,
      "epochs": 1740,
      "##5D": 1741,
      "FBD5D": 1742,
      "FBD5D3": 1743,
      "Patches": 1744,
      "bu": 1745,
      "emp": 1746,
      "horizontally": 1747,
      "represented": 1748,
      "##ott": 1749,
      "blocks": 1750,
      "##ottom": 1751,
      "discern": 1752,
      "pepper": 1753,
      "wh": 1754,
      "exposure": 1755,
      "trace": 1756,
      "illu": 1757,
      "discernible": 1758,
      "bul": 1759,
      "preserved": 1760,
      "scarred": 1761,
      "bulk": 1762,
      "ori": 1763,
      "encompasses": 1764,
      "origin": 1765,
      "together": 1766,
      "nearby": 1767,
      "##theast": 1768,
      "southeast": 1769,
      "sole": 1770,
      "fracturing": 1771,
      "blankets": 1772,
      "Analysis": 1773,
      "elements": 1774,
      "bottom": 1775,
      "interactions": 1776,
      "levels": 1777,
      "##ining": 1778,
      "exc": 1779,
      "eastern": 1780,
      "ridges": 1781,
      "elong": 1782,
      "##ortheast": 1783,
      "northeast": 1784,
      "phas": 1785,
      "juxtaposing": 1786,
      "discont": 1787,
      "sat": 1788,
      "satu": 1789,
      "##apped": 1790,
      "##velop": 1791,
      "elongated": 1792,
      "evident": 1793,
      "their": 1794,
      "overlie": 1795,
      "##rown": 1796,
      "##ifest": 1797,
      "manifest": 1798,
      "Min": 1799,
      "hosts": 1800,
      "settled": 1801,
      "##ulated": 1802,
      "mant": 1803,
      "acc": 1804,
      "Th": 1805,
      "##ance": 1806,
      "Adj": 1807,
      "Minor": 1808,
      "throughout": 1809,
      "was": 1810,
      "Pr": 1811,
      "vol": 1812,
      "##rial": 1813,
      "##xim": 1814,
      "##vening": 1815,
      "##most": 1816,
      "surve": 1817,
      "##yed": 1818,
      "##meter": 1819,
      "intervening": 1820,
      "elevation": 1821,
      "change": 1822,
      "tim": 1823,
      "demarcated": 1824,
      "Adjacent": 1825,
      "peppered": 1826,
      "mostly": 1827,
      "##nant": 1828,
      "comprises": 1829,
      "##rest": 1830,
      "terrest": 1831,
      "terrestrial": 1832,
      "##oward": 1833,
      "Marking": 1834,
      "toward": 1835,
      "##dation": 1836,
      "they": 1837,
      "highlighting": 1838,
      "Markings": 1839,
      "remnant": 1840,
      "##ves": 1841,
      "undul": 1842,
      "notably": 1843,
      "deri": 1844,
      "derived": 1845,
      "divided": 1846,
      "striations": 1847,
      "degradation": 1848,
      "indicate": 1849,
      "curving": 1850,
      "laterally": 1851,
      "Fl": 1852,
      "characterizes": 1853,
      "depicted": 1854,
      "uplifted": 1855,
      "surveyed": 1856,
      "unc": 1857,
      "Three": 1858,
      "compar": 1859,
      "space": 1860,
      "gentle": 1861,
      "moderately": 1862,
      "outlining": 1863,
      "floo": 1864,
      "being": 1865,
      "here": 1866,
      "separation": 1867,
      "singular": 1868,
      "net": 1869,
      "resting": 1870,
      "geometry": 1871,
      "network": 1872,
      "Geological": 1873,
      "##ness": 1874,
      "##ord": 1875,
      "saturated": 1876,
      "acts": 1877,
      "##ration": 1878,
      "densely": 1879,
      "##to": 1880,
      "##viron": 1881,
      "environ": 1882,
      "enclosed": 1883,
      "multi": 1884,
      "##enous": 1885,
      "perimeter": 1886,
      "##pe": 1887,
      "##ologies": 1888,
      "fragment": 1889,
      "banding": 1890,
      "brown": 1891,
      "open": 1892,
      "lineated": 1893,
      "sitting": 1894,
      "Some": 1895,
      "Prominent": 1896,
      "modify": 1897,
      "##CD": 1898,
      "##stit": 1899,
      "##aint": 1900,
      "onto": 1901,
      "heter": 1902,
      "##raw": 1903,
      "spraw": 1904,
      "sprawling": 1905,
      "location": 1906,
      "##ute": 1907,
      "scar": 1908,
      "##ament": 1909,
      "##can": 1910,
      "mantle": 1911,
      "complexes": 1912,
      "interstit": 1913,
      "Ol": 1914,
      "volcan": 1915,
      "Older": 1916,
      "##ogenous": 1917,
      "##cip": 1918,
      "##ely": 1919,
      "##rd": 1920,
      "##incip": 1921,
      "##hird": 1922,
      "stand": 1923,
      "princip": 1924,
      "running": 1925,
      "back": 1926,
      "clos": 1927,
      "third": 1928,
      "##ose": 1929,
      "##inuity": 1930,
      "unclassified": 1931,
      "##ithic": 1932,
      "mon": 1933,
      "##olithic": 1934,
      "superiorly": 1935,
      "monolithic": 1936,
      "##BA": 1937,
      "homogenous": 1938,
      "DC": 1939,
      "##drop": 1940,
      "backdrop": 1941,
      "ring": 1942,
      "##dig": 1943,
      "them": 1944,
      "minute": 1945,
      "demonstrating": 1946,
      "##91": 1947,
      "##digit": 1948,
      "col": 1949,
      "##F91": 1950,
      "##9F91": 1951,
      "DC9F91": 1952,
      "giv": 1953,
      "inner": 1954,
      "Loc": 1955,
      "##sc": 1956,
      "interdigit": 1957,
      "latter": 1958,
      "disrupted": 1959,
      "potentially": 1960,
      "components": 1961,
      "Im": 1962,
      "empl": 1963,
      "standing": 1964,
      "patchy": 1965,
      "##ount": 1966,
      "whose": 1967,
      "principal": 1968,
      "bow": 1969,
      "##ency": 1970,
      "maint": 1971,
      "crosses": 1972,
      "but": 1973,
      "##ologically": 1974,
      "Topogra": 1975,
      "High": 1976,
      "det": 1977,
      "occur": 1978,
      "modifying": 1979,
      "undulating": 1980,
      "massifs": 1981,
      "Image": 1982,
      "##acency": 1983,
      "##rescent": 1984,
      "fragmented": 1985,
      "Fract": 1986,
      "crossing": 1987,
      "lithological": 1988,
      "cri": 1989,
      "Peri": 1990,
      "late": 1991,
      "adjacency": 1992,
      "resul": 1993,
      "resid": 1994,
      "established": 1995,
      "bowl": 1996,
      "geologic": 1997,
      "context": 1998,
      "interrupt": 1999,
      "environment": 2000,
      "Periph": 2001,
      "faint": 2002,
      "time": 2003,
      "Localized": 2004,
      "crescent": 2005,
      "succ": 2006,
      "Fracture": 2007,
      "##ric": 2008,
      "##av": 2009,
      "##ured": 2010,
      "Peripheral": 2011,
      "gre": 2012,
      "nectar": 2013,
      "Floor": 2014,
      "nectarian": 2015,
      "##ual": 2016,
      "remnants": 2017,
      "changes": 2018,
      "divid": 2019,
      "lithology": 2020,
      "fund": 2021,
      "nested": 2022,
      "fundament": 2023,
      "des": 2024,
      "stark": 2025,
      "heterogeneous": 2026,
      "##ward": 2027,
      "prol": 2028,
      "abund": 2029,
      "##onged": 2030,
      "limited": 2031,
      "prolonged": 2032,
      "##lue": 2033,
      "second": 2034,
      "resulting": 2035,
      "##less": 2036,
      "prominently": 2037,
      "concentrated": 2038,
      "solely": 2039,
      "detai": 2040,
      "influ": 2041,
      "illustrating": 2042,
      "long": 2043,
      "##ightly": 2044,
      "limits": 2045,
      "smoothly": 2046,
      "flanks": 2047,
      "dramatically": 2048,
      "comprised": 2049,
      "They": 2050,
      "fractures": 2051,
      "juxtaposes": 2052,
      "Fresh": 2053,
      "Geologically": 2054,
      "mantling": 2055,
      "Lunar": 2056,
      "round": 2057,
      "##dd": 2058,
      "overlain": 2059,
      "abundant": 2060,
      "characterize": 2061,
      "shadows": 2062,
      "interstitial": 2063,
      "##lus": 2064,
      "top": 2065,
      "inclus": 2066,
      "exists": 2067,
      "##ching": 2068,
      "conver": 2069,
      "geographical": 2070,
      "blue": 2071,
      "appearance": 2072,
      "##cross": 2073,
      "differentiated": 2074,
      "locally": 2075,
      "underlie": 2076,
      "stratification": 2077,
      "volcanic": 2078,
      "lob": 2079,
      "angular": 2080,
      "##lusive": 2081,
      "strata": 2082,
      "exclusive": 2083,
      "##cise": 2084,
      "stratified": 2085,
      "land": 2086,
      "peripherally": 2087,
      "uppermost": 2088,
      "ero": 2089,
      "flanking": 2090,
      "##red": 2091,
      "##sion": 2092,
      "##ise": 2093,
      "fields": 2094,
      "##ddition": 2095,
      "eroded": 2096,
      "af": 2097,
      "rol": 2098,
      "##eep": 2099,
      "##ite": 2100,
      "uplift": 2101,
      "some": 2102,
      "Inter": 2103,
      "fundamentally": 2104,
      "gro": 2105,
      "##ysc": 2106,
      "##inate": 2107,
      "##aces": 2108,
      "##essive": 2109,
      "rolling": 2110,
      "##yscale": 2111,
      "##am": 2112,
      "outlines": 2113,
      "than": 2114,
      "Be": 2115,
      "fol": 2116,
      "##lect": 2117,
      "made": 2118,
      "runs": 2119,
      "showcases": 2120,
      "ran": 2121,
      "##wise": 2122,
      "difference": 2123,
      "otherwise": 2124,
      "exclusively": 2125,
      "##ten": 2126,
      "subsi": 2127,
      "precise": 2128,
      "##ountless": 2129,
      "##ren": 2130,
      "provided": 2131,
      "flows": 2132,
      "rims": 2133,
      "showcasing": 2134,
      "##ging": 2135,
      "countless": 2136,
      "subord": 2137,
      "design": 2138,
      "##arded": 2139,
      "setting": 2140,
      "bombarded": 2141,
      "ridge": 2142,
      "##sscross": 2143,
      "crisscross": 2144,
      "subordinate": 2145,
      "capped": 2146,
      "pocket": 2147,
      "phases": 2148,
      "sl": 2149,
      "##olut": 2150,
      "##olution": 2151,
      "##resp": 2152,
      "inci": 2153,
      "intersects": 2154,
      "corresp": 2155,
      "correspond": 2156,
      "resist": 2157,
      "patchwork": 2158,
      "successive": 2159,
      "develop": 2160,
      "bodies": 2161,
      "past": 2162,
      "sized": 2163,
      "lowl": 2164,
      "Overlying": 2165,
      "groo": 2166,
      "shown": 2167,
      "CBA": 2168,
      "Map": 2169,
      "age": 2170,
      "may": 2171,
      "designated": 2172,
      "##any": 2173,
      "##efined": 2174,
      "##acement": 2175,
      "residual": 2176,
      "##4CD": 2177,
      "CBA4CD": 2178,
      "Brigh": 2179,
      "Many": 2180,
      "du": 2181,
      "seen": 2182,
      "bump": 2183,
      "Below": 2184,
      "follow": 2185,
      "##rin": 2186,
      "spaces": 2187,
      "undefined": 2188,
      "appro": 2189,
      "accum": 2190,
      "modifies": 2191,
      "evolution": 2192,
      "often": 2193,
      "flooding": 2194,
      "red": 2195,
      "Cratered": 2196,
      "divi": 2197,
      "##enced": 2198,
      "Highly": 2199,
      "bumpy": 2200,
      "Younger": 2201,
      "resistant": 2202,
      "approxim": 2203,
      "pop": 2204,
      "element": 2205,
      "Bright": 2206,
      "approximately": 2207,
      "mixed": 2208,
      "slightly": 2209,
      "shi": 2210,
      "##igu": 2211,
      "##ish": 2212,
      "deli": 2213,
      "configu": 2214,
      "delim": 2215,
      "##ural": 2216,
      "suggestive": 2217,
      "##ellow": 2218,
      "giving": 2219,
      "shif": 2220,
      "configuration": 2221,
      "imp": 2222,
      "lack": 2223,
      "##F3": 2224,
      "encro": 2225,
      "##strates": 2226,
      "comprising": 2227,
      "lobe": 2228,
      "southwestern": 2229,
      "##rates": 2230,
      "former": 2231,
      "interming": 2232,
      "incised": 2233,
      "lowlands": 2234,
      "Dome": 2235,
      "##po": 2236,
      "##orpo": 2237,
      "incorpo": 2238,
      "parts": 2239,
      "Su": 2240,
      "create": 2241,
      "clustered": 2242,
      "maintain": 2243,
      "size": 2244,
      "ranging": 2245,
      "tru": 2246,
      "##nc": 2247,
      "intensely": 2248,
      "trunc": 2249,
      "delimited": 2250,
      "poin": 2251,
      "there": 2252,
      "analy": 2253,
      "intermedi": 2254,
      "##end": 2255,
      "down": 2256,
      "abs": 2257,
      "controlled": 2258,
      "non": 2259,
      "##ities": 2260,
      "morphologies": 2261,
      "##aced": 2262,
      "steep": 2263,
      "##semb": 2264,
      "modulated": 2265,
      "Addition": 2266,
      "analyzed": 2267,
      "big": 2268,
      "lie": 2269,
      "assemb": 2270,
      "potential": 2271,
      "green": 2272,
      "med": 2273,
      "##erve": 2274,
      "systems": 2275,
      "Topographic": 2276,
      "subsid": 2277,
      "Additionally": 2278,
      "Structural": 2279,
      "complexity": 2280,
      "share": 2281,
      "yellow": 2282,
      "##ped": 2283,
      "##ben": 2284,
      "geography": 2285,
      "graben": 2286,
      "development": 2287,
      "unid": 2288,
      "yet": 2289,
      "corresponding": 2290,
      "envelop": 2291,
      "discontinuity": 2292,
      "unidentified": 2293,
      "##dish": 2294,
      "segments": 2295,
      "##ects": 2296,
      "slop": 2297,
      "distinctive": 2298,
      "grayscale": 2299,
      "Inters": 2300,
      "unm": 2301,
      "reddish": 2302,
      "Sub": 2303,
      "intermediate": 2304,
      "##arching": 2305,
      "overarching": 2306,
      "lit": 2307,
      "##ecting": 2308,
      "visibly": 2309,
      "phase": 2310,
      "unmapped": 2311,
      "framing": 2312,
      "stret": 2313,
      "closely": 2314,
      "proxim": 2315,
      "emplacement": 2316,
      "##prin": 2317,
      "##urbed": 2318,
      "includes": 2319,
      "overprin": 2320,
      "distribution": 2321,
      "terran": 2322,
      "lowest": 2323,
      "##lateaus": 2324,
      "others": 2325,
      "##ich": 2326,
      "inferior": 2327,
      "manifests": 2328,
      "000": 2329,
      "20": 2330,
      "rich": 2331,
      "any": 2332,
      "##000": 2333,
      "notable": 2334,
      "widely": 2335,
      "000000": 2336,
      "plateaus": 2337,
      "way": 2338,
      "##gl": 2339,
      "broadly": 2340,
      "serving": 2341,
      "origins": 2342,
      "une": 2343,
      "compositions": 2344,
      "assembla": 2345,
      "wi": 2346,
      "signs": 2347,
      "negl": 2348,
      "neglig": 2349,
      "ref": 2350,
      "##tered": 2351,
      "geometrically": 2352,
      "Interspersed": 2353,
      "wider": 2354,
      "##fic": 2355,
      "##ds": 2356,
      "delineation": 2357,
      "negligible": 2358,
      "fractured": 2359,
      "infills": 2360,
      "southeastern": 2361,
      "##rent": 2362,
      "##gon": 2363,
      "##ath": 2364,
      "##strate": 2365,
      "current": 2366,
      "uplands": 2367,
      "uneven": 2368,
      "bear": 2369,
      "occurred": 2370,
      "can": 2371,
      "were": 2372,
      "division": 2373,
      "medium": 2374,
      "per": 2375,
      "Embedded": 2376,
      "##rupting": 2377,
      "minimally": 2378,
      "channe": 2379,
      "scars": 2380,
      "##ficial": 2381,
      "reflect": 2382,
      "##ifications": 2383,
      "modifications": 2384,
      "assemblage": 2385,
      "inund": 2386,
      "##atively": 2387,
      "##ps": 2388,
      "excav": 2389,
      "compared": 2390,
      "##mi": 2391,
      "##ored": 2392,
      "bounding": 2393,
      "span": 2394,
      "compositionally": 2395,
      "A5": 2396,
      "##CF3": 2397,
      "traces": 2398,
      "consisting": 2399,
      "brightness": 2400,
      "outc": 2401,
      "dust": 2402,
      "A5CF3": 2403,
      "A5CF30": 2404,
      "##eg": 2405,
      "posses": 2406,
      "deeper": 2407,
      "##iation": 2408,
      "extend": 2409,
      "contrasted": 2410,
      "popul": 2411,
      "basement": 2412,
      "##ink": 2413,
      "lithologies": 2414,
      "##ilt": 2415,
      "aff": 2416,
      "comparatively": 2417,
      "##0A": 2418,
      "##read": 2419,
      "intru": 2420,
      "rec": 2421,
      "disrupt": 2422,
      "car": 2423,
      "##el": 2424,
      "occupied": 2425,
      "sectors": 2426,
      "plane": 2427,
      "##tion": 2428,
      "close": 2429,
      "##min": 2430,
      "built": 2431,
      "gr": 2432,
      "##ched": 2433,
      "dict": 2434,
      "strongly": 2435,
      "crisscrossed": 2436,
      "grou": 2437,
      "impacting": 2438,
      "undergon": 2439,
      "constitute": 2440,
      "crossed": 2441,
      "inclusions": 2442,
      "converge": 2443,
      "absent": 2444,
      "undergone": 2445,
      "99": 2446,
      "continuity": 2447,
      "superimposition": 2448,
      "accumul": 2449,
      "##form": 2450,
      "Vari": 2451,
      "##FF": 2452,
      "Smoother": 2453,
      "All": 2454,
      "##abil": 2455,
      "discontinuous": 2456,
      "colored": 2457,
      "interrupts": 2458,
      "point": 2459,
      "Dis": 2460,
      "typ": 2461,
      "emphas": 2462,
      "without": 2463,
      "character": 2464,
      "Overla": 2465,
      "bounds": 2466,
      "deformation": 2467,
      "observe": 2468,
      "intric": 2469,
      "clusters": 2470,
      "pockets": 2471,
      "shift": 2472,
      "##ping": 2473,
      "##sions": 2474,
      "##16": 2475,
      "quite": 2476,
      "##ken": 2477,
      "##aps": 2478,
      "interpre": 2479,
      "superimposing": 2480,
      "##rations": 2481,
      "spread": 2482,
      "creates": 2483,
      "sequentially": 2484,
      "outcrop": 2485,
      "she": 2486,
      "##ange": 2487,
      "comb": 2488,
      "prev": 2489,
      "stratum": 2490,
      "concentrations": 2491,
      "orange": 2492,
      "conflu": 2493,
      "##ively": 2494,
      "dividing": 2495,
      "kin": 2496,
      "noticeably": 2497,
      "emplaced": 2498,
      "##inter": 2499,
      "conn": 2500,
      "uninter": 2501,
      "mainly": 2502,
      "Overlapping": 2503,
      "uninterrupted": 2504,
      "##ased": 2505,
      "##selves": 2506,
      "themselves": 2507,
      "Subtle": 2508,
      "confluence": 2509,
      "et": 2510,
      "hol": 2511,
      "##olith": 2512,
      "incorporates": 2513,
      "interpreted": 2514,
      "##tly": 2515,
      "regolith": 2516,
      "subject": 2517,
      "floors": 2518,
      "encroac": 2519,
      "inundation": 2520,
      "sedi": 2521,
      "##tal": 2522,
      "maintains": 2523,
      "typical": 2524,
      "sheet": 2525,
      "kinds": 2526,
      "cra": 2527,
      "hal": 2528,
      "undivided": 2529,
      "type": 2530,
      "immediate": 2531,
      "inclusion": 2532,
      "half": 2533,
      "how": 2534,
      "##alm": 2535,
      "total": 2536,
      "lav": 2537,
      "characteristics": 2538,
      "preservation": 2539,
      "proximity": 2540,
      "dusty": 2541,
      "making": 2542,
      "lacking": 2543,
      "littered": 2544,
      "##ability": 2545,
      "calm": 2546,
      "##les": 2547,
      "crusts": 2548,
      "arranged": 2549,
      "crescentic": 2550,
      "Juxta": 2551,
      "##avy": 2552,
      "##ck": 2553,
      "interrupting": 2554,
      "##gence": 2555,
      "align": 2556,
      "draped": 2557,
      "details": 2558,
      "convergence": 2559,
      "etched": 2560,
      "lava": 2561,
      "Vast": 2562,
      "sites": 2563,
      "whole": 2564,
      "networks": 2565,
      "##kes": 2566,
      "strip": 2567,
      "demarcation": 2568,
      "illustrates": 2569,
      "grooves": 2570,
      "Disc": 2571,
      "Based": 2572,
      "Com": 2573,
      "youn": 2574,
      "makes": 2575,
      "mean": 2576,
      "##ounts": 2577,
      "Discrete": 2578,
      "so": 2579,
      "expanses": 2580,
      "bel": 2581,
      "degree": 2582,
      "intricate": 2583,
      "Plain": 2584,
      "##rem": 2585,
      "extrem": 2586,
      "broken": 2587,
      "demonstrate": 2588,
      "Topography": 2589,
      "influenced": 2590,
      "emphasiz": 2591,
      "Ab": 2592,
      "##iary": 2593,
      "##hesive": 2594,
      "cohesive": 2595,
      "possible": 2596,
      "striated": 2597,
      "influence": 2598,
      "possesses": 2599,
      "Bro": 2600,
      "Rugged": 2601,
      "knobby": 2602,
      "tou": 2603,
      "##caps": 2604,
      "subtly": 2605,
      "encaps": 2606,
      "deepest": 2607,
      "Broad": 2608,
      "##urple": 2609,
      "##cri": 2610,
      "level": 2611,
      "excavated": 2612,
      "##crip": 2613,
      "characterizing": 2614,
      "dictates": 2615,
      "sw": 2616,
      "wall": 2617,
      "73": 2618,
      "Along": 2619,
      "Bound": 2620,
      "superimpose": 2621,
      "Juxtaposed": 2622,
      "##cription": 2623,
      "Ext": 2624,
      "mid": 2625,
      "subsidiary": 2626,
      "Des": 2627,
      "##ages": 2628,
      "##CA": 2629,
      "##BF": 2630,
      "regionally": 2631,
      "Structure": 2632,
      "Extensive": 2633,
      "pink": 2634,
      "##spe": 2635,
      "##kled": 2636,
      "interc": 2637,
      "path": 2638,
      "scatter": 2639,
      "##cialized": 2640,
      "termin": 2641,
      "hosting": 2642,
      "maintaining": 2643,
      "era": 2644,
      "ph": 2645,
      "som": 2646,
      "##olid": 2647,
      "##ots": 2648,
      "65": 2649,
      "CE": 2650,
      "rad": 2651,
      "##ination": 2652,
      "##ndist": 2653,
      "gives": 2654,
      "CEA": 2655,
      "espe": 2656,
      "##F1": 2657,
      "##7F1": 2658,
      "supp": 2659,
      "##cially": 2660,
      "record": 2661,
      "CEA7F1": 2662,
      "especially": 2663,
      "wavy": 2664,
      "##gated": 2665,
      "##sp": 2666,
      "##cing": 2667,
      "specialized": 2668,
      "drape": 2669,
      "detailed": 2670,
      "Vi": 2671,
      "undist": 2672,
      "wor": 2673,
      "##B2": 2674,
      "##inally": 2675,
      "off": 2676,
      "stratigraphically": 2677,
      "after": 2678,
      "sediment": 2679,
      "extremely": 2680,
      "Visible": 2681,
      "undisturbed": 2682,
      "##rel": 2683,
      "Separ": 2684,
      "banded": 2685,
      "outline": 2686,
      "overlaps": 2687,
      "rounded": 2688,
      "##ailing": 2689,
      "##ame": 2690,
      "prevailing": 2691,
      "Description": 2692,
      "12": 2693,
      "##raight": 2694,
      "chron": 2695,
      "caps": 2696,
      "northeastern": 2697,
      "carved": 2698,
      "##gery": 2699,
      "oldest": 2700,
      "original": 2701,
      "monolithically": 2702,
      "inferiorly": 2703,
      "Comple": 2704,
      "Boundaries": 2705,
      "10": 2706,
      "##gre": 2707,
      "segre": 2708,
      "linea": 2709,
      "gener": 2710,
      "Darker": 2711,
      "channels": 2712,
      "11": 2713,
      "lea": 2714,
      "same": 2715,
      "straight": 2716,
      "semi": 2717,
      "arch": 2718,
      "blanketed": 2719,
      "followed": 2720,
      "terranes": 2721,
      "lineaments": 2722,
      "rif": 2723,
      "##tic": 2724,
      "##use": 2725,
      "then": 2726,
      "texturally": 2727,
      "##ogeneity": 2728,
      "##inuities": 2729,
      "discontinuities": 2730,
      "wea": 2731,
      "speckled": 2732,
      "imagery": 2733,
      "rocky": 2734,
      "abutts": 2735,
      "intermingled": 2736,
      "worn": 2737,
      "purple": 2738,
      "##ert": 2739,
      "##itect": 2740,
      "stages": 2741,
      "architect": 2742,
      "weakn": 2743,
      "Sur": 2744,
      "##dle": 2745,
      "regim": 2746,
      "Major": 2747,
      "spanning": 2748,
      "combination": 2749,
      "Separately": 2750,
      "cast": 2751,
      "shares": 2752,
      "##ographic": 2753,
      "superficial": 2754,
      "times": 2755,
      "Further": 2756,
      "##rounding": 2757,
      "##xture": 2758,
      "segregated": 2759,
      "Surrounding": 2760,
      "CCA": 2761,
      "bis": 2762,
      "roughness": 2763,
      "mixture": 2764,
      "demonstrates": 2765,
      "northwestern": 2766,
      "##BAB": 2767,
      "implying": 2768,
      "Various": 2769,
      "offse": 2770,
      "architecture": 2771,
      "CCABAB": 2772,
      "FCD": 2773,
      "##C0A": 2774,
      "amid": 2775,
      "limit": 2776,
      "bearing": 2777,
      "grouping": 2778,
      "encapsul": 2779,
      "FCDC0A": 2780,
      "Beneath": 2781,
      "hu": 2782,
      "tre": 2783,
      "##rc": 2784,
      "##where": 2785,
      "##oured": 2786,
      "shared": 2787,
      "quadrants": 2788,
      "encloses": 2789,
      "flood": 2790,
      "collect": 2791,
      "intermingling": 2792,
      "holes": 2793,
      "Above": 2794,
      "trend": 2795,
      "enci": 2796,
      "integ": 2797,
      "prof": 2798,
      "affecting": 2799,
      "belt": 2800,
      "middle": 2801,
      "encirc": 2802,
      "16": 2803,
      "97": 2804,
      "plat": 2805,
      "##oot": 2806,
      "##ey": 2807,
      "smoot": 2808,
      "sequences": 2809,
      "correl": 2810,
      "demarcates": 2811,
      "tectonically": 2812,
      "great": 2813,
      "outcrops": 2814,
      "Complex": 2815,
      "amidst": 2816,
      "platform": 2817,
      "23": 2818,
      "thic": 2819,
      "contribut": 2820,
      "resp": 2821,
      "amounts": 2822,
      "episode": 2823,
      "interdigitated": 2824,
      "13": 2825,
      "##haps": 2826,
      "##onn": 2827,
      "locations": 2828,
      "superimposes": 2829,
      "perhaps": 2830,
      "##nder": 2831,
      "recently": 2832,
      "stretches": 2833,
      "respect": 2834,
      "win": 2835,
      "smoothness": 2836,
      "obsc": 2837,
      "centered": 2838,
      "swath": 2839,
      "##onnected": 2840,
      "22": 2841,
      "Sh": 2842,
      "##rit": 2843,
      "##fuse": 2844,
      "diffuse": 2845,
      "site": 2846,
      "##mented": 2847,
      "gradu": 2848,
      "2016": 2849,
      "Formations": 2850,
      "encroach": 2851,
      "eras": 2852,
      "21": 2853,
      "ear": 2854,
      "vert": 2855,
      "##ned": 2856,
      "##arent": 2857,
      "variably": 2858,
      "apparent": 2859,
      "differentiation": 2860,
      "remark": 2861,
      "slopes": 2862,
      "subjected": 2863,
      "winding": 2864,
      "key": 2865,
      "##F8": 2866,
      "lineal": 2867,
      "prop": 2868,
      "completing": 2869,
      "curve": 2870,
      "punctuate": 2871,
      "demarcating": 2872,
      "divide": 2873,
      "following": 2874,
      "accumulated": 2875,
      "subsidence": 2876,
      "accumulation": 2877,
      "2016F8": 2878,
      "though": 2879,
      "precisely": 2880,
      "14": 2881,
      "smoothed": 2882,
      "##ered": 2883,
      "complexly": 2884,
      "southward": 2885,
      "outlined": 2886,
      "sof": 2887,
      "25": 2888,
      "44": 2889,
      "Spar": 2890,
      "##very": 2891,
      "concentric": 2892,
      "divides": 2893,
      "encroaches": 2894,
      "offset": 2895,
      "remarkably": 2896,
      "proportion": 2897,
      "24": 2898,
      "28": 2899,
      "Heavy": 2900,
      "##C2": 2901,
      "##ism": 2902,
      "interdigitating": 2903,
      "73B2": 2904,
      "sedimentation": 2905,
      "bisected": 2906,
      "Sparse": 2907,
      "73B2C2": 2908,
      "26": 2909,
      "nat": 2910,
      "solid": 2911,
      "##gan": 2912,
      "##more": 2913,
      "organ": 2914,
      "acting": 2915,
      "concentration": 2916,
      "extends": 2917,
      "17": 2918,
      "30": 2919,
      "pie": 2920,
      "sim": 2921,
      "##go": 2922,
      "##di": 2923,
      "walls": 2924,
      "interconnected": 2925,
      "Furthermore": 2926,
      "31": 2927,
      "Gra": 2928,
      "shall": 2929,
      "moon": 2930,
      "overprinted": 2931,
      "encapsulates": 2932,
      "every": 2933,
      "##arp": 2934,
      "contoured": 2935,
      "interdigitates": 2936,
      "shifts": 2937,
      "te": 2938,
      "disturbed": 2939,
      "blocky": 2940,
      "chronological": 2941,
      "thick": 2942,
      "98": 2943,
      "Newer": 2944,
      "##mod": 2945,
      "##requent": 2946,
      "##ommod": 2947,
      "reces": 2948,
      "definition": 2949,
      "tracts": 2950,
      "exposing": 2951,
      "accommod": 2952,
      "undulations": 2953,
      "phy": 2954,
      "Con": 2955,
      "Lighter": 2956,
      "frequent": 2957,
      "la": 2958,
      "##hat": 2959,
      "##reak": 2960,
      "##ewhat": 2961,
      "centers": 2962,
      "association": 2963,
      "terrane": 2964,
      "##ather": 2965,
      "somewhat": 2966,
      "collectively": 2967,
      "Grayscale": 2968,
      "recessed": 2969,
      "Most": 2970,
      "conc": 2971,
      "undifferent": 2972,
      "begin": 2973,
      "morphological": 2974,
      "process": 2975,
      "depict": 2976,
      "volcanism": 2977,
      "support": 2978,
      "laid": 2979,
      "undifferentiated": 2980,
      "29": 2981,
      "crat": 2982,
      "##hest": 2983,
      "##entif": 2984,
      "vis": 2985,
      "##ressed": 2986,
      "flu": 2987,
      "enveloped": 2988,
      "##going": 2989,
      "frequently": 2990,
      "18": 2991,
      "Wow": 2992,
      "ril": 2993,
      "rather": 2994,
      "surficial": 2995,
      "##vious": 2996,
      "lineations": 2997,
      "prog": 2998,
      "tracing": 2999,
      "provide": 3000,
      "Spatial": 3001,
      "mantled": 3002,
      "truncates": 3003,
      "downward": 3004,
      "rille": 3005,
      "15": 3006,
      "C4": 3007,
      "##8FF": 3008,
      "##E8FF": 3009,
      "Their": 3010,
      "identif": 3011,
      "enclosing": 3012,
      "bears": 3013,
      "C4E8FF": 3014,
      "38": 3015,
      "pit": 3016,
      "##ty": 3017,
      "dominantly": 3018,
      "fring": 3019,
      "flowing": 3020,
      "densities": 3021,
      "##ilar": 3022,
      "scarp": 3023,
      "rift": 3024,
      "everywhere": 3025,
      "1C": 3026,
      "tri": 3027,
      "##oid": 3028,
      "##ile": 3029,
      "##dled": 3030,
      "##7BF": 3031,
      "##mpor": 3032,
      "relate": 3033,
      "variability": 3034,
      "active": 3035,
      "interstitially": 3036,
      "weaknesses": 3037,
      "concave": 3038,
      "1C7BF": 3039,
      "1C7BF6": 3040,
      "Brown": 3041,
      "fab": 3042,
      "wra": 3043,
      "##way": 3044,
      "##des": 3045,
      "##rating": 3046,
      "structuring": 3047,
      "entirety": 3048,
      "least": 3049,
      "huge": 3050,
      "fabric": 3051,
      "tightly": 3052,
      "##eated": 3053,
      "##42": 3054,
      "demarcate": 3055,
      "involves": 3056,
      "populated": 3057,
      "young": 3058,
      "generalized": 3059,
      "35": 3060,
      "addition": 3061,
      "equ": 3062,
      "mount": 3063,
      "packed": 3064,
      "extern": 3065,
      "mapping": 3066,
      "plainer": 3067,
      "Copernicus": 3068,
      "outward": 3069,
      "grooved": 3070,
      "due": 3071,
      "Topographically": 3072,
      "profile": 3073,
      "similar": 3074,
      "mountain": 3075,
      "F4": 3076,
      "Par": 3077,
      "varies": 3078,
      "##lan": 3079,
      "##442": 3080,
      "##BB": 3081,
      "centralized": 3082,
      "ongoing": 3083,
      "##anking": 3084,
      "Flanking": 3085,
      "occurren": 3086,
      "resides": 3087,
      "calmer": 3088,
      "65442": 3089,
      "beginning": 3090,
      "##asion": 3091,
      "##dering": 3092,
      "compos": 3093,
      "dispar": 3094,
      "occasion": 3095,
      "sharing": 3096,
      "infilled": 3097,
      "systemat": 3098,
      "Overlay": 3099,
      "overprinting": 3100,
      "radial": 3101,
      "Parallel": 3102,
      "65442F": 3103,
      "00A": 3104,
      "##stine": 3105,
      "dia": 3106,
      "stands": 3107,
      "dominance": 3108,
      "pristine": 3109,
      "mixing": 3110,
      "crisp": 3111,
      "crack": 3112,
      "meandering": 3113,
      "pieces": 3114,
      "tempor": 3115,
      "disparate": 3116,
      "Overlaying": 3117,
      "19": 3118,
      "40": 3119,
      "Deep": 3120,
      "Plan": 3121,
      "dat": 3122,
      "go": 3123,
      "weath": 3124,
      "##her": 3125,
      "envelops": 3126,
      "Sharp": 3127,
      "##BB3": 3128,
      "00ABB3": 3129,
      "27": 3130,
      "medi": 3131,
      "##facing": 3132,
      "seeming": 3133,
      "flowed": 3134,
      "saturation": 3135,
      "populations": 3136,
      "casting": 3137,
      "trends": 3138,
      "nature": 3139,
      "data": 3140,
      "gover": 3141,
      "Much": 3142,
      "Rel": 3143,
      "ca": 3144,
      "nam": 3145,
      "##mbrian": 3146,
      "stability": 3147,
      "depressed": 3148,
      "tones": 3149,
      "32": 3150,
      "Tra": 3151,
      "imbrian": 3152,
      "rill": 3153,
      "tan": 3154,
      "interfacing": 3155,
      "contacting": 3156,
      "##ationships": 3157,
      "substrates": 3158,
      "previous": 3159,
      "dissects": 3160,
      "environments": 3161,
      "lacks": 3162,
      "points": 3163,
      "Topographical": 3164,
      "##mix": 3165,
      "hel": 3166,
      "crateric": 3167,
      "intermix": 3168,
      "intro": 3169,
      "stripes": 3170,
      "encompass": 3171,
      "extending": 3172,
      "accumulations": 3173,
      "occasionally": 3174,
      "introdu": 3175,
      "Feat": 3176,
      "FF3": 3177,
      "break": 3178,
      "##outh": 3179,
      "coher": 3180,
      "clean": 3181,
      "##361": 3182,
      "meaning": 3183,
      "organized": 3184,
      "fluid": 3185,
      "FF3361": 3186,
      "Finally": 3187,
      "lots": 3188,
      "locale": 3189,
      "transects": 3190,
      "abutment": 3191,
      "populate": 3192,
      "youngest": 3193,
      "regime": 3194,
      "gradual": 3195,
      "softer": 3196,
      "##dient": 3197,
      "rilles": 3198,
      "36": 3199,
      "42": 3200,
      "hit": 3201,
      "##ler": 3202,
      "##A16": 3203,
      "featured": 3204,
      "repeated": 3205,
      "shades": 3206,
      "divisions": 3207,
      "sloping": 3208,
      "stretch": 3209,
      "reflects": 3210,
      "F4A16": 3211,
      "weathered": 3212,
      "capping": 3213,
      "Features": 3214,
      "F4A164": 3215,
      "34": 3216,
      "70": 3217,
      "hig": 3218,
      "impos": 3219,
      "relates": 3220,
      "homogeneity": 3221,
      "gradient": 3222,
      "terminates": 3223,
      "highest": 3224,
      "A6": 3225,
      "##6FF": 3226,
      "##D6FF": 3227,
      "##ried": 3228,
      "##umin": 3229,
      "evidenced": 3230,
      "fraction": 3231,
      "narrower": 3232,
      "Pronounced": 3233,
      "grooving": 3234,
      "additional": 3235,
      "A6D6FF": 3236,
      "37": 3237,
      "Layer": 3238,
      "Nest": 3239,
      "valle": 3240,
      "##ral": 3241,
      "##iqu": 3242,
      "stress": 3243,
      "displayed": 3244,
      "complemented": 3245,
      "indicated": 3246,
      "patterning": 3247,
      "encompassed": 3248,
      "comprise": 3249,
      "buried": 3250,
      "flooded": 3251,
      "subsided": 3252,
      "truncate": 3253,
      "disruption": 3254,
      "encroached": 3255,
      "Traver": 3256,
      "valley": 3257,
      "33": 3258,
      "Under": 3259,
      "gaps": 3260,
      "serve": 3261,
      "##mas": 3262,
      "##ratigra": 3263,
      "##erienced": 3264,
      "make": 3265,
      "exten": 3266,
      "spots": 3267,
      "experienced": 3268,
      "varieg": 3269,
      "artic": 3270,
      "altern": 3271,
      "##ession": 3272,
      "exposes": 3273,
      "contributing": 3274,
      "Planes": 3275,
      "coherent": 3276,
      "Underlying": 3277,
      "variegated": 3278,
      "39": 3279,
      "52": 3280,
      "At": 3281,
      "pen": 3282,
      "wed": 3283,
      "##lier": 3284,
      "Super": 3285,
      "almost": 3286,
      "neighbors": 3287,
      "dissect": 3288,
      "illustrate": 3289,
      "landmas": 3290,
      "alignments": 3291,
      "seemingly": 3292,
      "##ratigraphic": 3293,
      "60": 3294,
      "Is": 3295,
      "##otogra": 3296,
      "arra": 3297,
      "compart": 3298,
      "collis": 3299,
      "succession": 3300,
      "corresponds": 3301,
      "developed": 3302,
      "Relationships": 3303,
      "Isolated": 3304,
      "47": 3305,
      "50": 3306,
      "Cent": 3307,
      "vene": 3308,
      "##phi": 3309,
      "##eled": 3310,
      "comm": 3311,
      "lineament": 3312,
      "move": 3313,
      "variet": 3314,
      "limb": 3315,
      "placement": 3316,
      "basalts": 3317,
      "connecting": 3318,
      "occurrences": 3319,
      "composite": 3320,
      "intermixed": 3321,
      "veneer": 3322,
      "Evid": 3323,
      "wave": 3324,
      "inside": 3325,
      "smalle": 3326,
      "Int": 3327,
      "Intern": 3328,
      "##irst": 3329,
      "striped": 3330,
      "shallower": 3331,
      "compartment": 3332,
      "##phies": 3333,
      "Evidence": 3334,
      "smallest": 3335,
      "finally": 3336,
      "controls": 3337,
      "occurs": 3338,
      "incorporating": 3339,
      "phys": 3340,
      "equal": 3341,
      "systematically": 3342,
      "penet": 3343,
      "55": 3344,
      "Faint": 3345,
      "Near": 3346,
      "viewing": 3347,
      "heterogeneity": 3348,
      "sheets": 3349,
      "records": 3350,
      "respective": 3351,
      "accommodates": 3352,
      "43": 3353,
      "lab": 3354,
      "pa": 3355,
      "void": 3356,
      "##oined": 3357,
      "##imp": 3358,
      "##58": 3359,
      "##icuous": 3360,
      "topographies": 3361,
      "##ains": 3362,
      "##ained": 3363,
      "constituting": 3364,
      "juxtapose": 3365,
      "geomorph": 3366,
      "scarps": 3367,
      "##scrib": 3368,
      "channel": 3369,
      "alignment": 3370,
      "##spicuous": 3371,
      "pitted": 3372,
      "triple": 3373,
      "cleanly": 3374,
      "alternating": 3375,
      "54": 3376,
      "62": 3377,
      "ri": 3378,
      "##lic": 3379,
      "##DBF": 3380,
      "conspicuous": 3381,
      "adjacently": 3382,
      "intact": 3383,
      "sour": 3384,
      "confining": 3385,
      "partial": 3386,
      "Strong": 3387,
      "manifesting": 3388,
      "interdigitation": 3389,
      "absence": 3390,
      "emphasizes": 3391,
      "97DBF": 3392,
      "correlating": 3393,
      "early": 3394,
      "labeled": 3395,
      "pair": 3396,
      "97DBF2": 3397,
      "41": 3398,
      "49": 3399,
      "Ph": 3400,
      "##ue": 3401,
      "##eries": 3402,
      "##aches": 3403,
      "##our": 3404,
      "##itioned": 3405,
      "conform": 3406,
      "created": 3407,
      "amongst": 3408,
      "shape": 3409,
      "shadowing": 3410,
      "enveloping": 3411,
      "vertically": 3412,
      "Layered": 3413,
      "Traversing": 3414,
      "51": 3415,
      "64": 3416,
      "Due": 3417,
      "FF": 3418,
      "pal": 3419,
      "##ened": 3420,
      "reaches": 3421,
      "vastly": 3422,
      "geometric": 3423,
      "proximal": 3424,
      "Varied": 3425,
      "touches": 3426,
      "pathway": 3427,
      "encroaching": 3428,
      "diameter": 3429,
      "governed": 3430,
      "articulated": 3431,
      "45": 3432,
      "Di": 3433,
      "cate": 3434,
      "during": 3435,
      "hin": 3436,
      "sea": 3437,
      "youth": 3438,
      "##gor": 3439,
      "##mary": 3440,
      "##nam": 3441,
      "##reas": 3442,
      "stack": 3443,
      "highs": 3444,
      "elevations": 3445,
      "Superior": 3446,
      "confines": 3447,
      "superpos": 3448,
      "##ression": 3449,
      "gentler": 3450,
      "rocks": 3451,
      "reflecting": 3452,
      "emphasizing": 3453,
      "respectively": 3454,
      "visu": 3455,
      "movement": 3456,
      "##scribed": 3457,
      "categor": 3458,
      "categorized": 3459,
      "57": 3460,
      "Areas": 3461,
      "Gre": 3462,
      "##ince": 3463,
      "##ional": 3464,
      "relation": 3465,
      "range": 3466,
      "spans": 3467,
      "regimes": 3468,
      "vertical": 3469,
      "mountainous": 3470,
      "variety": 3471,
      "pathways": 3472,
      "48": 3473,
      "##ia": 3474,
      "##lit": 3475,
      "impactated": 3476,
      "##ostratigraphic": 3477,
      "transect": 3478,
      "darkest": 3479,
      "broadest": 3480,
      "complic": 3481,
      "Textures": 3482,
      "completely": 3483,
      "accre": 3484,
      "implies": 3485,
      "intrusions": 3486,
      "encircles": 3487,
      "earlier": 3488,
      "common": 3489,
      "Diverse": 3490,
      "Green": 3491,
      "complicated": 3492,
      "80": 3493,
      "dam": 3494,
      "lin": 3495,
      "pas": 3496,
      "sid": 3497,
      "simp": 3498,
      "##iating": 3499,
      "##FB": 3500,
      "adjoined": 3501,
      "accent": 3502,
      "##resses": 3503,
      "uniformity": 3504,
      "lows": 3505,
      "tone": 3506,
      "substantially": 3507,
      "lithostratigraphic": 3508,
      "grained": 3509,
      "pockmarks": 3510,
      "interdigitate": 3511,
      "touching": 3512,
      "supports": 3513,
      "craton": 3514,
      "cracks": 3515,
      "Central": 3516,
      "linking": 3517,
      "Cont": 3518,
      "call": 3519,
      "give": 3520,
      "##ust": 3521,
      "##0D": 3522,
      "##etim": 3523,
      "indep": 3524,
      "uniqu": 3525,
      "interacted": 3526,
      "alter": 3527,
      "internally": 3528,
      "truncated": 3529,
      "##endent": 3530,
      "population": 3531,
      "previously": 3532,
      "Nestled": 3533,
      "wedge": 3534,
      "independent": 3535,
      "bes": 3536,
      "##bri": 3537,
      "debri": 3538,
      "disrupting": 3539,
      "ann": 3540,
      "differentially": 3541,
      "##versely": 3542,
      "basaltic": 3543,
      "fundamental": 3544,
      "currently": 3545,
      "sometim": 3546,
      "integrated": 3547,
      "swaths": 3548,
      "external": 3549,
      "diameters": 3550,
      "called": 3551,
      "beside": 3552,
      "debris": 3553,
      "sometimes": 3554,
      "59": 3555,
      "53": 3556,
      "58": 3557,
      "75": 3558,
      "Sit": 3559,
      "Trans": 3560,
      "##aged": 3561,
      "##mined": 3562,
      "##ige": 3563,
      "##ud": 3564,
      "##onform": 3565,
      "##ory": 3566,
      "##though": 3567,
      "dispersed": 3568,
      "##tim": 3569,
      "transver": 3570,
      "marginally": 3571,
      "topographically": 3572,
      "floored": 3573,
      "##sequently": 3574,
      "encas": 3575,
      "Stri": 3576,
      "placed": 3577,
      "planet": 3578,
      "constrain": 3579,
      "unconform": 3580,
      "connects": 3581,
      "supple": 3582,
      "Consequently": 3583,
      "##FBE": 3584,
      "unique": 3585,
      "Situated": 3586,
      "91": 3587,
      "96": 3588,
      "Ele": 3589,
      "Wid": 3590,
      "##tling": 3591,
      "##wn": 3592,
      "##vated": 3593,
      "##iant": 3594,
      "sizable": 3595,
      "punctate": 3596,
      "segmenting": 3597,
      "term": 3598,
      "riddled": 3599,
      "##avender": 3600,
      "streaky": 3601,
      "lobes": 3602,
      "touch": 3603,
      "depicting": 3604,
      "extension": 3605,
      "compartmentalized": 3606,
      "paler": 3607,
      "damaged": 3608,
      "annular": 3609,
      "Transition": 3610,
      "Elevated": 3611,
      "Widespread": 3612,
      "46": 3613,
      "Bl": 3614,
      "Sinuous": 3615,
      "aged": 3616,
      "met": 3617,
      "ti": 3618,
      "##ynam": 3619,
      "##sig": 3620,
      "maria": 3621,
      "##ulp": 3622,
      "linearity": 3623,
      "sculp": 3624,
      "markedly": 3625,
      "altered": 3626,
      "presum": 3627,
      "shadowy": 3628,
      "superpositional": 3629,
      "planes": 3630,
      "province": 3631,
      "##uminous": 3632,
      "collisions": 3633,
      "penetrate": 3634,
      "planetary": 3635,
      "Black": 3636,
      "72": 3637,
      "95": 3638,
      "do": 3639,
      "dynam": 3640,
      "##part": 3641,
      "darkened": 3642,
      "undeter": 3643,
      "beige": 3644,
      "circum": 3645,
      "draping": 3646,
      "arcing": 3647,
      "territ": 3648,
      "Overall": 3649,
      "detail": 3650,
      "combined": 3651,
      "emphasize": 3652,
      "paths": 3653,
      "wraps": 3654,
      "hinting": 3655,
      "undetermined": 3656,
      "78": 3657,
      "ful": 3658,
      "init": 3659,
      "role": 3660,
      "##gy": 3661,
      "sust": 3662,
      "##ental": 3663,
      "analysis": 3664,
      "##encing": 3665,
      "eastward": 3666,
      "outermost": 3667,
      "grading": 3668,
      "stretching": 3669,
      "connect": 3670,
      "geomorphology": 3671,
      "##signed": 3672,
      "56": 3673,
      "##look": 3674,
      "stud": 3675,
      "overlook": 3676,
      "##range": 3677,
      "##tiary": 3678,
      "ruggedly": 3679,
      "##ieter": 3680,
      "historical": 3681,
      "##ization": 3682,
      "sinuously": 3683,
      "separately": 3684,
      "quieter": 3685,
      "crest": 3686,
      "accounts": 3687,
      "disruptions": 3688,
      "carving": 3689,
      "preval": 3690,
      "holds": 3691,
      "cradled": 3692,
      "photogra": 3693,
      "generated": 3694,
      "temporal": 3695,
      "namely": 3696,
      "Superposed": 3697,
      "Superiorly": 3698,
      "sustained": 3699,
      "63": 3700,
      "67": 3701,
      "90": 3702,
      "Sum": 3703,
      "ble": 3704,
      "cr": 3705,
      "far": 3706,
      "##iable": 3707,
      "##ors": 3708,
      "seated": 3709,
      "##uted": 3710,
      "split": 3711,
      "featureless": 3712,
      "Impacted": 3713,
      "highlighted": 3714,
      "compact": 3715,
      "fringes": 3716,
      "mediates": 3717,
      "helps": 3718,
      "Internally": 3719,
      "visualized": 3720,
      "Summary": 3721,
      "blend": 3722,
      "Fine": 3723,
      "First": 3724,
      "Wide": 3725,
      "four": 3726,
      "neat": 3727,
      "poor": 3728,
      "since": 3729,
      "##med": 3730,
      "##solid": 3731,
      "##658": 3732,
      "##lear": 3733,
      "cratere": 3734,
      "consolid": 3735,
      "constituted": 3736,
      "incur": 3737,
      "encoun": 3738,
      "thinner": 3739,
      "faults": 3740,
      "persist": 3741,
      "intruded": 3742,
      "intrudes": 3743,
      "rifting": 3744,
      "weakness": 3745,
      "greatly": 3746,
      "gradually": 3747,
      "44658": 3748,
      "temporally": 3749,
      "sides": 3750,
      "supplemented": 3751,
      "full": 3752,
      "initial": 3753,
      "poorly": 3754,
      "consolidated": 3755,
      "446589": 3756,
      "71": 3757,
      "77": 3758,
      "Pan": 3759,
      "cy": 3760,
      "muted": 3761,
      "##ff": 3762,
      "##hile": 3763,
      "ent": 3764,
      "overlapped": 3765,
      "curves": 3766,
      "rimmed": 3767,
      "bedding": 3768,
      "voluminous": 3769,
      "influences": 3770,
      "affected": 3771,
      "belts": 3772,
      "scattering": 3773,
      "leaving": 3774,
      "##ographically": 3775,
      "visual": 3776,
      "progression": 3777,
      "identifiable": 3778,
      "source": 3779,
      "passing": 3780,
      "presumably": 3781,
      "Ex": 3782,
      "classif": 3783,
      "dates": 3784,
      "eff": 3785,
      "##emb": 3786,
      "##ually": 3787,
      "##CU": 3788,
      "##orphic": 3789,
      "areal": 3790,
      "smoothing": 3791,
      "via": 3792,
      "resemb": 3793,
      "brightly": 3794,
      "dotting": 3795,
      "drain": 3796,
      "Another": 3797,
      "dome": 3798,
      "basalt": 3799,
      "geomap": 3800,
      "homogeneously": 3801,
      "Thin": 3802,
      "thirds": 3803,
      "ringed": 3804,
      "lowland": 3805,
      "follows": 3806,
      "overprint": 3807,
      "radiating": 3808,
      "encroachment": 3809,
      "shallow": 3810,
      "introduce": 3811,
      "gradients": 3812,
      "##timately": 3813,
      "sculpted": 3814,
      "circumscribed": 3815,
      "prevalent": 3816,
      "Panel": 3817,
      "61": 3818,
      "6B2": 3819,
      "Low": 3820,
      "Mas": 3821,
      "Orange": 3822,
      "cum": 3823,
      "fin": 3824,
      "list": 3825,
      "new": 3826,
      "##aking": 3827,
      "##tes": 3828,
      "##inental": 3829,
      "inst": 3830,
      "continental": 3831,
      "##ulative": 3832,
      "landscapes": 3833,
      "Second": 3834,
      "fresher": 3835,
      "segmentation": 3836,
      "places": 3837,
      "partitioned": 3838,
      "controlling": 3839,
      "Geographically": 3840,
      "detailing": 3841,
      "mediated": 3842,
      "sloped": 3843,
      "little": 3844,
      "externally": 3845,
      "named": 3846,
      "landmass": 3847,
      "array": 3848,
      "Intru": 3849,
      "##0DF": 3850,
      "drainage": 3851,
      "6B20DF": 3852,
      "cumulative": 3853,
      "85": 3854,
      "Clear": 3855,
      "Light": 3856,
      "No": 3857,
      "Yellow": 3858,
      "##gra": 3859,
      "##ili": 3860,
      "##fore": 3861,
      "##B9": 3862,
      "##ances": 3863,
      "##orad": 3864,
      "##hie": 3865,
      "overri": 3866,
      "achie": 3867,
      "##phere": 3868,
      "##alline": 3869,
      "traced": 3870,
      "once": 3871,
      "juxtapositions": 3872,
      "##ystalline": 3873,
      "dissecting": 3874,
      "fragments": 3875,
      "##CDB9": 3876,
      "rings": 3877,
      "Interact": 3878,
      "litter": 3879,
      "dusted": 3880,
      "encircled": 3881,
      "physi": 3882,
      "identifying": 3883,
      "breaks": 3884,
      "FFCDB9": 3885,
      "encases": 3886,
      "crystalline": 3887,
      "neatly": 3888,
      "persistent": 3889,
      "Massive": 3890,
      "69": 3891,
      "81": 3892,
      "rob": 3893,
      "##CF": 3894,
      "##icate": 3895,
      "##rid": 3896,
      "continu": 3897,
      "sever": 3898,
      "compre": 3899,
      "completes": 3900,
      "intergra": 3901,
      "##hensive": 3902,
      "differently": 3903,
      "repeat": 3904,
      "depth": 3905,
      "although": 3906,
      "##ributed": 3907,
      "Spe": 3908,
      "geomorphic": 3909,
      "crisscrossing": 3910,
      "distinctively": 3911,
      "disrupts": 3912,
      "swat": 3913,
      "profound": 3914,
      "Phot": 3915,
      "accretion": 3916,
      "##partite": 3917,
      "listed": 3918,
      "robust": 3919,
      "comprehensive": 3920,
      "68": 3921,
      "76": 3922,
      "83": 3923,
      "Across": 3924,
      "Big": 3925,
      "EFBE": 3926,
      "Rough": 3927,
      "link": 3928,
      "mac": 3929,
      "orient": 3930,
      "rates": 3931,
      "var": 3932,
      "##itive": 3933,
      "##atile": 3934,
      "##ompan": 3935,
      "shapes": 3936,
      "strewn": 3937,
      "Distinctly": 3938,
      "notice": 3939,
      "geometries": 3940,
      "enclose": 3941,
      "showcase": 3942,
      "accompan": 3943,
      "volatile": 3944,
      "scarce": 3945,
      "truncating": 3946,
      "emphasized": 3947,
      "sediments": 3948,
      "encapsulated": 3949,
      "mediating": 3950,
      "Nearby": 3951,
      "ripp": 3952,
      "Transitional": 3953,
      "territory": 3954,
      "encounter": 3955,
      "EFBECF": 3956,
      "66": 3957,
      "79": 3958,
      "82": 3959,
      "Dense": 3960,
      "PN": 3961,
      "away": 3962,
      "el": 3963,
      "fit": 3964,
      "lavender": 3965,
      "pu": 3966,
      "sand": 3967,
      "series": 3968,
      "##oge": 3969,
      "##iet": 3970,
      "##zz": 3971,
      "states": 3972,
      "##rig": 3973,
      "##sewhere": 3974,
      "spaced": 3975,
      "##lump": 3976,
      "##adow": 3977,
      "unified": 3978,
      "signif": 3979,
      "confine": 3980,
      "quiet": 3981,
      "##matic": 3982,
      "shaping": 3983,
      "remains": 3984,
      "lithos": 3985,
      "preserves": 3986,
      "interiors": 3987,
      "stratigraphical": 3988,
      "towards": 3989,
      "influencing": 3990,
      "dictated": 3991,
      "terminating": 3992,
      "obscures": 3993,
      "Shadow": 3994,
      "Conversely": 3995,
      "repeatedly": 3996,
      "physical": 3997,
      "dynamic": 3998,
      "entity": 3999,
      "Intrusion": 4000,
      "Interacting": 4001,
      "repeating": 4002,
      "elsewhere": 4003,
      "puzz": 4004,
      "sandw": 4005,
      "puzzle": 4006,
      "92": 4007,
      "fall": 4008,
      "join": 4009,
      "lad": 4010,
      "##ier": 4011,
      "##bedded": 4012,
      "##iched": 4013,
      "##ously": 4014,
      "Margin": 4015,
      "##unk": 4016,
      "completed": 4017,
      "interbedded": 4018,
      "##tive": 4019,
      "##ressive": 4020,
      "anch": 4021,
      "chunk": 4022,
      "assigned": 4023,
      "delicate": 4024,
      "##ropping": 4025,
      "Fragment": 4026,
      "positioning": 4027,
      "##ruptive": 4028,
      "confir": 4029,
      "directional": 4030,
      "streaked": 4031,
      "paleoge": 4032,
      "excavation": 4033,
      "crag": 4034,
      "obscuring": 4035,
      "supporting": 4036,
      "similarly": 4037,
      "imposed": 4038,
      "landmasses": 4039,
      "physically": 4040,
      "superposes": 4041,
      "simple": 4042,
      "unconformity": 4043,
      "incursions": 4044,
      "sandwiched": 4045,
      "laden": 4046,
      "87": 4047,
      "Other": 4048,
      "crit": 4049,
      "face": 4050,
      "wrin": 4051,
      "##phed": 4052,
      "##ful": 4053,
      "Cratering": 4054,
      "isol": 4055,
      "##ication": 4056,
      "rece": 4057,
      "##ruck": 4058,
      "struck": 4059,
      "##utting": 4060,
      "linearly": 4061,
      "sporad": 4062,
      "##otic": 4063,
      "Ancient": 4064,
      "clustering": 4065,
      "streaking": 4066,
      "sectioned": 4067,
      "survey": 4068,
      "lobate": 4069,
      "Sparsely": 4070,
      "progresses": 4071,
      "tripartite": 4072,
      "arrayed": 4073,
      "study": 4074,
      "photographed": 4075,
      "classification": 4076,
      "physiographic": 4077,
      "Spec": 4078,
      "oriented": 4079,
      "craggy": 4080,
      "88": 4081,
      "Irregular": 4082,
      "On": 4083,
      "cond": 4084,
      "fis": 4085,
      "kn": 4086,
      "pits": 4087,
      "slump": 4088,
      "##lt": 4089,
      "##xist": 4090,
      "##ratum": 4091,
      "##ens": 4092,
      "##sider": 4093,
      "consider": 4094,
      "##rasting": 4095,
      "substratum": 4096,
      "att": 4097,
      "settle": 4098,
      "settling": 4099,
      "arcs": 4100,
      "terrig": 4101,
      "enclosure": 4102,
      "originating": 4103,
      "incorporate": 4104,
      "slope": 4105,
      "reflective": 4106,
      "outcropping": 4107,
      "possess": 4108,
      "affects": 4109,
      "grouped": 4110,
      "intricately": 4111,
      "obscured": 4112,
      "solidified": 4113,
      "help": 4114,
      "Contrasting": 4115,
      "Striking": 4116,
      "macro": 4117,
      "paleogeographic": 4118,
      "fiss": 4119,
      "terrigenous": 4120,
      "93": 4121,
      "Pink": 4122,
      "battered": 4123,
      "cul": 4124,
      "he": 4125,
      "pi": 4126,
      "##ational": 4127,
      "disruptive": 4128,
      "interl": 4129,
      "upward": 4130,
      "intens": 4131,
      "delineations": 4132,
      "resurface": 4133,
      "edged": 4134,
      "modern": 4135,
      "plac": 4136,
      "tertiary": 4137,
      "uplifts": 4138,
      "Texture": 4139,
      "interruptions": 4140,
      "groove": 4141,
      "assembly": 4142,
      "percent": 4143,
      "overlooks": 4144,
      "resembling": 4145,
      "linked": 4146,
      "varian": 4147,
      "critical": 4148,
      "known": 4149,
      "culmin": 4150,
      "Bottom": 4151,
      "Blue": 4152,
      "Purple": 4153,
      "Top": 4154,
      "ad": 4155,
      "po": 4156,
      "ul": 4157,
      "##ring": 4158,
      "##pt": 4159,
      "##lap": 4160,
      "terracing": 4161,
      "moving": 4162,
      "##ulate": 4163,
      "spot": 4164,
      "coe": 4165,
      "melt": 4166,
      "Massifs": 4167,
      "track": 4168,
      "intensive": 4169,
      "peripheries": 4170,
      "even": 4171,
      "superpositioned": 4172,
      "imaging": 4173,
      "strikingly": 4174,
      "consistently": 4175,
      "preserving": 4176,
      "collap": 4177,
      "possessing": 4178,
      "groups": 4179,
      "diagon": 4180,
      "impose": 4181,
      "makeup": 4182,
      "crests": 4183,
      "effect": 4184,
      "achieves": 4185,
      "84": 4186,
      "89": 4187,
      "Cur": 4188,
      "E5": 4189,
      "Wavy": 4190,
      "few": 4191,
      "wear": 4192,
      "##rity": 4193,
      "##oop": 4194,
      "##pan": 4195,
      "##pite": 4196,
      "##C5": 4197,
      "##ingu": 4198,
      "##ogn": 4199,
      "still": 4200,
      "distingu": 4201,
      "subdi": 4202,
      "anom": 4203,
      "scoop": 4204,
      "ruggedness": 4205,
      "brightest": 4206,
      "##00C5": 4207,
      "encla": 4208,
      "horizon": 4209,
      "mild": 4210,
      "remain": 4211,
      "Differential": 4212,
      "grades": 4213,
      "Flatter": 4214,
      "principally": 4215,
      "occurring": 4216,
      "landform": 4217,
      "truncation": 4218,
      "intruding": 4219,
      "intrusion": 4220,
      "recogn": 4221,
      "Composition": 4222,
      "Plaines": 4223,
      "casts": 4224,
      "integrity": 4225,
      "contribute": 4226,
      "obscure": 4227,
      "introduces": 4228,
      "transverses": 4229,
      "tiered": 4230,
      "Expan": 4231,
      "anchors": 4232,
      "diagonally": 4233,
      "effectively": 4234,
      "E500C5": 4235,
      "Expansive": 4236,
      "00": 4237,
      "74": 4238,
      "Run": 4239,
      "Sign": 4240,
      "dating": 4241,
      "first": 4242,
      "tren": 4243,
      "##mense": 4244,
      "##4D": 4245,
      "##inity": 4246,
      "##ndrit": 4247,
      "##ached": 4248,
      "dendrit": 4249,
      "stabil": 4250,
      "##semin": 4251,
      "mares": 4252,
      "definable": 4253,
      "lineation": 4254,
      "prior": 4255,
      "sharper": 4256,
      "immense": 4257,
      "trac": 4258,
      "observation": 4259,
      "wherein": 4260,
      "##unctions": 4261,
      "based": 4262,
      "expose": 4263,
      "Together": 4264,
      "impressive": 4265,
      "recor": 4266,
      "aligned": 4267,
      "collection": 4268,
      "organization": 4269,
      "accommodating": 4270,
      "fringed": 4271,
      "##otograph": 4272,
      "Photograph": 4273,
      "swathe": 4274,
      "lithosphere": 4275,
      "receiv": 4276,
      "condition": 4277,
      "attributed": 4278,
      "interlock": 4279,
      "collapse": 4280,
      "subdivided": 4281,
      "Running": 4282,
      "Significant": 4283,
      "dendritic": 4284,
      "stabilized": 4285,
      "##seminated": 4286,
      "F0": 4287,
      "Pos": 4288,
      "Sent": 4289,
      "bra": 4290,
      "functions": 4291,
      "hil": 4292,
      "nic": 4293,
      "##while": 4294,
      "##vit": 4295,
      "##BCA": 4296,
      "##ane": 4297,
      "stresses": 4298,
      "plaine": 4299,
      "##ccessive": 4300,
      "##ressing": 4301,
      "##cial": 4302,
      "intersections": 4303,
      "circles": 4304,
      "captured": 4305,
      "gravit": 4306,
      "illumin": 4307,
      "scarring": 4308,
      "intermingles": 4309,
      "Successive": 4310,
      "reflectivity": 4311,
      "connected": 4312,
      "##cket": 4313,
      "terminal": 4314,
      "Internal": 4315,
      "pairing": 4316,
      "instances": 4317,
      "overriding": 4318,
      "Photo": 4319,
      "intensity": 4320,
      "scooped": 4321,
      "interlocking": 4322,
      "F0BCA": 4323,
      "bracket": 4324,
      "hilly": 4325,
      "F0BCAD": 4326,
      "AA": 4327,
      "Me": 4328,
      "giant": 4329,
      "vic": 4330,
      "zer": 4331,
      "##rt": 4332,
      "##ym": 4333,
      "##co": 4334,
      "##A8": 4335,
      "##ature": 4336,
      "deco": 4337,
      "distinction": 4338,
      "incise": 4339,
      "mag": 4340,
      "matur": 4341,
      "virt": 4342,
      "those": 4343,
      "##ills": 4344,
      "scoured": 4345,
      "##izable": 4346,
      "resolution": 4347,
      "Streak": 4348,
      "punctu": 4349,
      "strips": 4350,
      "northernmost": 4351,
      "corrid": 4352,
      "distributions": 4353,
      "##etrically": 4354,
      "provincial": 4355,
      "burial": 4356,
      "resistance": 4357,
      "grabens": 4358,
      "Subdued": 4359,
      "channeling": 4360,
      "group": 4361,
      "intercal": 4362,
      "greater": 4363,
      "natural": 4364,
      "pitting": 4365,
      "wrap": 4366,
      "wrapping": 4367,
      "systematic": 4368,
      "extensions": 4369,
      "superpose": 4370,
      "alteration": 4371,
      "severely": 4372,
      "PNCU": 4373,
      "piled": 4374,
      "culminating": 4375,
      "ultimately": 4376,
      "coexist": 4377,
      "recognizable": 4378,
      "004D": 4379,
      "Positioned": 4380,
      "gravitational": 4381,
      "Mean": 4382,
      "vicinity": 4383,
      "zero": 4384,
      "virtually": 4385,
      "004DA8": 4386,
      "86": 4387,
      "Dra": 4388,
      "Pale": 4389,
      "Portion": 4390,
      "South": 4391,
      "cl": 4392,
      "emb": 4393,
      "ha": 4394,
      "hills": 4395,
      "##ry": 4396,
      "##redi": 4397,
      "##gle": 4398,
      "##pin": 4399,
      "##yond": 4400,
      "##ca": 4401,
      "##bon": 4402,
      "##jacent": 4403,
      "##E0": 4404,
      "ret": 4405,
      "distant": 4406,
      "##etitive": 4407,
      "suggested": 4408,
      "relating": 4409,
      "angle": 4410,
      "underpin": 4411,
      "constant": 4412,
      "repetitive": 4413,
      "continuously": 4414,
      "incredi": 4415,
      "##ize": 4416,
      "##esting": 4417,
      "denot": 4418,
      "tonal": 4419,
      "place": 4420,
      "detached": 4421,
      "results": 4422,
      "incises": 4423,
      "delimit": 4424,
      "Subsurface": 4425,
      "perm": 4426,
      "intercrater": 4427,
      "correlated": 4428,
      "correlates": 4429,
      "fringe": 4430,
      "occurrence": 4431,
      "##58E0": 4432,
      "timing": 4433,
      "cyc": 4434,
      "##iliz": 4435,
      "accompanied": 4436,
      "signifying": 4437,
      "wrink": 4438,
      "Specifically": 4439,
      "landforms": 4440,
      "tracery": 4441,
      "receiving": 4442,
      "illuminated": 4443,
      "AA58E0": 4444,
      "maturity": 4445,
      "Meanwhile": 4446,
      "Dramatic": 4447,
      "Portions": 4448,
      "incredibly": 4449,
      "Horiz": 4450,
      "Lat": 4451,
      "cla": 4452,
      "dent": 4453,
      "ell": 4454,
      "esc": 4455,
      "fas": 4456,
      "mound": 4457,
      "tran": 4458,
      "ub": 4459,
      "##ipt": 4460,
      "##neath": 4461,
      "##eed": 4462,
      "really": 4463,
      "stab": 4464,
      "##thing": 4465,
      "prot": 4466,
      "interm": 4467,
      "interstic": 4468,
      "interrel": 4469,
      "Oriental": 4470,
      "cha": 4471,
      "underneath": 4472,
      "ener": 4473,
      "tract": 4474,
      "##quil": 4475,
      "marginalized": 4476,
      "resurfaces": 4477,
      "##ontal": 4478,
      "##oining": 4479,
      "quies": 4480,
      "##iven": 4481,
      "blanketing": 4482,
      "grade": 4483,
      "mottling": 4484,
      "finely": 4485,
      "accoun": 4486,
      "Adjoining": 4487,
      "volum": 4488,
      "abundance": 4489,
      "##rinted": 4490,
      "impar": 4491,
      "Intersecting": 4492,
      "Subsequent": 4493,
      "intrude": 4494,
      "sedimentary": 4495,
      "chronologically": 4496,
      "offsets": 4497,
      "encircling": 4498,
      "piece": 4499,
      "##arpment": 4500,
      "mountains": 4501,
      "Deeply": 4502,
      "govern": 4503,
      "Nested": 4504,
      "##iquit": 4505,
      "stacking": 4506,
      "transversed": 4507,
      "Striated": 4508,
      "cyan": 4509,
      "finer": 4510,
      "falls": 4511,
      "paleogeographical": 4512,
      "percentage": 4513,
      "distinguish": 4514,
      "conditions": 4515,
      "Sentences": 4516,
      "##cause": 4517,
      "cycles": 4518,
      "Horizontal": 4519,
      "ellipt": 4520,
      "escarpment": 4521,
      "tranquil": 4522,
      "ubiquit": 4523,
      "stabiliz": 4524,
      "94": 4525,
      "Col": 4526,
      "Domin": 4527,
      "Det": 4528,
      "Gent": 4529,
      "Given": 4530,
      "Resting": 4531,
      "Ter": 4532,
      "rar": 4533,
      "tap": 4534,
      "##ms": 4535,
      "##cut": 4536,
      "##ude": 4537,
      "##ky": 4538,
      "##FC": 4539,
      "##vas": 4540,
      "##iny": 4541,
      "##ator": 4542,
      "dips": 4543,
      "rele": 4544,
      "terraced": 4545,
      "inscribed": 4546,
      "##eak": 4547,
      "disposition": 4548,
      "transected": 4549,
      "chains": 4550,
      "unch": 4551,
      "##mentary": 4552,
      "Into": 4553,
      "lowermost": 4554,
      "before": 4555,
      "##otom": 4556,
      "##estry": 4557,
      "##ssic": 4558,
      "restrict": 4559,
      "##ailed": 4560,
      "changed": 4561,
      "##inusoid": 4562,
      "episodic": 4563,
      "gray": 4564,
      "albedos": 4565,
      "despite": 4566,
      "topmost": 4567,
      "Because": 4568,
      "incising": 4569,
      "imprinted": 4570,
      "steeply": 4571,
      "overprints": 4572,
      "canvas": 4573,
      "affect": 4574,
      "carve": 4575,
      "typically": 4576,
      "chronology": 4577,
      "bisects": 4578,
      "hued": 4579,
      "equally": 4580,
      "valleys": 4581,
      "simpler": 4582,
      "cratonal": 4583,
      "intergrading": 4584,
      "Fragmented": 4585,
      "sporadic": 4586,
      "considerable": 4587,
      "anomaly": 4588,
      "remainder": 4589,
      "classic": 4590,
      "interstices": 4591,
      "chaotic": 4592,
      "accounting": 4593,
      "elliptical": 4594,
      "Dominating": 4595,
      "Detailed": 4596,
      "tapestry": 4597,
      "Vary": 4598,
      "We": 4599,
      "While": 4600,
      "drop": 4601,
      "foc": 4602,
      "myst": 4603,
      "pack": 4604,
      "tes": 4605,
      "##rom": 4606,
      "##rally": 4607,
      "##agged": 4608,
      "##tation": 4609,
      "##mic": 4610,
      "##ild": 4611,
      "##ule": 4612,
      "##anced": 4613,
      "##ales": 4614,
      "dich": 4615,
      "##vial": 4616,
      "##erious": 4617,
      "##sell": 4618,
      "intimately": 4619,
      "regular": 4620,
      "smooths": 4621,
      "##ult": 4622,
      "surroundings": 4623,
      "interwo": 4624,
      "##atest": 4625,
      "reside": 4626,
      "paralle": 4627,
      "fillings": 4628,
      "founded": 4629,
      "punctured": 4630,
      "Moder": 4631,
      "stripe": 4632,
      "noted": 4633,
      "existence": 4634,
      "mixes": 4635,
      "greatest": 4636,
      "designation": 4637,
      "slic": 4638,
      "thereby": 4639,
      "intermediary": 4640,
      "inundated": 4641,
      "extreme": 4642,
      "correlate": 4643,
      "progressing": 4644,
      "compartmental": 4645,
      "conformable": 4646,
      "accentuate": 4647,
      "continues": 4648,
      "placid": 4649,
      "variants": 4650,
      "enclaves": 4651,
      "bracketed": 4652,
      "corridor": 4653,
      "intercalated": 4654,
      "mounds": 4655,
      "relegated": 4656,
      "##otomy": 4657,
      "Varying": 4658,
      "mysterious": 4659,
      "tessell": 4660,
      "dichotomy": 4661,
      "interwoven": 4662,
      "FFF": 4663,
      "Lavender": 4664,
      "Sinusoid": 4665,
      "bread": 4666,
      "function": 4667,
      "jagged": 4668,
      "peak": 4669,
      "ris": 4670,
      "tiny": 4671,
      "##pl": 4672,
      "##plain": 4673,
      "##put": 4674,
      "##ers": 4675,
      "##arter": 4676,
      "##enance": 4677,
      "##rable": 4678,
      "##osity": 4679,
      "##ogen": 4680,
      "##rill": 4681,
      "##erized": 4682,
      "thus": 4683,
      "transitionary": 4684,
      "##aracterized": 4685,
      "modulate": 4686,
      "front": 4687,
      "representative": 4688,
      "object": 4689,
      "obvious": 4690,
      "##eption": 4691,
      "roughly": 4692,
      "freshly": 4693,
      "encased": 4694,
      "quarter": 4695,
      "crosscut": 4696,
      "sectional": 4697,
      "lithologically": 4698,
      "provenance": 4699,
      "sweeps": 4700,
      "build": 4701,
      "exception": 4702,
      "manifestations": 4703,
      "comparable": 4704,
      "starkly": 4705,
      "##dden": 4706,
      "folded": 4707,
      "##tened": 4708,
      "imply": 4709,
      "assemblages": 4710,
      "reflectance": 4711,
      "spreads": 4712,
      "integrates": 4713,
      "integrating": 4714,
      "identifies": 4715,
      "composing": 4716,
      "wedged": 4717,
      "geomorphological": 4718,
      "rib": 4719,
      "Contained": 4720,
      "altering": 4721,
      "extensional": 4722,
      "depths": 4723,
      "outcroppings": 4724,
      "fissures": 4725,
      "dents": 4726,
      "Tertiary": 4727,
      "uncharacterized": 4728,
      "FFFFBE": 4729,
      "rising": 4730,
      "##rilliant": 4731,
      "4E": 4732,
      "6FC": 4733,
      "As": 4734,
      "Elong": 4735,
      "Here": 4736,
      "Re": 4737,
      "Ste": 4738,
      "Sweep": 4739,
      "end": 4740,
      "sky": 4741,
      "##crib": 4742,
      "##went": 4743,
      "##400": 4744,
      "##3A3": 4745,
      "##head": 4746,
      "##ories": 4747,
      "sun": 4748,
      "##icul": 4749,
      "##olly": 4750,
      "distal": 4751,
      "##iff": 4752,
      "##umination": 4753,
      "##ndivid": 4754,
      "coast": 4755,
      "underwent": 4756,
      "meas": 4757,
      "##orphous": 4758,
      "Stratigraphic": 4759,
      "Although": 4760,
      "troughing": 4761,
      "##undant": 4762,
      "forces": 4763,
      "##cend": 4764,
      "partly": 4765,
      "denser": 4766,
      "ridged": 4767,
      "ridging": 4768,
      "involve": 4769,
      "illumination": 4770,
      "wholly": 4771,
      "elongate": 4772,
      "Located": 4773,
      "bowls": 4774,
      "succeed": 4775,
      "describ": 4776,
      "Brighter": 4777,
      "excavates": 4778,
      "Disseminated": 4779,
      "spreading": 4780,
      "Abutting": 4781,
      "Abundant": 4782,
      "walled": 4783,
      "Boundary": 4784,
      "##ertain": 4785,
      "integral": 4786,
      "encircle": 4787,
      "fluvial": 4788,
      "conforming": 4789,
      "visually": 4790,
      "terms": 4791,
      "meticul": 4792,
      "final": 4793,
      "Marginal": 4794,
      "confirming": 4795,
      "confirms": 4796,
      "height": 4797,
      "mildly": 4798,
      "cliff": 4799,
      "underpins": 4800,
      "denote": 4801,
      "permeated": 4802,
      "Later": 4803,
      "energy": 4804,
      "ubiquitous": 4805,
      "breadth": 4806,
      "4E3A3": 4807,
      "6FC400": 4808,
      "Elongated": 4809,
      "Steep": 4810,
      "Sweeping": 4811,
      "meticulously": 4812,
      "4E3A37": 4813,
      "Cross": 4814,
      "Cutting": 4815,
      "Def": 4816,
      "Flat": 4817,
      "Long": 4818,
      "Pro": 4819,
      "Reg": 4820,
      "bur": 4821,
      "cav": 4822,
      "hole": 4823,
      "individ": 4824,
      "junct": 4825,
      "lay": 4826,
      "save": 4827,
      "sinu": 4828,
      "##gul": 4829,
      "##sal": 4830,
      "##bro": 4831,
      "##ings": 4832,
      "##hion": 4833,
      "##assigned": 4834,
      "##ructure": 4835,
      "matric": 4836,
      "##ostructure": 4837,
      "##ography": 4838,
      "clearer": 4839,
      "engul": 4840,
      "scop": 4841,
      "unbro": 4842,
      "unassigned": 4843,
      "zonation": 4844,
      "trapped": 4845,
      "ones": 4846,
      "historically": 4847,
      "##therly": 4848,
      "beyond": 4849,
      "resili": 4850,
      "revealed": 4851,
      "presented": 4852,
      "amorphous": 4853,
      "Structured": 4854,
      "extents": 4855,
      "leveling": 4856,
      "tectonics": 4857,
      "Through": 4858,
      "heterogenous": 4859,
      "color": 4860,
      "butts": 4861,
      "descend": 4862,
      "Interming": 4863,
      "settings": 4864,
      "maintained": 4865,
      "therefore": 4866,
      "Dispersed": 4867,
      "thickn": 4868,
      "proportions": 4869,
      "accommodate": 4870,
      "Superposition": 4871,
      "Centrally": 4872,
      "youthful": 4873,
      "accented": 4874,
      "cratons": 4875,
      "dynamically": 4876,
      "overlooking": 4877,
      "photograph": 4878,
      "severe": 4879,
      "accompanying": 4880,
      "Shadowed": 4881,
      "Marginally": 4882,
      "chunks": 4883,
      "chunkier": 4884,
      "Fragments": 4885,
      "isolation": 4886,
      "fissure": 4887,
      "hem": 4888,
      "pool": 4889,
      "Curved": 4890,
      "trenches": 4891,
      "decorate": 4892,
      "Streaky": 4893,
      "punctuates": 4894,
      "wrinkle": 4895,
      "fashion": 4896,
      "rare": 4897,
      "objects": 4898,
      "quarters": 4899,
      "ribbon": 4900,
      "sunken": 4901,
      "succeeded": 4902,
      "describe": 4903,
      "Defining": 4904,
      "cavity": 4905,
      "individual": 4906,
      "juncture": 4907,
      "matrices": 4908,
      "engulf": 4909,
      "scope": 4910,
      "unbroken": 4911,
      "Between": 4912,
      "Erosion": 4913,
      "From": 4914,
      "Notic": 4915,
      "Red": 4916,
      "Res": 4917,
      "ap": 4918,
      "av": 4919,
      "brid": 4920,
      "brilliant": 4921,
      "cos": 4922,
      "eon": 4923,
      "gap": 4924,
      "shel": 4925,
      "ten": 4926,
      "tell": 4927,
      "##mer": 4928,
      "##eor": 4929,
      "##ever": 4930,
      "##land": 4931,
      "##uent": 4932,
      "##CC": 4933,
      "##C8": 4934,
      "##84": 4935,
      "##TU": 4936,
      "##lable": 4937,
      "##asi": 4938,
      "##ase": 4939,
      "sty": 4940,
      "step": 4941,
      "##olute": 4942,
      "##ths": 4943,
      "contour": 4944,
      "overhead": 4945,
      "##ocent": 4946,
      "##ocum": 4947,
      "things": 4948,
      "locus": 4949,
      "formational": 4950,
      "exterior": 4951,
      "transverse": 4952,
      "chain": 4953,
      "constituent": 4954,
      "disconnected": 4955,
      "reliefs": 4956,
      "depocent": 4957,
      "preced": 4958,
      "##isphere": 4959,
      "arrangements": 4960,
      "Impactated": 4961,
      "Strat": 4962,
      "restricts": 4963,
      "outlying": 4964,
      "outside": 4965,
      "##ailable": 4966,
      "demarcations": 4967,
      "uplifting": 4968,
      "Locally": 4969,
      "residing": 4970,
      "interruption": 4971,
      "faintly": 4972,
      "description": 4973,
      "folding": 4974,
      "slight": 4975,
      "absolute": 4976,
      "unevenly": 4977,
      "Overlaid": 4978,
      "termination": 4979,
      "groupings": 4980,
      "smoothest": 4981,
      "softly": 4982,
      "teal": 4983,
      "thicker": 4984,
      "F4C8": 4985,
      "collisional": 4986,
      "commencing": 4987,
      "lineamentation": 4988,
      "voids": 4989,
      "sources": 4990,
      "FFCC": 4991,
      "sided": 4992,
      "accentuated": 4993,
      "cratonic": 4994,
      "does": 4995,
      "territories": 4996,
      "instance": 4997,
      "profoundly": 4998,
      "ripple": 4999,
      "ripples": 5000,
      "encountering": 5001,
      "sporadically": 5002,
      "slumping": 5003,
      "poly": 5004,
      "recorded": 5005,
      "recording": 5006,
      "niche": 5007,
      "##ymm": 5008,
      "magmatic": 5009,
      "Southward": 5010,
      "interrelationships": 5011,
      "stabilization": 5012,
      "Sinusoidal": 5013,
      "##ogenic": 5014,
      "Throughout": 5015,
      "hemisphere": 5016,
      "apron": 5017,
      "available": 5018,
      "cosmic": 5019,
      "contours": 5020,
      "##ocument": 5021,
      "F4C884": 5022,
      "FFCCBD": 5023,
      "Border": 5024,
      "Med": 5025,
      "Rad": 5026,
      "Since": 5027,
      "ax": 5028,
      "apart": 5029,
      "bre": 5030,
      "bran": 5031,
      "brit": 5032,
      "ce": 5033,
      "document": 5034,
      "fif": 5035,
      "mic": 5036,
      "own": 5037,
      "power": 5038,
      "##tent": 5039,
      "##cule": 5040,
      "##for": 5041,
      "##ffer": 5042,
      "##dles": 5043,
      "##vature": 5044,
      "##ering": 5045,
      "##eric": 5046,
      "##infor": 5047,
      "##hem": 5048,
      "##ittent": 5049,
      "##ingly": 5050,
      "##stial": 5051,
      "##ectable": 5052,
      "##lestial": 5053,
      "reinfor": 5054,
      "terraplain": 5055,
      "geostructure": 5056,
      "definitive": 5057,
      "##posing": 5058,
      "##eable": 5059,
      "seas": 5060,
      "##ifying": 5061,
      "displ": 5062,
      "##pheric": 5063,
      "subjacent": 5064,
      "##uscule": 5065,
      "separations": 5066,
      "zoning": 5067,
      "minuscule": 5068,
      "curvature": 5069,
      "##pretation": 5070,
      "consistency": 5071,
      "mask": 5072,
      "##eful": 5073,
      "##ressions": 5074,
      "rimming": 5075,
      "partition": 5076,
      "##aching": 5077,
      "images": 5078,
      "thinly": 5079,
      "Distributed": 5080,
      "##akes": 5081,
      "narrowest": 5082,
      "locales": 5083,
      "Textural": 5084,
      "brownish": 5085,
      "Interstit": 5086,
      "Interpretation": 5087,
      "durable": 5088,
      "##rins": 5089,
      "incorporated": 5090,
      "stretched": 5091,
      "proximate": 5092,
      "dictate": 5093,
      "Variations": 5094,
      "etch": 5095,
      "cradles": 5096,
      "Juxtaposing": 5097,
      "encapsulating": 5098,
      "contributes": 5099,
      "soft": 5100,
      "definitions": 5101,
      "begins": 5102,
      "supported": 5103,
      "Planar": 5104,
      "varieties": 5105,
      "rises": 5106,
      "hint": 5107,
      "accreted": 5108,
      "Exposed": 5109,
      "newly": 5110,
      "swathes": 5111,
      "Photographic": 5112,
      "Densely": 5113,
      "Shadows": 5114,
      "embra": 5115,
      "having": 5116,
      "intermittent": 5117,
      "quiescent": 5118,
      "imparts": 5119,
      "governs": 5120,
      "distinguishing": 5121,
      "Color": 5122,
      "Gently": 5123,
      "focus": 5124,
      "tessellated": 5125,
      "Stratigraphically": 5126,
      "Intermingled": 5127,
      "Bordering": 5128,
      "Medium": 5129,
      "branching": 5130,
      "brittle": 5131,
      "celestial": 5132,
      "powerful": 5133,
      "Crescent": 5134,
      "Deg": 5135,
      "Gen": 5136,
      "Hu": 5137,
      "Key": 5138,
      "Occ": 5139,
      "bath": 5140,
      "certain": 5141,
      "fac": 5142,
      "fres": 5143,
      "nod": 5144,
      "sn": 5145,
      "vest": 5146,
      "##tou": 5147,
      "##hin": 5148,
      "##mmary": 5149,
      "##iate": 5150,
      "##iations": 5151,
      "##cence": 5152,
      "##val": 5153,
      "##MU": 5154,
      "##itude": 5155,
      "##stra": 5156,
      "sudden": 5157,
      "summary": 5158,
      "##entations": 5159,
      "retic": 5160,
      "##olian": 5161,
      "##ologic": 5162,
      "topped": 5163,
      "inlier": 5164,
      "matching": 5165,
      "come": 5166,
      "##upying": 5167,
      "disseminated": 5168,
      "loci": 5169,
      "##ulating": 5170,
      "textual": 5171,
      "coales": 5172,
      "transversely": 5173,
      "submer": 5174,
      "transitioned": 5175,
      "transitionally": 5176,
      "abutments": 5177,
      "indentations": 5178,
      "undergoing": 5179,
      "##idual": 5180,
      "unnam": 5181,
      "untou": 5182,
      "##menting": 5183,
      "edific": 5184,
      "containment": 5185,
      "overlayed": 5186,
      "eventually": 5187,
      "Structures": 5188,
      "flowage": 5189,
      "striping": 5190,
      "southernmost": 5191,
      "degrade": 5192,
      "capturing": 5193,
      "constraining": 5194,
      "##3600": 5195,
      "##acements": 5196,
      "##etric": 5197,
      "leveled": 5198,
      "buffer": 5199,
      "perimeters": 5200,
      "colo": 5201,
      "emplacements": 5202,
      "detectable": 5203,
      "imping": 5204,
      "impressed": 5205,
      "steeper": 5206,
      "refined": 5207,
      "inundates": 5208,
      "inundate": 5209,
      "excavating": 5210,
      "aligns": 5211,
      "world": 5212,
      "segreg": 5213,
      "platforms": 5214,
      "softened": 5215,
      "introduced": 5216,
      "movements": 5217,
      "Intense": 5218,
      "FF3600": 5219,
      "##timate": 5220,
      "unconformably": 5221,
      "meteor": 5222,
      "incursion": 5223,
      "intergrades": 5224,
      "wrinkled": 5225,
      "variance": 5226,
      "Compositionally": 5227,
      "trench": 5228,
      "niches": 5229,
      "##aneously": 5230,
      "protected": 5231,
      "packages": 5232,
      "Moderate": 5233,
      "compartmentalize": 5234,
      "building": 5235,
      "exceptionally": 5236,
      "coastal": 5237,
      "measured": 5238,
      "bury": 5239,
      "Erosional": 5240,
      "Residual": 5241,
      "tension": 5242,
      "fifths": 5243,
      "Interstitial": 5244,
      "Degra": 5245,
      "General": 5246,
      "Huge": 5247,
      "Occupying": 5248,
      "freshest": 5249,
      "vestig": 5250,
      "##hind": 5251,
      "unnamed": 5252,
      "untouched": 5253,
      "BL": 5254,
      "Band": 5255,
      "Co": 5256,
      "New": 5257,
      "Ple": 5258,
      "Wh": 5259,
      "boo": 5260,
      "chem": 5261,
      "eolian": 5262,
      "heavi": 5263,
      "if": 5264,
      "joined": 5265,
      "just": 5266,
      "lining": 5267,
      "now": 5268,
      "opp": 5269,
      "put": 5270,
      "rise": 5271,
      "tied": 5272,
      "test": 5273,
      "##gly": 5274,
      "##ser": 5275,
      "##line": 5276,
      "##dinate": 5277,
      "##diary": 5278,
      "##umb": 5279,
      "##ualized": 5280,
      "##uating": 5281,
      "##vanced": 5282,
      "##ze": 5283,
      "##itic": 5284,
      "##osing": 5285,
      "requ": 5286,
      "##mpled": 5287,
      "##sidiary": 5288,
      "state": 5289,
      "story": 5290,
      "Terrain": 5291,
      "geologist": 5292,
      "##sest": 5293,
      "conversely": 5294,
      "input": 5295,
      "definite": 5296,
      "viol": 5297,
      "visc": 5298,
      "relations": 5299,
      "order": 5300,
      "darkly": 5301,
      "separator": 5302,
      "appearances": 5303,
      "undergo": 5304,
      "unres": 5305,
      "Inf": 5306,
      "depositionally": 5307,
      "##quid": 5308,
      "##izing": 5309,
      "infilt": 5310,
      "width": 5311,
      "liquid": 5312,
      "##kend": 5313,
      "contrastingly": 5314,
      "discord": 5315,
      "northerly": 5316,
      "northward": 5317,
      "Superimpos": 5318,
      "prec": 5319,
      "predates": 5320,
      "quasi": 5321,
      "punctiform": 5322,
      "##gmented": 5323,
      "strict": 5324,
      "pervad": 5325,
      "associations": 5326,
      "degrading": 5327,
      "rima": 5328,
      "sectorial": 5329,
      "superpositions": 5330,
      "maps": 5331,
      "##bordinate": 5332,
      "Geom": 5333,
      "grain": 5334,
      "pockmarking": 5335,
      "what": 5336,
      "contextualized": 5337,
      "ranges": 5338,
      "pocketed": 5339,
      "Brightly": 5340,
      "Subordinate": 5341,
      "greener": 5342,
      "Subsidiary": 5343,
      "perf": 5344,
      "accumulating": 5345,
      "radially": 5346,
      "encapsulate": 5347,
      "hue": 5348,
      "trending": 5349,
      "apparently": 5350,
      "simult": 5351,
      "depiction": 5352,
      "tracings": 5353,
      "weathering": 5354,
      "Relatively": 5355,
      "imposes": 5356,
      "articulate": 5357,
      "collision": 5358,
      "penetrates": 5359,
      "##impsest": 5360,
      "conspicuously": 5361,
      "sourced": 5362,
      "palimpsest": 5363,
      "passes": 5364,
      "independently": 5365,
      "constraints": 5366,
      "continued": 5367,
      "lithospheric": 5368,
      "Specific": 5369,
      "slumped": 5370,
      "considerably": 5371,
      "placing": 5372,
      "advanced": 5373,
      "decorated": 5374,
      "coexistence": 5375,
      "happ": 5376,
      "retains": 5377,
      "constantly": 5378,
      "delimiting": 5379,
      "quiescence": 5380,
      "volumetrically": 5381,
      "paralleling": 5382,
      "paralleled": 5383,
      "peaks": 5384,
      "Rem": 5385,
      "descends": 5386,
      "thickness": 5387,
      "Noticeable": 5388,
      "depocenter": 5389,
      "preceding": 5390,
      "axis": 5391,
      "micro": 5392,
      "bathym": 5393,
      "##stract": 5394,
      "edifices": 5395,
      "coloration": 5396,
      "BLU": 5397,
      "Coded": 5398,
      "Please": 5399,
      "White": 5400,
      "bookend": 5401,
      "chemically": 5402,
      "heavier": 5403,
      "simultaneously": 5404,
      "F2": 5405,
      "Fill": 5406,
      "How": 5407,
      "IL": 5408,
      "Lim": 5409,
      "Mat": 5410,
      "Ob": 5411,
      "Und": 5412,
      "Vie": 5413,
      "amp": 5414,
      "bea": 5415,
      "dri": 5416,
      "eratost": 5417,
      "fle": 5418,
      "hand": 5419,
      "lot": 5420,
      "luminous": 5421,
      "might": 5422,
      "mess": 5423,
      "pur": 5424,
      "pree": 5425,
      "ray": 5426,
      "swe": 5427,
      "ve": 5428,
      "wast": 5429,
      "##tions": 5430,
      "##plis": 5431,
      "##nic": 5432,
      "##chi": 5433,
      "##com": 5434,
      "##eal": 5435,
      "##empor": 5436,
      "##lac": 5437,
      "##wor": 5438,
      "##fined": 5439,
      "##udes": 5440,
      "##ugly": 5441,
      "##FU": 5442,
      "##void": 5443,
      "##xus": 5444,
      "##junct": 5445,
      "##ère": 5446,
      "##aring": 5447,
      "##arting": 5448,
      "##sta": 5449,
      "##aceful": 5450,
      "##oustic": 5451,
      "dim": 5452,
      "reaching": 5453,
      "rewor": 5454,
      "##mpl": 5455,
      "starting": 5456,
      "##olved": 5457,
      "##urb": 5458,
      "contempor": 5459,
      "##iful": 5460,
      "##utiful": 5461,
      "disjunct": 5462,
      "vivid": 5463,
      "vista": 5464,
      "patched": 5465,
      "patchi": 5466,
      "expression": 5467,
      "expressions": 5468,
      "darkness": 5469,
      "mareal": 5470,
      "differentiating": 5471,
      "##idental": 5472,
      "Inside": 5473,
      "Input": 5474,
      "signature": 5475,
      "ago": 5476,
      "becom": 5477,
      "incidental": 5478,
      "irregularities": 5479,
      "masking": 5480,
      "##ishes": 5481,
      "flatten": 5482,
      "pressed": 5483,
      "puncture": 5484,
      "striation": 5485,
      "##ircular": 5486,
      "planation": 5487,
      "nexus": 5488,
      "##mediate": 5489,
      "Distinctive": 5490,
      "graded": 5491,
      "##marked": 5492,
      "peaceful": 5493,
      "phased": 5494,
      "Minute": 5495,
      "Adjacently": 5496,
      "backbon": 5497,
      "butt": 5498,
      "Fractures": 5499,
      "##ricate": 5500,
      "Intermediate": 5501,
      "Beyond": 5502,
      "subsiding": 5503,
      "impression": 5504,
      "intermingle": 5505,
      "analyze": 5506,
      "##ficially": 5507,
      "excavate": 5508,
      "shearing": 5509,
      "holding": 5510,
      "Discretely": 5511,
      "Despite": 5512,
      "radar": 5513,
      "Completing": 5514,
      "Complementing": 5515,
      "leading": 5516,
      "limiting": 5517,
      "hues": 5518,
      "everything": 5519,
      "Confined": 5520,
      "cratographic": 5521,
      "cratogenic": 5522,
      "cratère": 5523,
      "outwards": 5524,
      "occasional": 5525,
      "Deeper": 5526,
      "helping": 5527,
      "intermixing": 5528,
      "coherence": 5529,
      "Traversal": 5530,
      "veneers": 5531,
      "Intricate": 5532,
      "penetrating": 5533,
      "paired": 5534,
      "##0D0D": 5535,
      "encasing": 5536,
      "supplementary": 5537,
      "presumed": 5538,
      "connections": 5539,
      "studded": 5540,
      "encountered": 5541,
      "entities": 5542,
      "resembles": 5543,
      "overrides": 5544,
      "achieving": 5545,
      "littering": 5546,
      "accretionary": 5547,
      "rippled": 5548,
      "signifies": 5549,
      "dynamics": 5550,
      "jointing": 5551,
      "##xisting": 5552,
      "Curvilinear": 5553,
      "anomal": 5554,
      "magnit": 5555,
      "Streaks": 5556,
      "wrinkles": 5557,
      "interrelationship": 5558,
      "volume": 5559,
      "Gentle": 5560,
      "restricting": 5561,
      "Moderately": 5562,
      "slices": 5563,
      "fronts": 5564,
      "Regional": 5565,
      "layout": 5566,
      "resilient": 5567,
      "engulfed": 5568,
      "sheltered": 5569,
      "style": 5570,
      "documenting": 5571,
      "displacement": 5572,
      "partitioning": 5573,
      "##rinsically": 5574,
      "embracing": 5575,
      "intermittently": 5576,
      "focused": 5577,
      "snugly": 5578,
      "reticulated": 5579,
      "inliers": 5580,
      "buffered": 5581,
      "testifying": 5582,
      "violent": 5583,
      "viscosity": 5584,
      "undergoes": 5585,
      "Inferior": 5586,
      "strictly": 5587,
      "perfect": 5588,
      "happened": 5589,
      "F20D0D": 5590,
      "Filling": 5591,
      "However": 5592,
      "Limited": 5593,
      "View": 5594,
      "amplit": 5595,
      "beautiful": 5596,
      "driven": 5597,
      "eratosthenian": 5598,
      "flex": 5599,
      "messy": 5600,
      "purplis": 5601,
      "preexisting": 5602,
      "swept": 5603,
      "wasting": 5604,
      "reworking": 5605,
      "backbone": 5606,
      "purplish": 5607,
      "Ag": 5608,
      "Around": 5609,
      "Ass": 5610,
      "Cor": 5611,
      "Cru": 5612,
      "Every": 5613,
      "Flow": 5614,
      "Lit": 5615,
      "Lines": 5616,
      "Next": 5617,
      "Old": 5618,
      "Sect": 5619,
      "Tan": 5620,
      "Teal": 5621,
      "amb": 5622,
      "bi": 5623,
      "bus": 5624,
      "date": 5625,
      "fain": 5626,
      "fewer": 5627,
      "hous": 5628,
      "jumb": 5629,
      "len": 5630,
      "lam": 5631,
      "ming": 5632,
      "mult": 5633,
      "oce": 5634,
      "sent": 5635,
      "symm": 5636,
      "takes": 5637,
      "##rian": 5638,
      "##rnic": 5639,
      "##plains": 5640,
      "##pri": 5641,
      "##hap": 5642,
      "##yn": 5643,
      "##mless": 5644,
      "##sor": 5645,
      "##sally": 5646,
      "##serv": 5647,
      "##slop": 5648,
      "##ient": 5649,
      "##iates": 5650,
      "##cin": 5651,
      "##lf": 5652,
      "##uve": 5653,
      "##usive": 5654,
      "##uck": 5655,
      "##bil": 5656,
      "##zing": 5657,
      "##érnic": 5658,
      "##atory": 5659,
      "##itud": 5660,
      "##ensions": 5661,
      "##omosing": 5662,
      "surpri": 5663,
      "##osite": 5664,
      "craterized": 5665,
      "##faced": 5666,
      "##get": 5667,
      "devi": 5668,
      "strange": 5669,
      "distance": 5670,
      "exce": 5671,
      "impactful": 5672,
      "##chan": 5673,
      "Basins": 5674,
      "marred": 5675,
      "regist": 5676,
      "acoustic": 5677,
      "##ociated": 5678,
      "##umn": 5679,
      "complementary": 5680,
      "##osthenian": 5681,
      "interbed": 5682,
      "Self": 5683,
      "##lied": 5684,
      "sprin": 5685,
      "Eratosthen": 5686,
      "Eratostosthenian": 5687,
      "explic": 5688,
      "##astomosing": 5689,
      "anastomosing": 5690,
      "mechan": 5691,
      "asymm": 5692,
      "unse": 5693,
      "unus": 5694,
      "unmarked": 5695,
      "##que": 5696,
      "behind": 5697,
      "##izes": 5698,
      "Copérnic": 5699,
      "reshap": 5700,
      "lilac": 5701,
      "Clustered": 5702,
      "##kest": 5703,
      "manner": 5704,
      "##ontane": 5705,
      "juxtapositioned": 5706,
      "discretely": 5707,
      "flattened": 5708,
      "alread": 5709,
      "Impacts": 5710,
      "##singly": 5711,
      "##centrated": 5712,
      "basally": 5713,
      "lightest": 5714,
      "drapes": 5715,
      "##rection": 5716,
      "Larger": 5717,
      "moderated": 5718,
      "Sporad": 5719,
      "changing": 5720,
      "lithologic": 5721,
      "##etry": 5722,
      "involved": 5723,
      "peach": 5724,
      "paleos": 5725,
      "peppering": 5726,
      "mantles": 5727,
      "undulatory": 5728,
      "Images": 5729,
      "Peripherally": 5730,
      "longitud": 5731,
      "something": 5732,
      "folds": 5733,
      "bumps": 5734,
      "##ending": 5735,
      "greenish": 5736,
      "unex": 5737,
      "inundations": 5738,
      "extended": 5739,
      "interpretation": 5740,
      "kind": 5741,
      "lavas": 5742,
      "Juxtaposition": 5743,
      "Abstract": 5744,
      "terminated": 5745,
      "radiate": 5746,
      "Separated": 5747,
      "thickest": 5748,
      "contribution": 5749,
      "contributions": 5750,
      "##ritten": 5751,
      "remarkable": 5752,
      "Concentrated": 5753,
      "progressive": 5754,
      "downwards": 5755,
      "fringing": 5756,
      "additions": 5757,
      "equator": 5758,
      "Layers": 5759,
      "Layering": 5760,
      "Superjacent": 5761,
      "Interior": 5762,
      "conforms": 5763,
      "conformably": 5764,
      "seamless": 5765,
      "accentuating": 5766,
      "Contact": 5767,
      "encase": 5768,
      "unconformities": 5769,
      "terminus": 5770,
      "terminate": 5771,
      "Transitioning": 5772,
      "studied": 5773,
      "classifying": 5774,
      "effusive": 5775,
      "overridden": 5776,
      "physiography": 5777,
      "links": 5778,
      "variant": 5779,
      "encounters": 5780,
      "PNTU": 5781,
      "confinement": 5782,
      "Shadowing": 5783,
      "falling": 5784,
      "jointly": 5785,
      "isolates": 5786,
      "isolating": 5787,
      "pict": 5788,
      "culminates": 5789,
      "distinguishes": 5790,
      "coexisting": 5791,
      "embay": 5792,
      "retaining": 5793,
      "permeat": 5794,
      "fascin": 5795,
      "intermontane": 5796,
      "Colored": 5797,
      "focal": 5798,
      "package": 5799,
      "buildup": 5800,
      "Recent": 5801,
      "endured": 5802,
      "sinuos": 5803,
      "sinuosity": 5804,
      "resilience": 5805,
      "pools": 5806,
      "eons": 5807,
      "tells": 5808,
      "Stratification": 5809,
      "masked": 5810,
      "nodule": 5811,
      "submerged": 5812,
      "segregation": 5813,
      "meteoritic": 5814,
      "Degraded": 5815,
      "Banded": 5816,
      "opposite": 5817,
      "unresolved": 5818,
      "discordance": 5819,
      "precur": 5820,
      "Remnant": 5821,
      "bathymetry": 5822,
      "ILCU": 5823,
      "Material": 5824,
      "Observ": 5825,
      "dimensions": 5826,
      "contemporane": 5827,
      "becomes": 5828,
      "anomalies": 5829,
      "amplitude": 5830,
      "flexing": 5831,
      "Against": 5832,
      "Associated": 5833,
      "Correction": 5834,
      "Crust": 5835,
      "Everything": 5836,
      "Little": 5837,
      "busy": 5838,
      "fainter": 5839,
      "lamin": 5840,
      "ocean": 5841,
      "symmetrically": 5842,
      "##slope": 5843,
      "##bility": 5844,
      "surprisingly": 5845,
      "sprinkled": 5846,
      "explicit": 5847,
      "already": 5848,
      "progressively": 5849,
      "fascinating": 5850,
      "96936": 5851,
      "Countless": 5852,
      "De": 5853,
      "Defined": 5854,
      "Del": 5855,
      "Ejecta": 5856,
      "Gro": 5857,
      "IU": 5858,
      "Nor": 5859,
      "Not": 5860,
      "NTU": 5861,
      "Pri": 5862,
      "Perv": 5863,
      "Patter": 5864,
      "Pock": 5865,
      "Plateaus": 5866,
      "UMU": 5867,
      "acted": 5868,
      "bar": 5869,
      "backed": 5870,
      "bord": 5871,
      "cat": 5872,
      "crown": 5873,
      "fe": 5874,
      "gran": 5875,
      "har": 5876,
      "hier": 5877,
      "lac": 5878,
      "lending": 5879,
      "my": 5880,
      "must": 5881,
      "nu": 5882,
      "petr": 5883,
      "rect": 5884,
      "rig": 5885,
      "will": 5886,
      "##aves": 5887,
      "##agery": 5888,
      "##tain": 5889,
      "##titude": 5890,
      "##gen": 5891,
      "##pie": 5892,
      "##milar": 5893,
      "##sh": 5894,
      "##ived": 5895,
      "##ilinear": 5896,
      "##epped": 5897,
      "##lines": 5898,
      "##lored": 5899,
      "##den": 5900,
      "##heav": 5901,
      "##atures": 5902,
      "##cting": 5903,
      "##edingly": 5904,
      "##onous": 5905,
      "##onti": 5906,
      "##rac": 5907,
      "##racted": 5908,
      "##acenc": 5909,
      "Craterized": 5910,
      "unitized": 5911,
      "##getic": 5912,
      "##ormed": 5913,
      "##ormous": 5914,
      "##similar": 5915,
      "stepped": 5916,
      "##vex": 5917,
      "disturb": 5918,
      "##erially": 5919,
      "##chy": 5920,
      "convex": 5921,
      "inland": 5922,
      "intimate": 5923,
      "##eted": 5924,
      "##etic": 5925,
      "marine": 5926,
      "mauve": 5927,
      "regard": 5928,
      "regionalized": 5929,
      "##posits": 5930,
      "materially": 5931,
      "dissimilar": 5932,
      "##layered": 5933,
      "basinward": 5934,
      "##cape": 5935,
      "##llite": 5936,
      "interposed": 5937,
      "abdu": 5938,
      "transg": 5939,
      "explored": 5940,
      "##evelop": 5941,
      "abutt": 5942,
      "undevelop": 5943,
      "##atellite": 5944,
      "upheav": 5945,
      "##mposed": 5946,
      "sited": 5947,
      "differs": 5948,
      "crumpled": 5949,
      "fronti": 5950,
      "enh": 5951,
      "enormous": 5952,
      "scrat": 5953,
      "construct": 5954,
      "contrastive": 5955,
      "signatures": 5956,
      "backgrounds": 5957,
      "zonal": 5958,
      "representation": 5959,
      "traversal": 5960,
      "anciently": 5961,
      "texturing": 5962,
      "##ludes": 5963,
      "overwritten": 5964,
      "curtain": 5965,
      "##otographic": 5966,
      "southerly": 5967,
      "##imal": 5968,
      "juxtapositional": 5969,
      "preferent": 5970,
      "allow": 5971,
      "##orphology": 5972,
      "morphologically": 5973,
      "altitude": 5974,
      "grounded": 5975,
      "predominance": 5976,
      "centerpie": 5977,
      "stratiform": 5978,
      "Stre": 5979,
      "action": 5980,
      "depositing": 5981,
      "punctually": 5982,
      "Moving": 5983,
      "pervasively": 5984,
      "proceed": 5985,
      "served": 5986,
      "setup": 5987,
      "##ompt": 5988,
      "sparingly": 5989,
      "sparser": 5990,
      "shade": 5991,
      "parallels": 5992,
      "superpositioning": 5993,
      "postd": 5994,
      "periodically": 5995,
      "corners": 5996,
      "Geology": 5997,
      "##etrical": 5998,
      "localize": 5999,
      "Therefore": 6000,
      "white": 6001,
      "Minimal": 6002,
      "account": 6003,
      "unclear": 6004,
      "uncertain": 6005,
      "floods": 6006,
      "multilayered": 6007,
      "fragmentary": 6008,
      "Prominently": 6009,
      "closed": 6010,
      "column": 6011,
      "Imagery": 6012,
      "Freshly": 6013,
      "topologies": 6014,
      "Intervening": 6015,
      "ridgelines": 6016,
      "patchworked": 6017,
      "residuals": 6018,
      "approx": 6019,
      "implied": 6020,
      "intermediately": 6021,
      "downslope": 6022,
      "yellowish": 6023,
      "proximally": 6024,
      "reflectors": 6025,
      "populating": 6026,
      "intrusive": 6027,
      "recesses": 6028,
      "combines": 6029,
      "hold": 6030,
      "however": 6031,
      "photographic": 6032,
      "floodplains": 6033,
      "correlation": 6034,
      "templ": 6035,
      "definitional": 6036,
      "cratom": 6037,
      "cratization": 6038,
      "##hering": 6039,
      "mediate": 6040,
      "governing": 6041,
      "Relationship": 6042,
      "caus": 6043,
      "penep": 6044,
      "Superficially": 6045,
      "Intrinsically": 6046,
      "damage": 6047,
      "constrains": 6048,
      "sculpting": 6049,
      "circumscrib": 6050,
      "connection": 6051,
      "prevalence": 6052,
      "intergrade": 6053,
      "Specialized": 6054,
      "comprehensively": 6055,
      "fitted": 6056,
      "fitting": 6057,
      "signify": 6058,
      "isolate": 6059,
      "condu": 6060,
      "intensities": 6061,
      "adhering": 6062,
      "ultimate": 6063,
      "Curving": 6064,
      "enclave": 6065,
      "punctuating": 6066,
      "corridors": 6067,
      "intercalation": 6068,
      "Lateral": 6069,
      "protracted": 6070,
      "energetic": 6071,
      "imparted": 6072,
      "distinguishable": 6073,
      "ubiquitously": 6074,
      "stabilize": 6075,
      "slice": 6076,
      "compartmentalizing": 6077,
      "tessellation": 6078,
      "functioning": 6079,
      "##plored": 6080,
      "ends": 6081,
      "heights": 6082,
      "cliffs": 6083,
      "Crossing": 6084,
      "Prov": 6085,
      "descending": 6086,
      "thicknesses": 6087,
      "bridge": 6088,
      "shelf": 6089,
      "styles": 6090,
      "polygen": 6091,
      "Radial": 6092,
      "Radiating": 6093,
      "brecc": 6094,
      "reinforced": 6095,
      "faceted": 6096,
      "impinging": 6097,
      "tensional": 6098,
      "vestiges": 6099,
      "vestigial": 6100,
      "Superimposing": 6101,
      "bookended": 6102,
      "Undulating": 6103,
      "rays": 6104,
      "patchily": 6105,
      "magnitudes": 6106,
      "bipartite": 6107,
      "leng": 6108,
      "mingle": 6109,
      "multitude": 6110,
      "sentence": 6111,
      "##ucked": 6112,
      "exceedingly": 6113,
      "asymmetrical": 6114,
      "unsegmented": 6115,
      "unusual": 6116,
      "Sporadic": 6117,
      "longitudinally": 6118,
      "unexplored": 6119,
      "picture": 6120,
      "permeates": 6121,
      "precursor": 6122,
      "Remnants": 6123,
      "contemporaneous": 6124,
      "Crustal": 6125,
      "laminated": 6126,
      "explicitly": 6127,
      "Deposits": 6128,
      "Groo": 6129,
      "North": 6130,
      "Primary": 6131,
      "Pervasive": 6132,
      "Patterned": 6133,
      "Pocket": 6134,
      "granular": 6135,
      "rectilinear": 6136,
      "##acencies": 6137,
      "abducting": 6138,
      "undeveloped": 6139,
      "upheaval": 6140,
      "frontier": 6141,
      "centerpiece": 6142,
      "template": 6143,
      "polygenetic": 6144,
      "Brilliant": 6145,
      "Ca": 6146,
      "Circular": 6147,
      "Dep": 6148,
      "Each": 6149,
      "Few": 6150,
      "Field": 6151,
      "Giant": 6152,
      "IFU": 6153,
      "Imposed": 6154,
      "Lack": 6155,
      "Late": 6156,
      "Lots": 6157,
      "LCU": 6158,
      "Mature": 6159,
      "Morphology": 6160,
      "NCU": 6161,
      "Syn": 6162,
      "Third": 6163,
      "Up": 6164,
      "Very": 6165,
      "adi": 6166,
      "br": 6167,
      "bit": 6168,
      "chi": 6169,
      "coun": 6170,
      "clump": 6171,
      "dated": 6172,
      "drast": 6173,
      "eruptive": 6174,
      "easi": 6175,
      "five": 6176,
      "gard": 6177,
      "gather": 6178,
      "hy": 6179,
      "hi": 6180,
      "indist": 6181,
      "knob": 6182,
      "mer": 6183,
      "mit": 6184,
      "mere": 6185,
      "ovoid": 6186,
      "pan": 6187,
      "pig": 6188,
      "rand": 6189,
      "rap": 6190,
      "sa": 6191,
      "ser": 6192,
      "satellite": 6193,
      "tough": 6194,
      "til": 6195,
      "trian": 6196,
      "tucked": 6197,
      "vig": 6198,
      "war": 6199,
      "waves": 6200,
      "yield": 6201,
      "##aw": 6202,
      "##the": 6203,
      "##ture": 6204,
      "##oz": 6205,
      "##gound": 6206,
      "##gam": 6207,
      "##pent": 6208,
      "##pernic": 6209,
      "##pery": 6210,
      "##son": 6211,
      "##sity": 6212,
      "##secting": 6213,
      "##nest": 6214,
      "##cking": 6215,
      "##classified": 6216,
      "##cales": 6217,
      "##ege": 6218,
      "##fing": 6219,
      "##flow": 6220,
      "##day": 6221,
      "##uing": 6222,
      "##uri": 6223,
      "##urate": 6224,
      "##5FB": 6225,
      "##bal": 6226,
      "##vent": 6227,
      "##junction": 6228,
      "##atus": 6229,
      "##are": 6230,
      "##arse": 6231,
      "##edding": 6232,
      "##reage": 6233,
      "##one": 6234,
      "##algam": 6235,
      "##struct": 6236,
      "##stoo": 6237,
      "##stically": 6238,
      "##ening": 6239,
      "##oring": 6240,
      "suture": 6241,
      "##entrally": 6242,
      "diver": 6243,
      "surfaced": 6244,
      "##ases": 6245,
      "##ashed": 6246,
      "##urely": 6247,
      "##oscape": 6248,
      "realm": 6249,
      "deter": 6250,
      "devoid": 6251,
      "##faceted": 6252,
      "##ogressing": 6253,
      "##sibility": 6254,
      "stra": 6255,
      "Terras": 6256,
      "##owner": 6257,
      "today": 6258,
      "geoch": 6259,
      "geoscape": 6260,
      "##thonous": 6261,
      "##sets": 6262,
      "##inement": 6263,
      "conjunction": 6264,
      "incip": 6265,
      "insets": 6266,
      "##terbal": 6267,
      "maxim": 6268,
      "adjunct": 6269,
      "adjacencies": 6270,
      "##antities": 6271,
      "overlains": 6272,
      "overro": 6273,
      "acute": 6274,
      "acreage": 6275,
      "seism": 6276,
      "semic": 6277,
      "coming": 6278,
      "##ocrac": 6279,
      "##ify": 6280,
      "viole": 6281,
      "visibility": 6282,
      "relic": 6283,
      "prompt": 6284,
      "basinary": 6285,
      "markers": 6286,
      "complexified": 6287,
      "complexities": 6288,
      "interval": 6289,
      "interfing": 6290,
      "##tish": 6291,
      "##lique": 6292,
      "copernic": 6293,
      "coarse": 6294,
      "aby": 6295,
      "##ificance": 6296,
      "characteristically": 6297,
      "understoo": 6298,
      "contacted": 6299,
      "modeled": 6300,
      "situ": 6301,
      "crusty": 6302,
      "crusted": 6303,
      "froz": 6304,
      "score": 6305,
      "scales": 6306,
      "differentiate": 6307,
      "differentiates": 6308,
      "unf": 6309,
      "significance": 6310,
      "trai": 6311,
      "traject": 6312,
      "intrig": 6313,
      "intrins": 6314,
      "mineral": 6315,
      "oblit": 6316,
      "margining": 6317,
      "best": 6318,
      "incon": 6319,
      "##hical": 6320,
      "minority": 6321,
      "widest": 6322,
      "Clusters": 6323,
      "##ested": 6324,
      "positional": 6325,
      "project": 6326,
      "infillings": 6327,
      "##abit": 6328,
      "juxtapositionally": 6329,
      "Unclassified": 6330,
      "alloch": 6331,
      "variously": 6332,
      "flattish": 6333,
      "##efly": 6334,
      "foundations": 6335,
      "preserve": 6336,
      "quantities": 6337,
      "Straight": 6338,
      "amalgam": 6339,
      "creation": 6340,
      "creases": 6341,
      "activ": 6342,
      "foregound": 6343,
      "Alps": 6344,
      "punctual": 6345,
      "basic": 6346,
      "westward": 6347,
      "assum": 6348,
      "drawn": 6349,
      "drapery": 6350,
      "Analy": 6351,
      "outlier": 6352,
      "planated": 6353,
      "lesser": 6354,
      "##mediately": 6355,
      "thinnest": 6356,
      "junctional": 6357,
      "##archical": 6358,
      "ridden": 6359,
      "mosaics": 6360,
      "narrowly": 6361,
      "motif": 6362,
      "westernmost": 6363,
      "localization": 6364,
      "Textured": 6365,
      "superimposited": 6366,
      "##iles": 6367,
      "Patchy": 6368,
      "manifested": 6369,
      "accurate": 6370,
      "Progressing": 6371,
      "##ximal": 6372,
      "multifaceted": 6373,
      "##BAFC": 6374,
      "##digitating": 6375,
      "colli": 6376,
      "Local": 6377,
      "Immediately": 6378,
      "Higher": 6379,
      "crossings": 6380,
      "latest": 6381,
      "grey": 6382,
      "converging": 6383,
      "eroding": 6384,
      "Interposed": 6385,
      "Interrupting": 6386,
      "Interdigitating": 6387,
      "Beige": 6388,
      "Behind": 6389,
      "crisscrosses": 6390,
      "successively": 6391,
      "divider": 6392,
      "shifting": 6393,
      "formerly": 6394,
      "truncations": 6395,
      "Additional": 6396,
      "biggest": 6397,
      "assembled": 6398,
      "developmental": 6399,
      "envelope": 6400,
      "envelopes": 6401,
      "ways": 6402,
      "pert": 6403,
      "channeled": 6404,
      "recess": 6405,
      "dictating": 6406,
      "confluent": 6407,
      "cradle": 6408,
      "cracking": 6409,
      "totaling": 6410,
      "##criptions": 6411,
      "Separating": 6412,
      "generate": 6413,
      "archaic": 6414,
      "##erties": 6415,
      "architecturally": 6416,
      "timescales": 6417,
      "properties": 6418,
      "organize": 6419,
      "cratography": 6420,
      "cratocrac": 6421,
      "flux": 6422,
      "additionally": 6423,
      "compose": 6424,
      "cracked": 6425,
      "Trace": 6426,
      "Tracing": 6427,
      "introducing": 6428,
      "imposing": 6429,
      "imposition": 6430,
      "Traversed": 6431,
      "alternates": 6432,
      "alternate": 6433,
      "52BAFC": 6434,
      "channelized": 6435,
      "##ouring": 6436,
      "superposing": 6437,
      "accretions": 6438,
      "pass": 6439,
      "transversally": 6440,
      "465FB": 6441,
      "sculpt": 6442,
      "fully": 6443,
      "cry": 6444,
      "cratereous": 6445,
      "craterevent": 6446,
      "visualization": 6447,
      "resemble": 6448,
      "shallowest": 6449,
      "Interaction": 6450,
      "continue": 6451,
      "geomorphically": 6452,
      "accretional": 6453,
      "orientation": 6454,
      "Intrusionally": 6455,
      "anchored": 6456,
      "received": 6457,
      "Only": 6458,
      "Contrastingly": 6459,
      "added": 6460,
      "coeval": 6461,
      "tracks": 6462,
      "enclaved": 6463,
      "recognized": 6464,
      "Compositional": 6465,
      "receives": 6466,
      "Sentence": 6467,
      "punctuation": 6468,
      "embedding": 6469,
      "retain": 6470,
      "underpinned": 6471,
      "placements": 6472,
      "dented": 6473,
      "volumes": 6474,
      "imparting": 6475,
      "slicing": 6476,
      "Sinusoidally": 6477,
      "exceptional": 6478,
      "coastline": 6479,
      "Provided": 6480,
      "Proximal": 6481,
      "Notice": 6482,
      "Reddish": 6483,
      "bridges": 6484,
      "depocenters": 6485,
      "preceded": 6486,
      "breaking": 6487,
      "documented": 6488,
      "nodes": 6489,
      "suddenly": 6490,
      "coalesced": 6491,
      "coalescing": 6492,
      "impinge": 6493,
      "worlds": 6494,
      "Degradation": 6495,
      "requested": 6496,
      "infiltrating": 6497,
      "pervades": 6498,
      "rimae": 6499,
      "Geometrically": 6500,
      "vein": 6501,
      "veget": 6502,
      "flattening": 6503,
      "buttress": 6504,
      "buttressed": 6505,
      "perfectly": 6506,
      "Sectional": 6507,
      "ambiguous": 6508,
      "housing": 6509,
      "jumbled": 6510,
      "interbeds": 6511,
      "Eratosthenes": 6512,
      "mechanism": 6513,
      "reshaped": 6514,
      "paleosurface": 6515,
      "embayment": 6516,
      "sinuosities": 6517,
      "Observed": 6518,
      "Delicate": 6519,
      "IUMU": 6520,
      "Notably": 6521,
      "bordures": 6522,
      "crowning": 6523,
      "feel": 6524,
      "hierarchical": 6525,
      "nuanced": 6526,
      "petrographic": 6527,
      "rigid": 6528,
      "regardless": 6529,
      "scratches": 6530,
      "Streaking": 6531,
      "proceeds": 6532,
      "postdates": 6533,
      "peneplan": 6534,
      "conduits": 6535,
      "Province": 6536,
      "length": 6537,
      "Capping": 6538,
      "Lacking": 6539,
      "Synthe": 6540,
      "adiacent": 6541,
      "browner": 6542,
      "chiefly": 6543,
      "counterbal": 6544,
      "clumpy": 6545,
      "drastically": 6546,
      "easily": 6547,
      "gardening": 6548,
      "hyper": 6549,
      "hiatus": 6550,
      "indistinct": 6551,
      "knobbly": 6552,
      "mitig": 6553,
      "pigmented": 6554,
      "random": 6555,
      "rapid": 6556,
      "sampled": 6557,
      "serpent": 6558,
      "tilting": 6559,
      "triangular": 6560,
      "vigor": 6561,
      "##egend": 6562,
      "diversity": 6563,
      "realms": 6564,
      "determined": 6565,
      "geochron": 6566,
      "incipient": 6567,
      "maximum": 6568,
      "overrode": 6569,
      "seismic": 6570,
      "semicircular": 6571,
      "violet": 6572,
      "copernican": 6573,
      "understood": 6574,
      "frozen": 6575,
      "intriguing": 6576,
      "intrinsic": 6577,
      "obliter": 6578,
      "allochthonous": 6579,
      "activities": 6580,
      "cratocracy": 6581,
      "465FB8": 6582,
      "Synthesis": 6583,
      "counterbalanced": 6584,
      "serpentine": 6585,
      "2A": 6586,
      "Add": 6587,
      "BC": 6588,
      "Bas": 6589,
      "Bomb": 6590,
      "Bath": 6591,
      "Base": 6592,
      "CD": 6593,
      "Cry": 6594,
      "Down": 6595,
      "Ear": 6596,
      "F3": 6597,
      "Fore": 6598,
      "IP": 6599,
      "Imp": 6600,
      "Last": 6601,
      "Less": 6602,
      "Lightly": 6603,
      "Legend": 6604,
      "Mid": 6605,
      "Mot": 6606,
      "Ne": 6607,
      "Narr": 6608,
      "OM": 6609,
      "Out": 6610,
      "Ref": 6611,
      "Son": 6612,
      "Sedi": 6613,
      "TU": 6614,
      "Ton": 6615,
      "Trough": 6616,
      "Toward": 6617,
      "Vol": 6618,
      "Vis": 6619,
      "au": 6620,
      "aver": 6621,
      "aqu": 6622,
      "add": 6623,
      "cou": 6624,
      "crated": 6625,
      "cany": 6626,
      "came": 6627,
      "cour": 6628,
      "dus": 6629,
      "dropping": 6630,
      "dashed": 6631,
      "erupted": 6632,
      "erupt": 6633,
      "gl": 6634,
      "gig": 6635,
      "glow": 6636,
      "gath": 6637,
      "hugged": 6638,
      "hard": 6639,
      "iter": 6640,
      "lined": 6641,
      "lithic": 6642,
      "lumin": 6643,
      "name": 6644,
      "och": 6645,
      "odd": 6646,
      "oval": 6647,
      "pun": 6648,
      "pul": 6649,
      "pus": 6650,
      "plu": 6651,
      "purely": 6652,
      "piles": 6653,
      "rh": 6654,
      "ren": 6655,
      "row": 6656,
      "sli": 6657,
      "sad": 6658,
      "slow": 6659,
      "sense": 6660,
      "sinusoid": 6661,
      "syn": 6662,
      "sque": 6663,
      "tar": 6664,
      "tong": 6665,
      "tid": 6666,
      "tak": 6667,
      "tend": 6668,
      "uti": 6669,
      "vers": 6670,
      "ventrally": 6671,
      "work": 6672,
      "##rically": 6673,
      "##rostructure": 6674,
      "##aming": 6675,
      "##top": 6676,
      "##tual": 6677,
      "##tles": 6678,
      "##oon": 6679,
      "##opogra": 6680,
      "##ga": 6681,
      "##pled": 6682,
      "##pouring": 6683,
      "##han": 6684,
      "##habit": 6685,
      "##yth": 6686,
      "##mes": 6687,
      "##mapped": 6688,
      "##sular": 6689,
      "##ict": 6690,
      "##ire": 6691,
      "##iver": 6692,
      "##ised": 6693,
      "##ibly": 6694,
      "##cop": 6695,
      "##cified": 6696,
      "##cep": 6697,
      "##crop": 6698,
      "##ceful": 6699,
      "##cakes": 6700,
      "##ezed": 6701,
      "##ester": 6702,
      "##eir": 6703,
      "##eld": 6704,
      "##els": 6705,
      "##empl": 6706,
      "##lands": 6707,
      "##laced": 6708,
      "##field": 6709,
      "##dations": 6710,
      "##unit": 6711,
      "##ues": 6712,
      "##urable": 6713,
      "##5E": 6714,
      "##ks": 6715,
      "##ked": 6716,
      "##be": 6717,
      "##bit": 6718,
      "##vation": 6719,
      "##8BB": 6720,
      "##D4": 6721,
      "##HF": 6722,
      "##erver": 6723,
      "##ermost": 6724,
      "##ina": 6725,
      "##inc": 6726,
      "##inates": 6727,
      "##iness": 6728,
      "##inately": 6729,
      "##ater": 6730,
      "##arted": 6731,
      "##edance": 6732,
      "##ndicular": 6733,
      "##reet": 6734,
      "##ality": 6735,
      "##ratic": 6736,
      "##ratered": 6737,
      "##stor": 6738,
      "##stig": 6739,
      "##strable": 6740,
      "##orough": 6741,
      "susc": 6742,
      "suite": 6743,
      "##acing": 6744,
      "##acity": 6745,
      "##histor": 6746,
      "##esis": 6747,
      "##ective": 6748,
      "Nectaria": 6749,
      "##enta": 6750,
      "##lab": 6751,
      "dip": 6752,
      "dimin": 6753,
      "offer": 6754,
      "##ash": 6755,
      "##ics": 6756,
      "##urement": 6757,
      "##ospheric": 6758,
      "crateroid": 6759,
      "craterogenic": 6760,
      "cratervation": 6761,
      "##actly": 6762,
      "repos": 6763,
      "rework": 6764,
      "##ogical": 6765,
      "##ormost": 6766,
      "stop": 6767,
      "##vestig": 6768,
      "##olunar": 6769,
      "##olate": 6770,
      "##olded": 6771,
      "##olving": 6772,
      "##olves": 6773,
      "distally": 6774,
      "##ppable": 6775,
      "##ructuring": 6776,
      "##ologist": 6777,
      "exam": 6778,
      "exempl": 6779,
      "exactly": 6780,
      "##owded": 6781,
      "too": 6782,
      "terrae": 6783,
      "terrace": 6784,
      "##rier": 6785,
      "##eriormost": 6786,
      "##chron": 6787,
      "convol": 6788,
      "inact": 6789,
      "inward": 6790,
      "inhabit": 6791,
      "insular": 6792,
      "investig": 6793,
      "##urfaced": 6794,
      "borderland": 6795,
      "deformed": 6796,
      "##eteor": 6797,
      "maroon": 6798,
      "mappable": 6799,
      "adjust": 6800,
      "##roscop": 6801,
      "##ead": 6802,
      "content": 6803,
      "##antic": 6804,
      "##ocated": 6805,
      "##utive": 6806,
      "disposed": 6807,
      "formally": 6808,
      "formative": 6809,
      "occupation": 6810,
      "orbit": 6811,
      "thorough": 6812,
      "prone": 6813,
      "mob": 6814,
      "moves": 6815,
      "basinal": 6816,
      "##ulus": 6817,
      "##arison": 6818,
      "primord": 6819,
      "primitive": 6820,
      "##rane": 6821,
      "##allop": 6822,
      "texturi": 6823,
      "completen": 6824,
      "complementing": 6825,
      "interven": 6826,
      "interesting": 6827,
      "##tiqu": 6828,
      "##tibility": 6829,
      "speak": 6830,
      "coord": 6831,
      "patina": 6832,
      "Eratostrian": 6833,
      "abstract": 6834,
      "transecting": 6835,
      "subunit": 6836,
      "##usion": 6837,
      "angl": 6838,
      "antiqu": 6839,
      "abuttal": 6840,
      "undef": 6841,
      "vastness": 6842,
      "undercut": 6843,
      "mega": 6844,
      "modul": 6845,
      "modest": 6846,
      "diffic": 6847,
      "scan": 6848,
      "una": 6849,
      "unspe": 6850,
      "unifying": 6851,
      "univer": 6852,
      "Inci": 6853,
      "lowerermost": 6854,
      "representations": 6855,
      "intrinsically": 6856,
      "oblong": 6857,
      "oblique": 6858,
      "observer": 6859,
      "depositions": 6860,
      "depositionary": 6861,
      "observational": 6862,
      "margined": 6863,
      "Outermost": 6864,
      "minorly": 6865,
      "inflow": 6866,
      "infil": 6867,
      "whereas": 6868,
      "resolves": 6869,
      "Mapping": 6870,
      "atten": 6871,
      "##luding": 6872,
      "irregularity": 6873,
      "lived": 6874,
      "infillations": 6875,
      "restructuring": 6876,
      "##otopogra": 6877,
      "##orts": 6878,
      "##ortant": 6879,
      "genesis": 6880,
      "arching": 6881,
      "viewed": 6882,
      "container": 6883,
      "##eptibility": 6884,
      "##imetric": 6885,
      "evolving": 6886,
      "Unmapped": 6887,
      "prehistor": 6888,
      "##ished": 6889,
      "allocated": 6890,
      "##sequential": 6891,
      "brightened": 6892,
      "##orphologically": 6893,
      "rightward": 6894,
      "flatlands": 6895,
      "erosionally": 6896,
      "centering": 6897,
      "superjacent": 6898,
      "superficially": 6899,
      "sequenced": 6900,
      "sequester": 6901,
      "presses": 6902,
      "pressing": 6903,
      "quality": 6904,
      "actively": 6905,
      "##essions": 6906,
      "flowplain": 6907,
      "curvilinearly": 6908,
      "##arding": 6909,
      "##ssal": 6910,
      "comprom": 6911,
      "comparison": 6912,
      "stripping": 6913,
      "nestle": 6914,
      "specified": 6915,
      "specks": 6916,
      "interactional": 6917,
      "ephem": 6918,
      "epeir": 6919,
      "settles": 6920,
      "##rectly": 6921,
      "outflow": 6922,
      "outpouring": 6923,
      "force": 6924,
      "shading": 6925,
      "caprock": 6926,
      "depressionary": 6927,
      "planimetric": 6928,
      "need": 6929,
      "newest": 6930,
      "homogen": 6931,
      "capture": 6932,
      "modifier": 6933,
      "stream": 6934,
      "think": 6935,
      "beds": 6936,
      "characterization": 6937,
      "##bors": 6938,
      "##ighboring": 6939,
      "intersectional": 6940,
      "Geologist": 6941,
      "rockier": 6942,
      "lime": 6943,
      "gradation": 6944,
      "gradations": 6945,
      "tectonism": 6946,
      "baseline": 6947,
      "demonstrable": 6948,
      "epochal": 6949,
      "Overhead": 6950,
      "paleolunar": 6951,
      "paleotopogra": 6952,
      "discerned": 6953,
      "originates": 6954,
      "originate": 6955,
      "saturates": 6956,
      "washes": 6957,
      "uncratered": 6958,
      "##pendicular": 6959,
      "opening": 6960,
      "##canic": 6961,
      "ringing": 6962,
      "interdigitations": 6963,
      "result": 6964,
      "contextual": 6965,
      "environmental": 6966,
      "successions": 6967,
      "descent": 6968,
      "desolate": 6969,
      "rounder": 6970,
      "topology": 6971,
      "angularly": 6972,
      "landed": 6973,
      "roles": 6974,
      "Interc": 6975,
      "subordinately": 6976,
      "incision": 6977,
      "resisted": 6978,
      "patchworks": 6979,
      "bumpier": 6980,
      "approaching": 6981,
      "shield": 6982,
      "impedance": 6983,
      "important": 6984,
      "incorporation": 6985,
      "bigger": 6986,
      "unidentif": 6987,
      "unmod": 6988,
      "richly": 6989,
      "negligibly": 6990,
      "##gonal": 6991,
      "perpendicular": 6992,
      "affinity": 6993,
      "recur": 6994,
      "recession": 6995,
      "carves": 6996,
      "superimpositions": 6997,
      "Variable": 6998,
      "Dissecting": 6999,
      "interpret": 7000,
      "combining": 7001,
      "meanwhile": 7002,
      "Plaine": 7003,
      "Descriptions": 7004,
      "interconn": 7005,
      "terminator": 7006,
      "radiates": 7007,
      "sedimented": 7008,
      "Separate": 7009,
      "Complementary": 7010,
      "rifts": 7011,
      "weave": 7012,
      "Surfaces": 7013,
      "bisect": 7014,
      "encapsulation": 7015,
      "contributed": 7016,
      "wind": 7017,
      "naturally": 7018,
      "Gray": 7019,
      "Gradient": 7020,
      "Concep": 7021,
      "concluding": 7022,
      "cratospheric": 7023,
      "progress": 7024,
      "identify": 7025,
      "##424D": 7026,
      "rilling": 7027,
      "Feature": 7028,
      "fluidic": 7029,
      "articulating": 7030,
      "dissection": 7031,
      "compartments": 7032,
      "lineamentations": 7033,
      "Directly": 7034,
      "seams": 7035,
      "accreting": 7036,
      "accretes": 7037,
      "simply": 7038,
      "cratonization": 7039,
      "uniquely": 7040,
      "annulus": 7041,
      "constraint": 7042,
      "unconformable": 7043,
      "Transitions": 7044,
      "##sign": 7045,
      "connectivity": 7046,
      "crestal": 7047,
      "crowded": 7048,
      "blending": 7049,
      "craterezed": 7050,
      "persists": 7051,
      "persistence": 7052,
      "scatterings": 7053,
      "classifies": 7054,
      "effusion": 7055,
      "efforts": 7056,
      "##orphically": 7057,
      "instead": 7058,
      "Intruded": 7059,
      "achieved": 7060,
      "continuing": 7061,
      "continuation": 7062,
      "Rougher": 7063,
      "Roughly": 7064,
      "macrostructure": 7065,
      "macroscop": 7066,
      "rippling": 7067,
      "PNU": 7068,
      "Intrusionary": 7069,
      "joining": 7070,
      "anchoring": 7071,
      "confirm": 7072,
      "paleogeography": 7073,
      "critically": 7074,
      "receive": 7075,
      "considered": 7076,
      "attribut": 7077,
      "adacency": 7078,
      "collapsed": 7079,
      "tracework": 7080,
      "plaineous": 7081,
      "Successively": 7082,
      "magenta": 7083,
      "clar": 7084,
      "clut": 7085,
      "denoting": 7086,
      "denotes": 7087,
      "protru": 7088,
      "intermare": 7089,
      "stabilizing": 7090,
      "uncharted": 7091,
      "restrictively": 7092,
      "drops": 7093,
      "##rometeor": 7094,
      "compartmentalization": 7095,
      "ribbed": 7096,
      "measurable": 7097,
      "measurement": 7098,
      "Regions": 7099,
      "Regarding": 7100,
      "burying": 7101,
      "Intermingling": 7102,
      "pooled": 7103,
      "ribbons": 7104,
      "engulfs": 7105,
      "engulfing": 7106,
      "bridging": 7107,
      "steps": 7108,
      "exteriorly": 7109,
      "constituents": 7110,
      "Strata": 7111,
      "Stratified": 7112,
      "polygonal": 7113,
      "micrometeor": 7114,
      "reinforces": 7115,
      "reinforcing": 7116,
      "masks": 7117,
      "embraced": 7118,
      "snakes": 7119,
      "reticulate": 7120,
      "submerges": 7121,
      "segregates": 7122,
      "meteorite": 7123,
      "opposing": 7124,
      "##umbent": 7125,
      "requir": 7126,
      "require": 7127,
      "Terrains": 7128,
      "ordered": 7129,
      "unresurfaced": 7130,
      "infiltrate": 7131,
      "Superimposition": 7132,
      "precludes": 7133,
      "pervaded": 7134,
      "pervading": 7135,
      "Geomorphologically": 7136,
      "Geomorphically": 7137,
      "Remaining": 7138,
      "bathymetric": 7139,
      "Undefined": 7140,
      "patchier": 7141,
      "flattens": 7142,
      "magnitude": 7143,
      "Inferiorly": 7144,
      "beautifully": 7145,
      "ambient": 7146,
      "houses": 7147,
      "jumble": 7148,
      "deviations": 7149,
      "register": 7150,
      "interbedding": 7151,
      "Eratosthenia": 7152,
      "mechanics": 7153,
      "Copérnican": 7154,
      "reshaping": 7155,
      "Juxtapositions": 7156,
      "equatorially": 7157,
      "embayed": 7158,
      "Observable": 7159,
      "barely": 7160,
      "barrier": 7161,
      "harbors": 7162,
      "lacun": 7163,
      "disturbing": 7164,
      "transgression": 7165,
      "enhance": 7166,
      "construction": 7167,
      "traversals": 7168,
      "preferential": 7169,
      "preferentially": 7170,
      "allows": 7171,
      "cratometrically": 7172,
      "cratometric": 7173,
      "caused": 7174,
      "causing": 7175,
      "circumscribing": 7176,
      "circumscribes": 7177,
      "brecciation": 7178,
      "Grooved": 7179,
      "Grooves": 7180,
      "Northern": 7181,
      "Depressions": 7182,
      "Upon": 7183,
      "merging": 7184,
      "merely": 7185,
      "pancakes": 7186,
      "tougher": 7187,
      "yields": 7188,
      "strain": 7189,
      "abyssal": 7190,
      "trails": 7191,
      "trajectories": 7192,
      "mineralogical": 7193,
      "inconsequential": 7194,
      "amalgamation": 7195,
      "assumes": 7196,
      "Analyzing": 7197,
      "accurately": 7198,
      "collided": 7199,
      "perturb": 7200,
      "sculptured": 7201,
      "veins": 7202,
      "vegetated": 7203,
      "mechanisms": 7204,
      "mitigated": 7205,
      "randomly": 7206,
      "vigorous": 7207,
      "geochronological": 7208,
      "obliterate": 7209,
      "2A5E": 7210,
      "Addressing": 7211,
      "BC424D": 7212,
      "Basally": 7213,
      "Bombardment": 7214,
      "Basement": 7215,
      "Cryater": 7216,
      "F38BB": 7217,
      "Foreground": 7218,
      "IPU": 7219,
      "Lastly": 7220,
      "Mottled": 7221,
      "Neighboring": 7222,
      "Narrow": 7223,
      "OMFU": 7224,
      "Outcrop": 7225,
      "Refinement": 7226,
      "Sedimentary": 7227,
      "Tonal": 7228,
      "Volcanic": 7229,
      "Visual": 7230,
      "average": 7231,
      "aqua": 7232,
      "coupled": 7233,
      "canyon": 7234,
      "dusky": 7235,
      "eruption": 7236,
      "glob": 7237,
      "gigantic": 7238,
      "glowing": 7239,
      "gathered": 7240,
      "iterations": 7241,
      "luminosity": 7242,
      "ochre": 7243,
      "oddly": 7244,
      "punched": 7245,
      "pushed": 7246,
      "pluvial": 7247,
      "rhyth": 7248,
      "renew": 7249,
      "saddle": 7250,
      "slowly": 7251,
      "sinusoidal": 7252,
      "synchron": 7253,
      "squeezed": 7254,
      "target": 7255,
      "taken": 7256,
      "versus": 7257,
      "susceptibility": 7258,
      "diminutive": 7259,
      "repose": 7260,
      "reworked": 7261,
      "stops": 7262,
      "exemplified": 7263,
      "convoluted": 7264,
      "investigation": 7265,
      "orbital": 7266,
      "thoroughly": 7267,
      "primordial": 7268,
      "##alloped": 7269,
      "texturized": 7270,
      "completeness": 7271,
      "intervenes": 7272,
      "coordinates": 7273,
      "subunits": 7274,
      "angles": 7275,
      "antiquity": 7276,
      "undeformed": 7277,
      "undercuts": 7278,
      "difficult": 7279,
      "unspecified": 7280,
      "universally": 7281,
      "Incised": 7282,
      "infilla": 7283,
      "attenuated": 7284,
      "prehistoric": 7285,
      "sequestered": 7286,
      "compromised": 7287,
      "ephemeral": 7288,
      "epeirogenic": 7289,
      "modifiers": 7290,
      "paleotopographic": 7291,
      "unidentifiable": 7292,
      "interconnect": 7293,
      "Conceptual": 7294,
      "2A5ED4": 7295,
      "F38BB8": 7296,
      "synchronous": 7297,
      "1A": 7298,
      "7A": 7299,
      "Ac": 7300,
      "Ad": 7301,
      "Act": 7302,
      "Arc": 7303,
      "ABB": 7304,
      "BF": 7305,
      "BS": 7306,
      "Ban": 7307,
      "Bol": 7308,
      "Bands": 7309,
      "Bits": 7310,
      "Bod": 7311,
      "Cy": 7312,
      "CF": 7313,
      "CU": 7314,
      "Che": 7315,
      "Crat": 7316,
      "CFF": 7317,
      "Chan": 7318,
      "Dif": 7319,
      "Dynam": 7320,
      "Ed": 7321,
      "FD": 7322,
      "Fin": 7323,
      "For": 7324,
      "Form": 7325,
      "Foc": 7326,
      "Frequent": 7327,
      "Id": 7328,
      "IN": 7329,
      "IA": 7330,
      "IO": 7331,
      "Imb": 7332,
      "Imbedded": 7333,
      "ITU": 7334,
      "Jagged": 7335,
      "LM": 7336,
      "Lith": 7337,
      "Lying": 7338,
      "Mant": 7339,
      "NB": 7340,
      "NJ": 7341,
      "Nari": 7342,
      "Northeast": 7343,
      "Oli": 7344,
      "OHF": 7345,
      "Pe": 7346,
      "Per": 7347,
      "Plac": 7348,
      "Round": 7349,
      "Rol": 7350,
      "Rea": 7351,
      "Rest": 7352,
      "Rim": 7353,
      "Raised": 7354,
      "Raw": 7355,
      "Sl": 7356,
      "SA": 7357,
      "Set": 7358,
      "Solid": 7359,
      "SCF": 7360,
      "Satellite": 7361,
      "T1": 7362,
      "T2": 7363,
      "Tecton": 7364,
      "Tiny": 7365,
      "Tucked": 7366,
      "UM": 7367,
      "Upp": 7368,
      "UCU": 7369,
      "Ult": 7370,
      "Ventrally": 7371,
      "Win": 7372,
      "Where": 7373,
      "Work": 7374,
      "Well": 7375,
      "Wave": 7376,
      "Waves": 7377,
      "You": 7378,
      "Youn": 7379,
      "ae": 7380,
      "aster": 7381,
      "apen": 7382,
      "arid": 7383,
      "bat": 7384,
      "bor": 7385,
      "bits": 7386,
      "bay": 7387,
      "bank": 7388,
      "bedded": 7389,
      "bolid": 7390,
      "cess": 7391,
      "dou": 7392,
      "dual": 7393,
      "dried": 7394,
      "er": 7395,
      "ey": 7396,
      "eas": 7397,
      "ecc": 7398,
      "ess": 7399,
      "elab": 7400,
      "fing": 7401,
      "fur": 7402,
      "flying": 7403,
      "fad": 7404,
      "free": 7405,
      "fir": 7406,
      "fide": 7407,
      "faces": 7408,
      "gli": 7409,
      "hum": 7410,
      "had": 7411,
      "hid": 7412,
      "habit": 7413,
      "ir": 7414,
      "jig": 7415,
      "jut": 7416,
      "juxt": 7417,
      "janssen": 7418,
      "jutting": 7419,
      "junctions": 7420,
      "keep": 7421,
      "lo": 7422,
      "lu": 7423,
      "lon": 7424,
      "lif": 7425,
      "last": 7426,
      "lain": 7427,
      "laced": 7428,
      "legend": 7429,
      "mé": 7430,
      "ment": 7431,
      "mig": 7432,
      "mir": 7433,
      "molded": 7434,
      "nine": 7435,
      "native": 7436,
      "nad": 7437,
      "op": 7438,
      "pol": 7439,
      "play": 7440,
      "pond": 7441,
      "pain": 7442,
      "plow": 7443,
      "poured": 7444,
      "pier": 7445,
      "ru": 7446,
      "rou": 7447,
      "ros": 7448,
      "rate": 7449,
      "rook": 7450,
      "raw": 7451,
      "son": 7452,
      "sound": 7453,
      "sle": 7454,
      "sol": 7455,
      "ting": 7456,
      "tor": 7457,
      "tall": 7458,
      "tight": 7459,
      "tab": 7460,
      "tess": 7461,
      "us": 7462,
      "undivid": 7463,
      "user": 7464,
      "we": 7465,
      "wou": 7466,
      "wig": 7467,
      "when": 7468,
      "wore": 7469,
      "wav": 7470,
      "wise": 7471,
      "written": 7472,
      "you": 7473,
      "##rine": 7474,
      "##ront": 7475,
      "##rors": 7476,
      "##ag": 7477,
      "##ae": 7478,
      "##au": 7479,
      "##aj": 7480,
      "##amp": 7481,
      "##adj": 7482,
      "##aved": 7483,
      "##azing": 7484,
      "##tw": 7485,
      "##tif": 7486,
      "##tally": 7487,
      "##thel": 7488,
      "##tographic": 7489,
      "##thest": 7490,
      "##tached": 7491,
      "##ofac": 7492,
      "##over": 7493,
      "##oter": 7494,
      "##oating": 7495,
      "##orate": 7496,
      "##oved": 7497,
      "##oak": 7498,
      "##orated": 7499,
      "##oise": 7500,
      "##gent": 7501,
      "##gru": 7502,
      "##gating": 7503,
      "##ghen": 7504,
      "##gative": 7505,
      "##gions": 7506,
      "##gically": 7507,
      "##grated": 7508,
      "##gose": 7509,
      "##gging": 7510,
      "##genced": 7511,
      "##gier": 7512,
      "##ply": 7513,
      "##pine": 7514,
      "##pati": 7515,
      "##poin": 7516,
      "##paces": 7517,
      "##pects": 7518,
      "##ptic": 7519,
      "##pia": 7520,
      "##hum": 7521,
      "##hoo": 7522,
      "##yant": 7523,
      "##me": 7524,
      "##mar": 7525,
      "##mly": 7526,
      "##mock": 7527,
      "##mically": 7528,
      "##morphous": 7529,
      "##mare": 7530,
      "##sses": 7531,
      "##suring": 7532,
      "##sects": 7533,
      "##sors": 7534,
      "##scape": 7535,
      "##saw": 7536,
      "##ix": 7537,
      "##iling": 7538,
      "##icts": 7539,
      "##nical": 7540,
      "##nine": 7541,
      "##not": 7542,
      "##cest": 7543,
      "##corpo": 7544,
      "##cutting": 7545,
      "##curely": 7546,
      "##ech": 7547,
      "##eling": 7548,
      "##eors": 7549,
      "##lical": 7550,
      "##lant": 7551,
      "##loc": 7552,
      "##lif": 7553,
      "##lits": 7554,
      "##lized": 7555,
      "##lity": 7556,
      "##light": 7557,
      "##lace": 7558,
      "##lange": 7559,
      "##wash": 7560,
      "##fra": 7561,
      "##fied": 7562,
      "##file": 7563,
      "##front": 7564,
      "##dal": 7565,
      "##dun": 7566,
      "##uates": 7567,
      "##ugh": 7568,
      "##uced": 7569,
      "##uild": 7570,
      "##kly": 7571,
      "##kew": 7572,
      "##bur": 7573,
      "##brant": 7574,
      "##build": 7575,
      "##vally": 7576,
      "##vari": 7577,
      "##vity": 7578,
      "##zation": 7579,
      "##xation": 7580,
      "##xili": 7581,
      "##029": 7582,
      "##46": 7583,
      "##A9": 7584,
      "##9E": 7585,
      "##erly": 7586,
      "##eralized": 7587,
      "##int": 7588,
      "##inal": 7589,
      "##inations": 7590,
      "##inis": 7591,
      "##inces": 7592,
      "##atic": 7593,
      "##aterally": 7594,
      "##atric": 7595,
      "##ators": 7596,
      "##itary": 7597,
      "##itched": 7598,
      "##itudes": 7599,
      "##arm": 7600,
      "##arce": 7601,
      "##archy": 7602,
      "##ction": 7603,
      "##ctile": 7604,
      "##ctuating": 7605,
      "##nded": 7606,
      "##reat": 7607,
      "##reased": 7608,
      "##onic": 7609,
      "##onsible": 7610,
      "##oncing": 7611,
      "##aled": 7612,
      "##alog": 7613,
      "##alated": 7614,
      "##alky": 7615,
      "##raterary": 7616,
      "##sts": 7617,
      "##sted": 7618,
      "##enic": 7619,
      "##enery": 7620,
      "##enninus": 7621,
      "##enam": 7622,
      "##ording": 7623,
      "##oram": 7624,
      "##orned": 7625,
      "##orously": 7626,
      "##raded": 7627,
      "##raped": 7628,
      "##ragmented": 7629,
      "##rason": 7630,
      "##rames": 7631,
      "suspe": 7632,
      "suffer": 7633,
      "##hified": 7634,
      "##ioned": 7635,
      "##ionally": 7636,
      "##essing": 7637,
      "##ectral": 7638,
      "##enting": 7639,
      "##entially": 7640,
      "##entities": 7641,
      "##entrically": 7642,
      "##lages": 7643,
      "##laxation": 7644,
      "##mbiguous": 7645,
      "##mbers": 7646,
      "Imbria": 7647,
      "##omple": 7648,
      "##omorphology": 7649,
      "##ounds": 7650,
      "isn": 7651,
      "did": 7652,
      "dipping": 7653,
      "diach": 7654,
      "surfacing": 7655,
      "unital": 7656,
      "unitary": 7657,
      "##asm": 7658,
      "##aset": 7659,
      "##icately": 7660,
      "##ickly": 7661,
      "##leaved": 7662,
      "##lained": 7663,
      "cratery": 7664,
      "craterion": 7665,
      "craterary": 7666,
      "crateritic": 7667,
      "cratertop": 7668,
      "##acts": 7669,
      "##facial": 7670,
      "rebuild": 7671,
      "relaxation": 7672,
      "##gevity": 7673,
      "deple": 7674,
      "destruct": 7675,
      "##ders": 7676,
      "##orming": 7677,
      "##mpses": 7678,
      "##mpier": 7679,
      "##sile": 7680,
      "##ationally": 7681,
      "strate": 7682,
      "stron": 7683,
      "stressed": 7684,
      "stained": 7685,
      "stuck": 7686,
      "stone": 7687,
      "stitched": 7688,
      "##veloc": 7689,
      "##ols": 7690,
      "##oler": 7691,
      "##olored": 7692,
      "##ominence": 7693,
      "##verts": 7694,
      "##verthel": 7695,
      "distinctions": 7696,
      "distinctiven": 7697,
      "##visions": 7698,
      "examp": 7699,
      "exhum": 7700,
      "##owled": 7701,
      "totally": 7702,
      "terraces": 7703,
      "terraform": 7704,
      "terraplains": 7705,
      "geot": 7706,
      "gets": 7707,
      "##rilat": 7708,
      "##ricted": 7709,
      "##erimi": 7710,
      "impacto": 7711,
      "impactary": 7712,
      "impactation": 7713,
      "impactographic": 7714,
      "impactational": 7715,
      "impactomorphology": 7716,
      "terrainal": 7717,
      "##ineating": 7718,
      "##chment": 7719,
      "conce": 7720,
      "congru": 7721,
      "infer": 7722,
      "inher": 7723,
      "inser": 7724,
      "insign": 7725,
      "inverts": 7726,
      "##urfaces": 7727,
      "##urrent": 7728,
      "##urned": 7729,
      "##urfacing": 7730,
      "smashed": 7731,
      "##ters": 7732,
      "##igo": 7733,
      "##igenic": 7734,
      "##etent": 7735,
      "##ette": 7736,
      "##etically": 7737,
      "##etectable": 7738,
      "mauro": 7739,
      "featuri": 7740,
      "regulated": 7741,
      "short": 7742,
      "##posures": 7743,
      "boundarying": 7744,
      "##eau": 7745,
      "##itionally": 7746,
      "contigu": 7747,
      "##antly": 7748,
      "overpar": 7749,
      "overposition": 7750,
      "overflow": 7751,
      "overhan": 7752,
      "overbur": 7753,
      "sepia": 7754,
      "securely": 7755,
      "matches": 7756,
      "Uppermare": 7757,
      "##xtures": 7758,
      "plained": 7759,
      "plaining": 7760,
      "plainage": 7761,
      "plainest": 7762,
      "plainness": 7763,
      "plainward": 7764,
      "plaineau": 7765,
      "##ocratic": 7766,
      "##ifs": 7767,
      "##uting": 7768,
      "##utment": 7769,
      "##utnic": 7770,
      "##sively": 7771,
      "disper": 7772,
      "Marea": 7773,
      "Marked": 7774,
      "vibrant": 7775,
      "format": 7776,
      "Formational": 7777,
      "olive": 7778,
      "relict": 7779,
      "orographic": 7780,
      "lineage": 7781,
      "lineate": 7782,
      "linework": 7783,
      "thing": 7784,
      "prominence": 7785,
      "##apost": 7786,
      "##apenninus": 7787,
      "basinally": 7788,
      "marker": 7789,
      "materializes": 7790,
      "##ung": 7791,
      "##ulation": 7792,
      "complement": 7793,
      "##ostional": 7794,
      "complexed": 7795,
      "complexing": 7796,
      "complexify": 7797,
      "##llent": 7798,
      "interti": 7799,
      "interlying": 7800,
      "interest": 7801,
      "interdig": 7802,
      "interadj": 7803,
      "intertw": 7804,
      "interdun": 7805,
      "interleaved": 7806,
      "interfacial": 7807,
      "Segment": 7808,
      "Segmented": 7809,
      "linearament": 7810,
      "linearities": 7811,
      "##lieve": 7812,
      "##limented": 7813,
      "##lizing": 7814,
      "##listed": 7815,
      "##ogram": 7816,
      "##ograms": 7817,
      "spott": 7818,
      "spills": 7819,
      "spacing": 7820,
      "splits": 7821,
      "spectral": 7822,
      "cores": 7823,
      "coating": 7824,
      "coinc": 7825,
      "cooler": 7826,
      "patination": 7827,
      "sharpest": 7828,
      "sharpness": 7829,
      "about": 7830,
      "abraded": 7831,
      "transfer": 7832,
      "transcend": 7833,
      "transsecting": 7834,
      "transsects": 7835,
      "subpar": 7836,
      "transitionalized": 7837,
      "expected": 7838,
      "expressed": 7839,
      "expansion": 7840,
      "##astrop": 7841,
      "ancest": 7842,
      "centralizing": 7843,
      "abuting": 7844,
      "abuttim": 7845,
      "chalky": 7846,
      "chasm": 7847,
      "churned": 7848,
      "Lowermost": 7849,
      "cleared": 7850,
      "clearing": 7851,
      "clearest": 7852,
      "mareic": 7853,
      "undulated": 7854,
      "undocument": 7855,
      "undetectable": 7856,
      "induced": 7857,
      "indigo": 7858,
      "indicators": 7859,
      "underlain": 7860,
      "underground": 7861,
      "members": 7862,
      "floating": 7863,
      "fluting": 7864,
      "flung": 7865,
      "assign": 7866,
      "aspects": 7867,
      "##ference": 7868,
      "##ferences": 7869,
      "uplisted": 7870,
      "featureation": 7871,
      "modes": 7872,
      "model": 7873,
      "modulating": 7874,
      "situating": 7875,
      "##erning": 7876,
      "##ade": 7877,
      "##ading": 7878,
      "supral": 7879,
      "superiormost": 7880,
      "superimi": 7881,
      "crucial": 7882,
      "crusting": 7883,
      "crustally": 7884,
      "crustier": 7885,
      "delicately": 7886,
      "ensc": 7887,
      "ensemb": 7888,
      "enmes": 7889,
      "ensuring": 7890,
      "enters": 7891,
      "scis": 7892,
      "scarc": 7893,
      "scored": 7894,
      "scoring": 7895,
      "scouring": 7896,
      "scalloped": 7897,
      "scenery": 7898,
      "scraped": 7899,
      "differentiations": 7900,
      "##attering": 7901,
      "##ides": 7902,
      "unable": 7903,
      "unstrat": 7904,
      "unrel": 7905,
      "unlit": 7906,
      "unstruct": 7907,
      "unlab": 7908,
      "unvari": 7909,
      "##istribut": 7910,
      "matrixal": 7911,
      "Inte": 7912,
      "Inne": 7913,
      "Incorpo": 7914,
      "variedly": 7915,
      "##opts": 7916,
      "##opatric": 7917,
      "ruggedized": 7918,
      "replaced": 7919,
      "replace": 7920,
      "zoned": 7921,
      "intrac": 7922,
      "aging": 7923,
      "agent": 7924,
      "depositionational": 7925,
      "observing": 7926,
      "observations": 7927,
      "##qual": 7928,
      "##quoise": 7929,
      "exhibited": 7930,
      "peripheralized": 7931,
      "margines": 7932,
      "margination": 7933,
      "marginated": 7934,
      "marginates": 7935,
      "marginize": 7936,
      "##iest": 7937,
      "historic": 7938,
      "because": 7939,
      "believe": 7940,
      "increas": 7941,
      "incumbent": 7942,
      "increased": 7943,
      "incomple": 7944,
      "mainland": 7945,
      "inferiormost": 7946,
      "Mauve": 7947,
      "widths": 7948,
      "included": 7949,
      "delineative": 7950,
      "likew": 7951,
      "overwash": 7952,
      "infillated": 7953,
      "infillment": 7954,
      "infillled": 7955,
      "showings": 7956,
      "curvi": 7957,
      "rested": 7958,
      "parent": 7959,
      "parce": 7960,
      "##otically": 7961,
      "##otonous": 7962,
      "elevating": 7963,
      "elevate": 7964,
      "##ortment": 7965,
      "##ternally": 7966,
      "resurgenced": 7967,
      "peripheraly": 7968,
      "genetically": 7969,
      "managed": 7970,
      "discreet": 7971,
      "interspaces": 7972,
      "arced": 7973,
      "artif": 7974,
      "##laterally": 7975,
      "views": 7976,
      "viewable": 7977,
      "##sede": 7978,
      "patching": 7979,
      "patchiness": 7980,
      "##epts": 7981,
      "seeing": 7982,
      "evolved": 7983,
      "sizeable": 7984,
      "Unmarked": 7985,
      "eventing": 7986,
      "depostional": 7987,
      "allopatric": 7988,
      "flooring": 7989,
      "##odeling": 7990,
      "latitudes": 7991,
      "confounds": 7992,
      "presently": 7993,
      "presentation": 7994,
      "morphologic": 7995,
      "flats": 7996,
      "flatness": 7997,
      "albe": 7998,
      "grounds": 7999,
      "groundmas": 8000,
      "coverings": 8001,
      "predate": 8002,
      "predict": 8003,
      "##efine": 8004,
      "##eframes": 8005,
      "predominates": 8006,
      "cutout": 8007,
      "unknowns": 8008,
      "encau": 8009,
      "##irly": 8010,
      "##irling": 8011,
      "##irline": 8012,
      "stratal": 8013,
      "stratify": 8014,
      "superstruct": 8015,
      "superinc": 8016,
      "supersede": 8017,
      "pronouncedly": 8018,
      "looked": 8019,
      "press": 8020,
      "quickly": 8021,
      "Stratigra": 8022,
      "amazing": 8023,
      "cream": 8024,
      "crease": 8025,
      "##oregions": 8026,
      "blackness": 8027,
      "##centages": 8028,
      "plateaued": 8029,
      "foreland": 8030,
      "forefield": 8031,
      "forefront": 8032,
      "##tlefield": 8033,
      "quadrilat": 8034,
      "flowover": 8035,
      "Albed": 8036,
      "Alpine": 8037,
      "puncturing": 8038,
      "troughy": 8039,
      "troughuate": 8040,
      "##ivate": 8041,
      "foundationally": 8042,
      "evidences": 8043,
      "furthermore": 8044,
      "compound": 8045,
      "competent": 8046,
      "complimented": 8047,
      "striate": 8048,
      "strikes": 8049,
      "lightness": 8050,
      "fail": 8051,
      "fairly": 8052,
      "nests": 8053,
      "faulted": 8054,
      "maturely": 8055,
      "assortment": 8056,
      "associating": 8057,
      "circle": 8058,
      "circulating": 8059,
      "note": 8060,
      "processing": 8061,
      "Montane": 8062,
      "draper": 8063,
      "easterly": 8064,
      "Angular": 8065,
      "northernly": 8066,
      "sets": 8067,
      "segmentations": 8068,
      "direction": 8069,
      "directions": 8070,
      "outwash": 8071,
      "crosscutting": 8072,
      "forceful": 8073,
      "shaded": 8074,
      "tonally": 8075,
      "moderates": 8076,
      "##ceived": 8077,
      "plate": 8078,
      "pliant": 8079,
      "plenam": 8080,
      "stratigraphi": 8081,
      "stratigraphies": 8082,
      "mixtures": 8083,
      "geographies": 8084,
      "existent": 8085,
      "capacity": 8086,
      "domes": 8087,
      "densest": 8088,
      "Darkened": 8089,
      "substantive": 8090,
      "removed": 8091,
      "reminis": 8092,
      "remodeling": 8093,
      "superpositionally": 8094,
      "distribute": 8095,
      "identities": 8096,
      "planed": 8097,
      "planing": 8098,
      "planic": 8099,
      "planate": 8100,
      "planatic": 8101,
      "arched": 8102,
      "##achment": 8103,
      "Scan": 8104,
      "Scalloped": 8105,
      "Scarce": 8106,
      "Scattering": 8107,
      "neo": 8108,
      "negative": 8109,
      "neverthel": 8110,
      "minimizes": 8111,
      "streaming": 8112,
      "sectionalized": 8113,
      "lithographic": 8114,
      "lithoge": 8115,
      "lithography": 8116,
      "lithofac": 8117,
      "turquoise": 8118,
      "blockier": 8119,
      "episodically": 8120,
      "internalized": 8121,
      "noticed": 8122,
      "marginalization": 8123,
      "marginalizing": 8124,
      "marginalizes": 8125,
      "##ferential": 8126,
      "neighbored": 8127,
      "neighborhoo": 8128,
      "mosaicked": 8129,
      "planarly": 8130,
      "systemic": 8131,
      "cornered": 8132,
      "graining": 8133,
      "grazing": 8134,
      "graceful": 8135,
      "southwestward": 8136,
      "tectonized": 8137,
      "finest": 8138,
      "albedoyant": 8139,
      "concentrates": 8140,
      "concentrically": 8141,
      "massy": 8142,
      "epochally": 8143,
      "Overprin": 8144,
      "interplays": 8145,
      "##ronic": 8146,
      "uplanded": 8147,
      "Patch": 8148,
      "Patched": 8149,
      "paleoter": 8150,
      "paleoregions": 8151,
      "discernable": 8152,
      "origra": 8153,
      "originated": 8154,
      "originally": 8155,
      "southeastward": 8156,
      "excludes": 8157,
      "phasing": 8158,
      "saturate": 8159,
      "manifestation": 8160,
      "according": 8161,
      "Thus": 8162,
      "Adjacency": 8163,
      "Prompt": 8164,
      "surveying": 8165,
      "elevationally": 8166,
      "timeframes": 8167,
      "undulates": 8168,
      "uncolored": 8169,
      "networked": 8170,
      "##ordinate": 8171,
      "multiply": 8172,
      "fragmental": 8173,
      "fragmentation": 8174,
      "opens": 8175,
      "sprawls": 8176,
      "scarping": 8177,
      "volcanically": 8178,
      "standpoin": 8179,
      "principles": 8180,
      "backs": 8181,
      "monotonous": 8182,
      "minutely": 8183,
      "##91CA": 8184,
      "colors": 8185,
      "innermost": 8186,
      "Immbrian": 8187,
      "butted": 8188,
      "Topographies": 8189,
      "Highland": 8190,
      "detachment": 8191,
      "Fracturing": 8192,
      "Period": 8193,
      "residues": 8194,
      "contextually": 8195,
      "crescentically": 8196,
      "##ricrete": 8197,
      "nectaris": 8198,
      "descriptions": 8199,
      "starker": 8200,
      "heterogeneously": 8201,
      "prolific": 8202,
      "secondarily": 8203,
      "longer": 8204,
      "rounds": 8205,
      "##ddling": 8206,
      "tops": 8207,
      "topologically": 8208,
      "converges": 8209,
      "volcanics": 8210,
      "landing": 8211,
      "landfra": 8212,
      "Intermix": 8213,
      "Interlaced": 8214,
      "Intermar": 8215,
      "##amorphic": 8216,
      "##amili": 8217,
      "Belt": 8218,
      "##rence": 8219,
      "designations": 8220,
      "ridgeline": 8221,
      "pocketing": 8222,
      "slate": 8223,
      "slot": 8224,
      "##respective": 8225,
      "incisions": 8226,
      "incisively": 8227,
      "resists": 8228,
      "maybe": 8229,
      "ductile": 8230,
      "##rint": 8231,
      "approaches": 8232,
      "evolutionary": 8233,
      "evolutionarily": 8234,
      "floodings": 8235,
      "redistribut": 8236,
      "redefine": 8237,
      "divisor": 8238,
      "approximate": 8239,
      "Brightness": 8240,
      "configurations": 8241,
      "delimits": 8242,
      "shifted": 8243,
      "implant": 8244,
      "imprint": 8245,
      "pointing": 8246,
      "intermediaries": 8247,
      "##semblages": 8248,
      "medial": 8249,
      "subsident": 8250,
      "envelopment": 8251,
      "unmix": 8252,
      "Subtly": 8253,
      "Subjacent": 8254,
      "lithified": 8255,
      "richer": 8256,
      "unequal": 8257,
      "wild": 8258,
      "refinement": 8259,
      "reforming": 8260,
      "unevenness": 8261,
      "cannot": 8262,
      "perform": 8263,
      "perceived": 8264,
      "##mixture": 8265,
      "populates": 8266,
      "##inked": 8267,
      "careful": 8268,
      "cartographic": 8269,
      "superimpositioned": 8270,
      "accumulate": 8271,
      "characters": 8272,
      "deformational": 8273,
      "##kening": 8274,
      "interprets": 8275,
      "sheer": 8276,
      "combine": 8277,
      "combinations": 8278,
      "preventing": 8279,
      "uninterruptedly": 8280,
      "Subtlety": 8281,
      "etching": 8282,
      "preservational": 8283,
      "Discreet": 8284,
      "meanders": 8285,
      "Plainer": 8286,
      "extremity": 8287,
      "Abutment": 8288,
      "cohesively": 8289,
      "touched": 8290,
      "swarm": 8291,
      "swirling": 8292,
      "Extending": 8293,
      "pinks": 8294,
      "pinkish": 8295,
      "intercepts": 8296,
      "termini": 8297,
      "photom": 8298,
      "working": 8299,
      "sedimenting": 8300,
      "chronostratigraphic": 8301,
      "chronologic": 8302,
      "1091CA": 8303,
      "lineae": 8304,
      "generations": 8305,
      "generational": 8306,
      "architectural": 8307,
      "encapsulator": 8308,
      "hugging": 8309,
      "floodplain": 8310,
      "collections": 8311,
      "collective": 8312,
      "integrate": 8313,
      "integration": 8314,
      "profiles": 8315,
      "Complexes": 8316,
      "thickening": 8317,
      "contributors": 8318,
      "respects": 8319,
      "responsible": 8320,
      "winds": 8321,
      "Shiny": 8322,
      "linealities": 8323,
      "propag": 8324,
      "southwards": 8325,
      "soften": 8326,
      "Sparser": 8327,
      "proportioned": 8328,
      "solidification": 8329,
      "organizing": 8330,
      "piecing": 8331,
      "moonscape": 8332,
      "thickly": 8333,
      "recessing": 8334,
      "Constra": 8335,
      "lake": 8336,
      "concludes": 8337,
      "concurrent": 8338,
      "concerning": 8339,
      "cratiform": 8340,
      "cratricrete": 8341,
      "fluctuating": 8342,
      "##oids": 8343,
      "##oidal": 8344,
      "concavely": 8345,
      "wrapped": 8346,
      "Parts": 8347,
      "disparity": 8348,
      "00A9E": 8349,
      "crisply": 8350,
      "Deepest": 8351,
      "Plane": 8352,
      "Planains": 8353,
      "dataset": 8354,
      "goes": 8355,
      "Sharply": 8356,
      "medially": 8357,
      "caugh": 8358,
      "Trailing": 8359,
      "tangent": 8360,
      "introduction": 8361,
      "fluidly": 8362,
      "abutmenting": 8363,
      "hitting": 8364,
      "Traverses": 8365,
      "articulation": 8366,
      "alternative": 8367,
      "Attached": 8368,
      "wedging": 8369,
      "Superordinate": 8370,
      "successional": 8371,
      "lineamentary": 8372,
      "penetrated": 8373,
      "labels": 8374,
      "paved": 8375,
      "voided": 8376,
      "geomorphologically": 8377,
      "conformability": 8378,
      "palette": 8379,
      "Great": 8380,
      "passive": 8381,
      "simplif": 8382,
      "accents": 8383,
      "accentuates": 8384,
      "lithostratigraphically": 8385,
      "cratony": 8386,
      "cratonized": 8387,
      "Contiguous": 8388,
      "calls": 8389,
      "##ustrine": 8390,
      "##etime": 8391,
      "alters": 8392,
      "alterations": 8393,
      "Transverse": 8394,
      "transversing": 8395,
      "Strips": 8396,
      "supplement": 8397,
      "Sinuously": 8398,
      "meteors": 8399,
      "metamorphic": 8400,
      "tiers": 8401,
      "circumference": 8402,
      "circumferential": 8403,
      "initiated": 8404,
      "initially": 8405,
      "initiating": 8406,
      "sustains": 8407,
      "connective": 8408,
      "cresting": 8409,
      "farther": 8410,
      "blends": 8411,
      "cratereation": 8412,
      "Panca": 8413,
      "##ffected": 8414,
      "visualize": 8415,
      "visualizes": 8416,
      "Exposures": 8417,
      "Externally": 8418,
      "effects": 8419,
      "smoothings": 8420,
      "drainages": 8421,
      "Thinner": 8422,
      "Lowland": 8423,
      "Masifs": 8424,
      "finalized": 8425,
      "finishes": 8426,
      "finished": 8427,
      "Intrusive": 8428,
      "Intruding": 8429,
      "continual": 8430,
      "intergraded": 8431,
      "intergradation": 8432,
      "repeats": 8433,
      "Photographically": 8434,
      "scarcely": 8435,
      "PNC": 8436,
      "PNT": 8437,
      "confinements": 8438,
      "quietly": 8439,
      "Shadowy": 8440,
      "sandwich": 8441,
      "joins": 8442,
      "jointed": 8443,
      "joints": 8444,
      "Margins": 8445,
      "Marginalized": 8446,
      "chunked": 8447,
      "craggier": 8448,
      "Specified": 8449,
      "Irregularly": 8450,
      "knowled": 8451,
      "attest": 8452,
      "attached": 8453,
      "settlement": 8454,
      "Pinkish": 8455,
      "interlace": 8456,
      "interlaced": 8457,
      "interlinked": 8458,
      "upwards": 8459,
      "placial": 8460,
      "placers": 8461,
      "percentages": 8462,
      "variances": 8463,
      "adding": 8464,
      "adacencies": 8465,
      "adaj": 8466,
      "adorned": 8467,
      "adopts": 8468,
      "admixture": 8469,
      "poke": 8470,
      "coevally": 8471,
      "trackuate": 8472,
      "diagonal": 8473,
      "wearing": 8474,
      "subdivisions": 8475,
      "horizons": 8476,
      "004": 8477,
      "trenching": 8478,
      "immensely": 8479,
      "traceable": 8480,
      "observationally": 8481,
      "Positionally": 8482,
      "nicely": 8483,
      "plaineutnic": 8484,
      "gravitationally": 8485,
      "illuminates": 8486,
      "illuminating": 8487,
      "##ymetric": 8488,
      "maturities": 8489,
      "Streaked": 8490,
      "Meandering": 8491,
      "cloak": 8492,
      "hairline": 8493,
      "retained": 8494,
      "retreat": 8495,
      "distantly": 8496,
      "underpinning": 8497,
      "denoted": 8498,
      "tonality": 8499,
      "cyclical": 8500,
      "##ilization": 8501,
      "clasts": 8502,
      "proto": 8503,
      "protective": 8504,
      "intersticial": 8505,
      "chaotically": 8506,
      "tractions": 8507,
      "accounted": 8508,
      "elliptically": 8509,
      "Column": 8510,
      "Terran": 8511,
      "Terrane": 8512,
      "rarer": 8513,
      "rarity": 8514,
      "rarest": 8515,
      "rarely": 8516,
      "relegating": 8517,
      "restrictions": 8518,
      "grayish": 8519,
      "packing": 8520,
      "regularly": 8521,
      "sliced": 8522,
      "tessellate": 8523,
      "peaked": 8524,
      "##plained": 8525,
      "##ogenically": 8526,
      "crosscuts": 8527,
      "Assemblages": 8528,
      "ended": 8529,
      "ending": 8530,
      "sunlight": 8531,
      "involvement": 8532,
      "succeeding": 8533,
      "described": 8534,
      "heightened": 8535,
      "clifftop": 8536,
      "Steeply": 8537,
      "Profile": 8538,
      "Regionally": 8539,
      "burst": 8540,
      "laying": 8541,
      "sinuations": 8542,
      "Superpositionally": 8543,
      "hemmed": 8544,
      "pooling": 8545,
      "Resolution": 8546,
      "Resurfacing": 8547,
      "bridged": 8548,
      "tenuous": 8549,
      "tensile": 8550,
      "Stratographically": 8551,
      "polymorphous": 8552,
      "aprons": 8553,
      "Radar": 8554,
      "axial": 8555,
      "axially": 8556,
      "breached": 8557,
      "breaching": 8558,
      "fifth": 8559,
      "reinforce": 8560,
      "displace": 8561,
      "displaced": 8562,
      "displacing": 8563,
      "Interstitially": 8564,
      "embrace": 8565,
      "batholith": 8566,
      "facing": 8567,
      "facings": 8568,
      "facade": 8569,
      "faciest": 8570,
      "coalescent": 8571,
      "coalescence": 8572,
      "submerging": 8573,
      "edifice": 8574,
      "buffers": 8575,
      "colorations": 8576,
      "impinges": 8577,
      "segregating": 8578,
      "testify": 8579,
      "violence": 8580,
      "viscous": 8581,
      "orderly": 8582,
      "Infill": 8583,
      "infiltrated": 8584,
      "infiltrates": 8585,
      "liquids": 8586,
      "discordances": 8587,
      "discordantly": 8588,
      "Superimpose": 8589,
      "perforated": 8590,
      "happens": 8591,
      "ILMU": 8592,
      "Matrix": 8593,
      "Oblique": 8594,
      "rayed": 8595,
      "dimmer": 8596,
      "contemporaneously": 8597,
      "vividly": 8598,
      "becoming": 8599,
      "anomalous": 8600,
      "amplitudes": 8601,
      "flexure": 8602,
      "Flowing": 8603,
      "Section": 8604,
      "Sections": 8605,
      "bilaterally": 8606,
      "lenses": 8607,
      "mingling": 8608,
      "multigenic": 8609,
      "sentences": 8610,
      "deviation": 8611,
      "deviates": 8612,
      "deviate": 8613,
      "excellent": 8614,
      "registered": 8615,
      "registers": 8616,
      "registering": 8617,
      "asymmetric": 8618,
      "unseen": 8619,
      "unusually": 8620,
      "Copérnician": 8621,
      "Copérniccan": 8622,
      "Sporadically": 8623,
      "paleosols": 8624,
      "paleosurfaces": 8625,
      "longitudinal": 8626,
      "unexplained": 8627,
      "equatorial": 8628,
      "equatorward": 8629,
      "Interiorally": 8630,
      "seamlessly": 8631,
      "Contacts": 8632,
      "encasement": 8633,
      "pictured": 8634,
      "permeate": 8635,
      "Recently": 8636,
      "sinuospati": 8637,
      "sinuosoidal": 8638,
      "precursors": 8639,
      "contemporaneity": 8640,
      "laminar": 8641,
      "Delineating": 8642,
      "IUCU": 8643,
      "Note": 8644,
      "bordes": 8645,
      "catches": 8646,
      "catalog": 8647,
      "catchment": 8648,
      "catastrop": 8649,
      "feels": 8650,
[...]
