{
  "version": "1.0",
  "truncation": null,
  "padding": null,
  "added_tokens": [
    {
      "id": 0,
      "content": "[RETRIEVAL]",
      "single_word": false,
      "lstrip": false,
      "rstrip": false,
      "normalized": false,
      "special": true
    },
    {
      "id": 1,
      "content": "[PAD]",
      "single_word": false,
      "lstrip": false,
      "rstrip": false,
      "normalized": false,
      "special": true
    },
    {
      "id": 2,
      "content": "[UNK]",
      "single_word": false,
      "lstrip": false,
      "rstrip": false,
      "normalized": false,
      "special": true
    },
    {
      "id": 3,
      "content": "[SOS]",
      "single_word": false,
      "lstrip": false,
      "rstrip": false,
      "normalized": false,
      "special": true
    },
    {
      "id": 4,
      "content": "[EOS]",
      "single_word": false,
      "lstrip": false,
      "rstrip": false,
      "normalized": false,
      "special": true
    },
    {
      "id": 5,
      "content": "[MASK]",
      "single_word": false,
      "lstrip": false,
      "rstrip": false,
      "normalized": false,
      "special": true
    }
  ],
  "normalizer": null,
  "pre_tokenizer": {
    "type": "Whitespace"
  },
  "post_processor": null,
  "decoder": null,
  "model": {
    "type": "N-Gram",
    "unk_token": "[UNK]",
    "continuing_subword_prefix": "##",
    "max_input_chars_per_word": 100,
    "vocab": {
      "[RETRIEVAL]": 0,
      "[PAD]": 1,
      "[UNK]": 2,
      "[SOS]": 3,
      "[EOS]": 4,
      "[MASK]": 5,
      "unit": 6,
      "nectarian": 7,
      "crater": 8,
      "imbrian": 9,
      "plain": 10,
      "surface": 11,
      "basin": 12,
      "terra": 13,
      "pre": 14,
      "boundary": 15,
      "impact": 16,
      "distinct": 17,
      "terrain": 18,
      "border": 19,
      "geological": 20,
      "formation": 21,
      "mare": 22,
      "define": 23,
      "adjacent": 24,
      "feature": 25,
      "upper": 26,
      "region": 27,
      "heavily": 28,
      "structure": 29,
      "dominate": 30,
      "area": 31,
      "large": 32,
      "smooth": 33,
      "suggest": 34,
      "old": 35,
      "display": 36,
      "low": 37,
      "surround": 38,
      "secondary": 39,
      "lunar": 40,
      "visible": 41,
      "cratered": 42,
      "facie": 43,
      "eratosthenian": 44,
      "form": 45,
      "material": 46,
      "major": 47,
      "occupy": 48,
      "complex": 49,
      "transition": 50,
      "numerous": 51,
      "landscape": 52,
      "linear": 53,
      "exhibit": 54,
      "central": 55,
      "separate": 56,
      "prominent": 57,
      "orientale": 58,
      "abut": 59,
      "dark": 60,
      "meet": 61,
      "topography": 62,
      "hevelius": 63,
      "structural": 64,
      "undivided": 65,
      "texture": 66,
      "extensive": 67,
      "cratere": 68,
      "appear": 69,
      "contact": 70,
      "mark": 71,
      "massif": 72,
      "sharply": 73,
      "vast": 74,
      "clear": 75,
      "small": 76,
      "patch": 77,
      "cover": 78,
      "dominant": 79,
      "primary": 80,
      "characterize": 81,
      "situate": 82,
      "smoother": 83,
      "indicate": 84,
      "superimpose": 85,
      "localize": 86,
      "contrast": 87,
      "varied": 88,
      "multiple": 89,
      "relationship": 90,
      "underlie": 91,
      "lineate": 92,
      "cratering": 93,
      "background": 94,
      "delineate": 95,
      "image": 96,
      "imbrium": 97,
      "highly": 98,
      "marking": 99,
      "zone": 100,
      "rugged": 101,
      "undivide": 102,
      "deposit": 103,
      "relatively": 104,
      "different": 105,
      "scatter": 106,
      "crustal": 107,
      "expansive": 108,
      "spatially": 109,
      "outer": 110,
      "inner": 111,
      "unknown": 112,
      "expanse": 113,
      "significant": 114,
      "ancient": 115,
      "sharp": 116,
      "majority": 117,
      "constitute": 118,
      "matrix": 119,
      "represent": 120,
      "cluster": 121,
      "traverse": 122,
      "copernican": 123,
      "substrate": 124,
      "light": 125,
      "history": 126,
      "primarily": 127,
      "reveal": 128,
      "overall": 129,
      "include": 130,
      "modify": 131,
      "vary": 132,
      "line": 133,
      "compose": 134,
      "clearly": 135,
      "continuous": 136,
      "structurally": 137,
      "overlap": 138,
      "young": 139,
      "modification": 140,
      "entire": 141,
      "view": 142,
      "fra": 143,
      "mauro": 144,
      "lie": 145,
      "edge": 146,
      "overlie": 147,
      "localized": 148,
      "margin": 149,
      "interact": 150,
      "minor": 151,
      "main": 152,
      "broad": 153,
      "flat": 154,
      "bound": 155,
      "plateau": 156,
      "elevated": 157,
      "juxtapose": 158,
      "overlay": 159,
      "bright": 160,
      "pattern": 161,
      "irregular": 162,
      "regional": 163,
      "overlapping": 164,
      "sit": 165,
      "contain": 166,
      "map": 167,
      "size": 168,
      "frame": 169,
      "mantle": 170,
      "spatial": 171,
      "coverage": 172,
      "peripheral": 173,
      "overwhelmingly": 174,
      "like": 175,
      "widespread": 176,
      "observed": 177,
      "portion": 178,
      "plains": 179,
      "overlying": 180,
      "position": 181,
      "fresh": 182,
      "rest": 183,
      "floor": 184,
      "highland": 185,
      "juxtaposition": 186,
      "consist": 187,
      "relief": 188,
      "high": 189,
      "various": 190,
      "mantling": 191,
      "crust": 192,
      "scene": 193,
      "differential": 194,
      "near": 195,
      "generally": 196,
      "center": 197,
      "depositional": 198,
      "event": 199,
      "interface": 200,
      "highlight": 201,
      "ground": 202,
      "deposition": 203,
      "darker": 204,
      "flank": 205,
      "band": 206,
      "resurfacing": 207,
      "arrangement": 208,
      "cut": 209,
      "layered": 210,
      "underlying": 211,
      "belong": 212,
      "discrete": 213,
      "variation": 214,
      "look": 215,
      "foreground": 216,
      "intersect": 217,
      "massive": 218,
      "right": 219,
      "expose": 220,
      "relative": 221,
      "interaction": 222,
      "sinuous": 223,
      "morphology": 224,
      "uniform": 225,
      "subsequent": 226,
      "layer": 227,
      "diverse": 228,
      "moon": 229,
      "present": 230,
      "partially": 231,
      "rougher": 232,
      "create": 233,
      "rough": 234,
      "adjoin": 235,
      "north": 236,
      "uniformly": 237,
      "sequence": 238,
      "curved": 239,
      "establish": 240,
      "field": 241,
      "provide": 242,
      "topographical": 243,
      "depression": 244,
      "confine": 245,
      "transitional": 246,
      "pronounce": 247,
      "alpes": 248,
      "section": 249,
      "type": 250,
      "predominantly": 251,
      "trough": 252,
      "structured": 253,
      "interrupt": 254,
      "dot": 255,
      "subtle": 256,
      "contiguous": 257,
      "circular": 258,
      "infilling": 259,
      "left": 260,
      "deep": 261,
      "observe": 262,
      "composition": 263,
      "topographic": 264,
      "subdue": 265,
      "nestle": 266,
      "nectaris": 267,
      "flow": 268,
      "janssen": 269,
      "curvilinear": 270,
      "punctuate": 271,
      "locate": 272,
      "associate": 273,
      "evidence": 274,
      "wide": 275,
      "southern": 276,
      "black": 277,
      "quadrant": 278,
      "cross": 279,
      "south": 280,
      "activity": 281,
      "periphery": 282,
      "process": 283,
      "mature": 284,
      "distinctly": 285,
      "far": 286,
      "fracture": 287,
      "infille": 288,
      "rim": 289,
      "infill": 290,
      "wac": 291,
      "directly": 292,
      "geology": 293,
      "northern": 294,
      "horizontal": 295,
      "identify": 296,
      "rook": 297,
      "capture": 298,
      "relate": 299,
      "exposure": 300,
      "resurface": 301,
      "indicative": 302,
      "restrict": 303,
      "pervasive": 304,
      "largely": 305,
      "parallel": 306,
      "depict": 307,
      "erosion": 308,
      "embed": 309,
      "variable": 310,
      "later": 311,
      "deeply": 312,
      "encompass": 313,
      "serve": 314,
      "characteristic": 315,
      "exist": 316,
      "shadow": 317,
      "junction": 318,
      "post": 319,
      "segment": 320,
      "rugge": 321,
      "domain": 322,
      "density": 323,
      "shape": 324,
      "sector": 325,
      "foundational": 326,
      "superpose": 327,
      "mix": 328,
      "knobby": 329,
      "presence": 330,
      "period": 331,
      "general": 332,
      "intersection": 333,
      "dramatic": 334,
      "curve": 335,
      "isolate": 336,
      "compositional": 337,
      "erosional": 338,
      "geologically": 339,
      "turn": 340,
      "flatter": 341,
      "west": 342,
      "comprise": 343,
      "age": 344,
      "apenninus": 345,
      "mass": 346,
      "bombardment": 347,
      "classify": 348,
      "single": 349,
      "pock": 350,
      "fault": 351,
      "moderate": 352,
      "east": 353,
      "meeting": 354,
      "likely": 355,
      "outline": 356,
      "intersperse": 357,
      "superposition": 358,
      "filling": 359,
      "adjoining": 360,
      "difference": 361,
      "new": 362,
      "extensively": 363,
      "substantial": 364,
      "control": 365,
      "change": 366,
      "atop": 367,
      "lateral": 368,
      "heavy": 369,
      "set": 370,
      "noticeable": 371,
      "monte": 372,
      "dense": 373,
      "raise": 374,
      "divide": 375,
      "stable": 376,
      "lighter": 377,
      "ridge": 378,
      "recent": 379,
      "toned": 380,
      "sequential": 381,
      "episode": 382,
      "upland": 383,
      "run": 384,
      "significantly": 385,
      "corner": 386,
      "extent": 387,
      "subsurface": 388,
      "body": 389,
      "isolated": 390,
      "province": 391,
      "arcuate": 392,
      "pockmark": 393,
      "strong": 394,
      "degraded": 395,
      "differ": 396,
      "neighboring": 397,
      "layering": 398,
      "internal": 399,
      "distribute": 400,
      "abruptly": 401,
      "block": 402,
      "showcase": 403,
      "rock": 404,
      "ejecta": 405,
      "basal": 406,
      "planar": 407,
      "degree": 408,
      "entirely": 409,
      "scale": 410,
      "specific": 411,
      "centrally": 412,
      "local": 413,
      "level": 414,
      "bedrock": 415,
      "streak": 416,
      "gently": 417,
      "consistent": 418,
      "geographically": 419,
      "narrow": 420,
      "blanket": 421,
      "mosaic": 422,
      "stratigraphy": 423,
      "constrain": 424,
      "dissect": 425,
      "nearly": 426,
      "beneath": 427,
      "observable": 428,
      "illustrate": 429,
      "make": 430,
      "marginal": 431,
      "nearby": 432,
      "sparse": 433,
      "involve": 434,
      "core": 435,
      "trace": 436,
      "pepper": 437,
      "western": 438,
      "pronounced": 439,
      "imaged": 440,
      "minimal": 441,
      "demarcate": 442,
      "lightly": 443,
      "epoch": 444,
      "immediately": 445,
      "textured": 446,
      "space": 447,
      "host": 448,
      "stage": 449,
      "specifically": 450,
      "preserve": 451,
      "element": 452,
      "albedo": 453,
      "particularly": 454,
      "demonstrate": 455,
      "enclose": 456,
      "interior": 457,
      "scar": 458,
      "late": 459,
      "alongside": 460,
      "settle": 461,
      "framework": 462,
      "evident": 463,
      "tectonic": 464,
      "interplay": 465,
      "maunder": 466,
      "complete": 467,
      "fine": 468,
      "pale": 469,
      "stack": 470,
      "component": 471,
      "subsequently": 472,
      "gentle": 473,
      "striking": 474,
      "terrestrial": 475,
      "possibly": 476,
      "strike": 477,
      "base": 478,
      "elongate": 479,
      "separation": 480,
      "southwest": 481,
      "unclassified": 482,
      "location": 483,
      "sparsely": 484,
      "open": 485,
      "sweeping": 486,
      "horizontally": 487,
      "montes": 488,
      "time": 489,
      "striation": 490,
      "cap": 491,
      "moderately": 492,
      "mottled": 493,
      "faulting": 494,
      "elevation": 495,
      "homogeneous": 496,
      "contrasting": 497,
      "share": 498,
      "geometry": 499,
      "notably": 500,
      "remain": 501,
      "degradation": 502,
      "phase": 503,
      "discernible": 504,
      "texturally": 505,
      "textural": 506,
      "intense": 507,
      "eastern": 508,
      "irregularly": 509,
      "remnant": 510,
      "limit": 511,
      "tone": 512,
      "uplifted": 513,
      "northwest": 514,
      "densely": 515,
      "intervene": 516,
      "bulk": 517,
      "abundant": 518,
      "lithology": 519,
      "act": 520,
      "derive": 521,
      "dotted": 522,
      "environment": 523,
      "stratigraphic": 524,
      "disrupt": 525,
      "origin": 526,
      "laterally": 527,
      "banding": 528,
      "faint": 529,
      "ring": 530,
      "prominently": 531,
      "overwhelming": 532,
      "bowl": 533,
      "lower": 534,
      "perimeter": 535,
      "geologic": 536,
      "fracturing": 537,
      "geographical": 538,
      "foundation": 539,
      "stark": 540,
      "predominant": 541,
      "subdued": 542,
      "manifest": 543,
      "network": 544,
      "smoothly": 545,
      "superiorly": 546,
      "multi": 547,
      "degrade": 548,
      "northeast": 549,
      "patchy": 550,
      "dramatically": 551,
      "survey": 552,
      "sprawl": 553,
      "saturate": 554,
      "long": 555,
      "adjacency": 556,
      "scarred": 557,
      "backdrop": 558,
      "countless": 559,
      "singular": 560,
      "undefined": 561,
      "occupie": 562,
      "elevate": 563,
      "potentially": 564,
      "grayscale": 565,
      "appearance": 566,
      "influence": 567,
      "patchwork": 568,
      "southeast": 569,
      "uplift": 570,
      "lowland": 571,
      "discontinuity": 572,
      "drape": 573,
      "superior": 574,
      "volcanic": 575,
      "crisscross": 576,
      "brown": 577,
      "context": 578,
      "neighbor": 579,
      "nest": 580,
      "correspond": 581,
      "bumpy": 582,
      "result": 583,
      "older": 584,
      "incise": 585,
      "homogenous": 586,
      "division": 587,
      "occur": 588,
      "minute": 589,
      "lithological": 590,
      "principal": 591,
      "unidentified": 592,
      "evolution": 593,
      "maintain": 594,
      "shift": 595,
      "past": 596,
      "groove": 597,
      "stratification": 598,
      "land": 599,
      "designate": 600,
      "big": 601,
      "successive": 602,
      "dome": 603,
      "configuration": 604,
      "locally": 605,
      "differentiate": 606,
      "second": 607,
      "juxtaposed": 608,
      "fragmented": 609,
      "sized": 610,
      "range": 611,
      "peripherally": 612,
      "angular": 613,
      "solely": 614,
      "leave": 615,
      "heterogeneous": 616,
      "additionally": 617,
      "interdigitate": 618,
      "uppermost": 619,
      "slightly": 620,
      "interstitial": 621,
      "site": 622,
      "broader": 623,
      "analysis": 624,
      "abrupt": 625,
      "arc": 626,
      "intensely": 627,
      "unmapped": 628,
      "strata": 629,
      "round": 630,
      "inclusion": 631,
      "stretch": 632,
      "delimit": 633,
      "follow": 634,
      "visibly": 635,
      "plateaus": 636,
      "overlain": 637,
      "rich": 638,
      "blue": 639,
      "stand": 640,
      "point": 641,
      "standing": 642,
      "sign": 643,
      "way": 644,
      "development": 645,
      "notable": 646,
      "lobe": 647,
      "approximately": 648,
      "roll": 649,
      "subordinate": 650,
      "fundamentally": 651,
      "litter": 652,
      "incorporate": 653,
      "converge": 654,
      "limited": 655,
      "pocket": 656,
      "terrane": 657,
      "stratified": 658,
      "truncate": 659,
      "erode": 660,
      "concentration": 661,
      "bear": 662,
      "exclusively": 663,
      "plane": 664,
      "crescent": 665,
      "steep": 666,
      "overlaying": 667,
      "geography": 668,
      "flooding": 669,
      "span": 670,
      "distinctive": 671,
      "strip": 672,
      "uneven": 673,
      "resistant": 674,
      "complexity": 675,
      "southwestern": 676,
      "graben": 677,
      "suggestive": 678,
      "monolithic": 679,
      "closely": 680,
      "residual": 681,
      "brightness": 682,
      "potential": 683,
      "bombard": 684,
      "fractured": 685,
      "intermediate": 686,
      "facies": 687,
      "lack": 688,
      "emplacement": 689,
      "associated": 690,
      "undulate": 691,
      "carve": 692,
      "distribution": 693,
      "break": 694,
      "quite": 695,
      "reddish": 696,
      "mainly": 697,
      "mixed": 698,
      "affect": 699,
      "delineation": 700,
      "encroach": 701,
      "green": 702,
      "build": 703,
      "southeastern": 704,
      "setting": 705,
      "intermingle": 706,
      "assemblage": 707,
      "widely": 708,
      "mottle": 709,
      "geometrically": 710,
      "kind": 711,
      "modulate": 712,
      "undulating": 713,
      "spread": 714,
      "compositionally": 715,
      "basement": 716,
      "concentrated": 717,
      "strongly": 718,
      "extend": 719,
      "populate": 720,
      "noticeably": 721,
      "compare": 722,
      "interpret": 723,
      "showing": 724,
      "convergence": 725,
      "non": 726,
      "undergo": 727,
      "broadly": 728,
      "analyzed": 729,
      "confluence": 730,
      "yellow": 731,
      "medium": 732,
      "dusty": 733,
      "calm": 734,
      "smaller": 735,
      "current": 736,
      "prolonged": 737,
      "envelop": 738,
      "situated": 739,
      "emphasize": 740,
      "etch": 741,
      "boundarie": 742,
      "touch": 743,
      "deformation": 744,
      "excavate": 745,
      "demarcation": 746,
      "close": 747,
      "sole": 748,
      "character": 749,
      "typical": 750,
      "comparatively": 751,
      "shadowed": 752,
      "negligible": 753,
      "wavy": 754,
      "channel": 755,
      "flood": 756,
      "superimposition": 757,
      "minimally": 758,
      "proximity": 759,
      "connect": 760,
      "era": 761,
      "separately": 762,
      "precise": 763,
      "overprint": 764,
      "exposed": 765,
      "restricted": 766,
      "sweep": 767,
      "preservation": 768,
      "especially": 769,
      "stratum": 770,
      "arrange": 771,
      "scattered": 772,
      "concentrate": 773,
      "emplace": 774,
      "immediate": 775,
      "suggesting": 776,
      "absent": 777,
      "imply": 778,
      "undisturbed": 779,
      "subject": 780,
      "inundation": 781,
      "intricate": 782,
      "sequentially": 783,
      "reflect": 784,
      "text": 785,
      "belt": 786,
      "related": 787,
      "outcrop": 788,
      "superimposed": 789,
      "lineament": 790,
      "dictate": 791,
      "crescentic": 792,
      "rocky": 793,
      "orange": 794,
      "continuity": 795,
      "transect": 796,
      "lava": 797,
      "prolong": 798,
      "rounded": 799,
      "record": 800,
      "uninterrupted": 801,
      "speckle": 802,
      "half": 803,
      "discontinuous": 804,
      "straight": 805,
      "accumulation": 806,
      "possess": 807,
      "rille": 808,
      "hole": 809,
      "patterned": 810,
      "stratigraphically": 811,
      "mixture": 812,
      "imagery": 813,
      "subtly": 814,
      "marked": 815,
      "possible": 816,
      "combination": 817,
      "amidst": 818,
      "wall": 819,
      "roughness": 820,
      "rolling": 821,
      "varying": 822,
      "slop": 823,
      "cast": 824,
      "detailed": 825,
      "southward": 826,
      "sheet": 827,
      "total": 828,
      "topographically": 829,
      "original": 830,
      "recently": 831,
      "lying": 832,
      "reside": 833,
      "striated": 834,
      "regionally": 835,
      "inter": 836,
      "population": 837,
      "grouping": 838,
      "encapsulate": 839,
      "cohesive": 840,
      "inferiorly": 841,
      "fragment": 842,
      "middle": 843,
      "subsidiary": 844,
      "early": 845,
      "alignment": 846,
      "bisect": 847,
      "dominating": 848,
      "encircle": 849,
      "correlate": 850,
      "regolith": 851,
      "colored": 852,
      "key": 853,
      "smoothness": 854,
      "northeastern": 855,
      "slope": 856,
      "delineated": 857,
      "scarp": 858,
      "disrupted": 859,
      "trend": 860,
      "intersecting": 861,
      "offset": 862,
      "regime": 863,
      "alpe": 864,
      "specialized": 865,
      "brighter": 866,
      "place": 867,
      "tectonically": 868,
      "lineation": 869,
      "apparent": 870,
      "terminate": 871,
      "pink": 872,
      "variably": 873,
      "prevail": 874,
      "extremely": 875,
      "differentiation": 876,
      "complexly": 877,
      "overarching": 878,
      "huge": 879,
      "intrude": 880,
      "copernicus": 881,
      "semi": 882,
      "undifferentiated": 883,
      "northwestern": 884,
      "piece": 885,
      "pit": 886,
      "contour": 887,
      "monolithically": 888,
      "disruption": 889,
      "mediate": 890,
      "swath": 891,
      "remarkably": 892,
      "obscure": 893,
      "plainer": 894,
      "chronological": 895,
      "purple": 896,
      "accumulate": 897,
      "active": 898,
      "subsidence": 899,
      "lay": 900,
      "covering": 901,
      "undulation": 902,
      "finally": 903,
      "spot": 904,
      "tract": 905,
      "architecture": 906,
      "blocky": 907,
      "wear": 908,
      "bombarded": 909,
      "weakness": 910,
      "great": 911,
      "wind": 912,
      "ongoing": 913,
      "platform": 914,
      "superficial": 915,
      "stripe": 916,
      "rift": 917,
      "wow": 918,
      "dividing": 919,
      "association": 920,
      "diffuse": 921,
      "group": 922,
      "lot": 923,
      "precisely": 924,
      "wrap": 925,
      "sedimentation": 926,
      "tightly": 927,
      "soft": 928,
      "pristine": 929,
      "somewhat": 930,
      "eroded": 931,
      "recess": 932,
      "volcanism": 933,
      "outward": 934,
      "concentric": 935,
      "fringe": 936,
      "link": 937,
      "crisp": 938,
      "flanking": 939,
      "grade": 940,
      "ccabab": 941,
      "collectively": 942,
      "lineal": 943,
      "furthermore": 944,
      "radial": 945,
      "help": 946,
      "support": 947,
      "stress": 948,
      "proportion": 949,
      "bounded": 950,
      "pack": 951,
      "crack": 952,
      "contribute": 953,
      "downward": 954,
      "smoothed": 955,
      "basalt": 956,
      "gap": 957,
      "stability": 958,
      "morphological": 959,
      "cutting": 960,
      "direct": 961,
      "disparate": 962,
      "inferior": 963,
      "surficial": 964,
      "intrusion": 965,
      "accommodate": 966,
      "overarch": 967,
      "definition": 968,
      "variability": 969,
      "solid": 970,
      "worn": 971,
      "frequently": 972,
      "interconnect": 973,
      "path": 974,
      "concave": 975,
      "internally": 976,
      "color": 977,
      "inside": 978,
      "limb": 979,
      "hit": 980,
      "nested": 981,
      "bury": 982,
      "centralized": 983,
      "date": 984,
      "locale": 985,
      "nature": 986,
      "abutt": 987,
      "depressed": 988,
      "shallow": 989,
      "repeat": 990,
      "landmass": 991,
      "mapping": 992,
      "cleanly": 993,
      "saturation": 994,
      "interstitially": 995,
      "dominantly": 996,
      "triple": 997,
      "seemingly": 998,
      "abutment": 999,
      "profile": 1000,
      "valley": 1001,
      "gradual": 1002,
      "experience": 1003,
      "crateric": 1004,
      "wave": 1005,
      "tan": 1006,
      "variety": 1007,
      "fabric": 1008,
      "label": 1009,
      "cradle": 1010,
      "gradient": 1011,
      "organize": 1012,
      "occurrence": 1013,
      "weather": 1014,
      "hold": 1015,
      "dominance": 1016,
      "integrate": 1017,
      "complement": 1018,
      "sea": 1019,
      "description": 1020,
      "entirety": 1021,
      "impactate": 1022,
      "relation": 1023,
      "shade": 1024,
      "placement": 1025,
      "pocked": 1026,
      "succession": 1027,
      "wedge": 1028,
      "govern": 1029,
      "movement": 1030,
      "begin": 1031,
      "additional": 1032,
      "defining": 1033,
      "separated": 1034,
      "collision": 1035,
      "grooving": 1036,
      "segregate": 1037,
      "occasionally": 1038,
      "mountainous": 1039,
      "intact": 1040,
      "array": 1041,
      "vastly": 1042,
      "penetrate": 1043,
      "streaky": 1044,
      "categorize": 1045,
      "develop": 1046,
      "introduce": 1047,
      "geometric": 1048,
      "geographic": 1049,
      "proximal": 1050,
      "intermix": 1051,
      "disturb": 1052,
      "looking": 1053,
      "meandering": 1054,
      "composite": 1055,
      "surrounding": 1056,
      "reach": 1057,
      "transverse": 1058,
      "fluid": 1059,
      "currently": 1060,
      "homogeneity": 1061,
      "abutts": 1062,
      "respective": 1063,
      "fraction": 1064,
      "impose": 1065,
      "wider": 1066,
      "previously": 1067,
      "shadowy": 1068,
      "modified": 1069,
      "alternate": 1070,
      "account": 1071,
      "coherent": 1072,
      "disturbed": 1073,
      "subsided": 1074,
      "overlaid": 1075,
      "hint": 1076,
      "vertically": 1077,
      "equal": 1078,
      "adjacently": 1079,
      "encase": 1080,
      "similar": 1081,
      "covered": 1082,
      "overlook": 1083,
      "mean": 1084,
      "undetermined": 1085,
      "structuring": 1086,
      "unique": 1087,
      "brightly": 1088,
      "split": 1089,
      "conspicuous": 1090,
      "dust": 1091,
      "pass": 1092,
      "quieter": 1093,
      "darken": 1094,
      "void": 1095,
      "generalized": 1096,
      "maria": 1097,
      "common": 1098,
      "corresponding": 1099,
      "articulate": 1100,
      "overprinting": 1101,
      "blend": 1102,
      "bounding": 1103,
      "aged": 1104,
      "source": 1105,
      "debris": 1106,
      "deposited": 1107,
      "troughs": 1108,
      "historical": 1109,
      "contained": 1110,
      "systematically": 1111,
      "veneer": 1112,
      "eastward": 1113,
      "poorly": 1114,
      "stacked": 1115,
      "simple": 1116,
      "featureless": 1117,
      "ruggedly": 1118,
      "abutting": 1119,
      "interdigitation": 1120,
      "linearity": 1121,
      "partial": 1122,
      "youth": 1123,
      "sizable": 1124,
      "marginally": 1125,
      "mapped": 1126,
      "territory": 1127,
      "external": 1128,
      "absence": 1129,
      "greatly": 1130,
      "sediment": 1131,
      "heterogeneity": 1132,
      "pathway": 1133,
      "planetary": 1134,
      "transitioning": 1135,
      "datum": 1136,
      "shadowing": 1137,
      "variegate": 1138,
      "temporal": 1139,
      "alter": 1140,
      "notice": 1141,
      "confined": 1142,
      "respectively": 1143,
      "pair": 1144,
      "completely": 1145,
      "intermingling": 1146,
      "little": 1147,
      "fresher": 1148,
      "higher": 1149,
      "differentially": 1150,
      "encounter": 1151,
      "extension": 1152,
      "neatly": 1153,
      "combine": 1154,
      "outermost": 1155,
      "resemble": 1156,
      "plaine": 1157,
      "grain": 1158,
      "gradually": 1159,
      "established": 1160,
      "red": 1161,
      "generate": 1162,
      "geomap": 1163,
      "externally": 1164,
      "strew": 1165,
      "vertical": 1166,
      "progress": 1167,
      "intervening": 1168,
      "substantially": 1169,
      "banded": 1170,
      "damage": 1171,
      "markedly": 1172,
      "fundamental": 1173,
      "consequently": 1174,
      "annular": 1175,
      "striate": 1176,
      "segregated": 1177,
      "lithostratigraphic": 1178,
      "sculpt": 1179,
      "diameter": 1180,
      "partition": 1181,
      "grind": 1182,
      "showcasing": 1183,
      "mixing": 1184,
      "complexe": 1185,
      "superpositional": 1186,
      "paler": 1187,
      "punctate": 1188,
      "progression": 1189,
      "crest": 1190,
      "assign": 1191,
      "distinctively": 1192,
      "crystalline": 1193,
      "prevalent": 1194,
      "uniformity": 1195,
      "radiate": 1196,
      "differently": 1197,
      "basaltic": 1198,
      "scattering": 1199,
      "patterning": 1200,
      "temporally": 1201,
      "sandwich": 1202,
      "rise": 1203,
      "interspersed": 1204,
      "independent": 1205,
      "rate": 1206,
      "identifiable": 1207,
      "compartmentalize": 1208,
      "data": 1209,
      "align": 1210,
      "compact": 1211,
      "fall": 1212,
      "presumably": 1213,
      "sinuously": 1214,
      "sustained": 1215,
      "face": 1216,
      "riddle": 1217,
      "stratify": 1218,
      "segmentation": 1219,
      "quiet": 1220,
      "initial": 1221,
      "craggy": 1222,
      "laden": 1223,
      "inundate": 1224,
      "disperse": 1225,
      "complicate": 1226,
      "geomorphology": 1227,
      "volatile": 1228,
      "superposed": 1229,
      "supplement": 1230,
      "mountain": 1231,
      "dynamic": 1232,
      "role": 1233,
      "originate": 1234,
      "chain": 1235,
      "striped": 1236,
      "crossing": 1237,
      "beige": 1238,
      "broken": 1239,
      "stratigraphical": 1240,
      "winding": 1241,
      "delicate": 1242,
      "interruption": 1243,
      "entity": 1244,
      "encroache": 1245,
      "consolidated": 1246,
      "away": 1247,
      "circumscribe": 1248,
      "previous": 1249,
      "modern": 1250,
      "incursion": 1251,
      "fit": 1252,
      "settled": 1253,
      "tertiary": 1254,
      "accentuate": 1255,
      "puzzle": 1256,
      "seat": 1257,
      "visual": 1258,
      "massifs": 1259,
      "accompany": 1260,
      "state": 1261,
      "depth": 1262,
      "conversely": 1263,
      "collection": 1264,
      "homogeneously": 1265,
      "voluminous": 1266,
      "ripple": 1267,
      "streaking": 1268,
      "series": 1269,
      "continental": 1270,
      "linearly": 1271,
      "sub": 1272,
      "drainage": 1273,
      "strikingly": 1274,
      "know": 1275,
      "gentler": 1276,
      "areal": 1277,
      "anchor": 1278,
      "physical": 1279,
      "mute": 1280,
      "unconformity": 1281,
      "conform": 1282,
      "encroachment": 1283,
      "robust": 1284,
      "altered": 1285,
      "swathe": 1286,
      "tripartite": 1287,
      "scoop": 1288,
      "persistent": 1289,
      "newer": 1290,
      "physiographic": 1291,
      "lavender": 1292,
      "function": 1293,
      "list": 1294,
      "terrigenous": 1295,
      "rifting": 1296,
      "wrinkle": 1297,
      "imaging": 1298,
      "streaked": 1299,
      "enclosure": 1300,
      "intensity": 1301,
      "term": 1302,
      "geomorphic": 1303,
      "generalize": 1304,
      "ruggedness": 1305,
      "horizon": 1306,
      "assembly": 1307,
      "excavation": 1308,
      "impressive": 1309,
      "superpositione": 1310,
      "cumulative": 1311,
      "confirm": 1312,
      "bordering": 1313,
      "join": 1314,
      "modifying": 1315,
      "similarly": 1316,
      "decorate": 1317,
      "makeup": 1318,
      "fissure": 1319,
      "photographed": 1320,
      "giant": 1321,
      "pockmarked": 1322,
      "differentiated": 1323,
      "hilly": 1324,
      "attribute": 1325,
      "scarps": 1326,
      "repeatedly": 1327,
      "positioning": 1328,
      "recognizable": 1329,
      "reflective": 1330,
      "sitting": 1331,
      "instance": 1332,
      "signify": 1333,
      "unified": 1334,
      "achieve": 1335,
      "mantled": 1336,
      "prior": 1337,
      "shallower": 1338,
      "disruptive": 1339,
      "distinction": 1340,
      "subside": 1341,
      "classification": 1342,
      "landform": 1343,
      "receive": 1344,
      "diagonally": 1345,
      "solidify": 1346,
      "directional": 1347,
      "intensive": 1348,
      "pile": 1349,
      "scarce": 1350,
      "stabilize": 1351,
      "consistently": 1352,
      "arcing": 1353,
      "angle": 1354,
      "collapse": 1355,
      "lobate": 1356,
      "pairing": 1357,
      "resolution": 1358,
      "effectively": 1359,
      "shaped": 1360,
      "continue": 1361,
      "study": 1362,
      "freshly": 1363,
      "track": 1364,
      "circle": 1365,
      "mid": 1366,
      "efbecf": 1367,
      "accretion": 1368,
      "tiere": 1369,
      "hue": 1370,
      "override": 1371,
      "definable": 1372,
      "immense": 1373,
      "puncture": 1374,
      "trench": 1375,
      "substratum": 1376,
      "upward": 1377,
      "profound": 1378,
      "incredibly": 1379,
      "provincial": 1380,
      "intricately": 1381,
      "vicinity": 1382,
      "terrace": 1383,
      "natural": 1384,
      "orient": 1385,
      "timing": 1386,
      "paleogeographical": 1387,
      "physically": 1388,
      "truncation": 1389,
      "bracket": 1390,
      "critical": 1391,
      "comprehensive": 1392,
      "melt": 1393,
      "lithosphere": 1394,
      "resting": 1395,
      "segmented": 1396,
      "visualized": 1397,
      "floored": 1398,
      "dent": 1399,
      "scour": 1400,
      "macro": 1401,
      "observation": 1402,
      "tranquil": 1403,
      "damaged": 1404,
      "ultimately": 1405,
      "underneath": 1406,
      "hill": 1407,
      "anomaly": 1408,
      "smoothing": 1409,
      "culminate": 1410,
      "condition": 1411,
      "dip": 1412,
      "unmappe": 1413,
      "mound": 1414,
      "abundance": 1415,
      "oldest": 1416,
      "escarpment": 1417,
      "summary": 1418,
      "bed": 1419,
      "meander": 1420,
      "intergrade": 1421,
      "flooded": 1422,
      "maturity": 1423,
      "impacted": 1424,
      "interrelationship": 1425,
      "highlands": 1426,
      "correlating": 1427,
      "obvious": 1428,
      "distant": 1429,
      "terracing": 1430,
      "distinguish": 1431,
      "burial": 1432,
      "terrains": 1433,
      "fold": 1434,
      "alteration": 1435,
      "principally": 1436,
      "outcropping": 1437,
      "tonal": 1438,
      "really": 1439,
      "photograph": 1440,
      "crosscut": 1441,
      "chronologically": 1442,
      "integrity": 1443,
      "imprint": 1444,
      "mysterious": 1445,
      "considerable": 1446,
      "resistance": 1447,
      "slump": 1448,
      "enclave": 1449,
      "placid": 1450,
      "sedimentary": 1451,
      "capping": 1452,
      "disseminate": 1453,
      "representative": 1454,
      "slice": 1455,
      "cratonal": 1456,
      "corridor": 1457,
      "indicating": 1458,
      "despite": 1459,
      "come": 1460,
      "chunk": 1461,
      "uncharacterized": 1462,
      "mottling": 1463,
      "cycle": 1464,
      "reflectivity": 1465,
      "dendritic": 1466,
      "intercrater": 1467,
      "organization": 1468,
      "lowermost": 1469,
      "interlock": 1470,
      "drop": 1471,
      "chronology": 1472,
      "roughly": 1473,
      "delineating": 1474,
      "jagged": 1475,
      "resurfaced": 1476,
      "dissected": 1477,
      "classified": 1478,
      "northernmost": 1479,
      "step": 1480,
      "gravitational": 1481,
      "panel": 1482,
      "batter": 1483,
      "steeply": 1484,
      "niche": 1485,
      "northw": 1486,
      "curving": 1487,
      "sporadic": 1488,
      "clean": 1489,
      "subdivide": 1490,
      "exclusive": 1491,
      "zero": 1492,
      "appearing": 1493,
      "overhead": 1494,
      "tiny": 1495,
      "systematic": 1496,
      "craton": 1497,
      "clustering": 1498,
      "sky": 1499,
      "butt": 1500,
      "pncu": 1501,
      "visualize": 1502,
      "mildly": 1503,
      "retain": 1504,
      "equally": 1505,
      "partly": 1506,
      "illumination": 1507,
      "overlapped": 1508,
      "variant": 1509,
      "unassigned": 1510,
      "existence": 1511,
      "severely": 1512,
      "tracery": 1513,
      "terminal": 1514,
      "repetitive": 1515,
      "riddled": 1516,
      "cavity": 1517,
      "virtually": 1518,
      "inscribe": 1519,
      "classic": 1520,
      "disposition": 1521,
      "elliptical": 1522,
      "analyze": 1523,
      "object": 1524,
      "tapestry": 1525,
      "intermediary": 1526,
      "percentage": 1527,
      "youthful": 1528,
      "continuously": 1529,
      "reflectance": 1530,
      "brilliant": 1531,
      "finely": 1532,
      "sectional": 1533,
      "bind": 1534,
      "ridging": 1535,
      "height": 1536,
      "dispersed": 1537,
      "permeate": 1538,
      "chunky": 1539,
      "impart": 1540,
      "quarter": 1541,
      "oriental": 1542,
      "relegate": 1543,
      "press": 1544,
      "battered": 1545,
      "channeling": 1546,
      "denote": 1547,
      "topmost": 1548,
      "provenance": 1549,
      "precede": 1550,
      "radiating": 1551,
      "regular": 1552,
      "canvas": 1553,
      "underpin": 1554,
      "comparable": 1555,
      "shared": 1556,
      "starkly": 1557,
      "extensional": 1558,
      "sinusoidal": 1559,
      "episodic": 1560,
      "clustered": 1561,
      "remainder": 1562,
      "note": 1563,
      "historically": 1564,
      "modifie": 1565,
      "extreme": 1566,
      "manifestation": 1567,
      "chaotic": 1568,
      "positioned": 1569,
      "gray": 1570,
      "detach": 1571,
      "softly": 1572,
      "typically": 1573,
      "match": 1574,
      "accent": 1575,
      "expression": 1576,
      "breadth": 1577,
      "illuminated": 1578,
      "visually": 1579,
      "style": 1580,
      "thing": 1581,
      "cliff": 1582,
      "pitting": 1583,
      "cyan": 1584,
      "unevenly": 1585,
      "newly": 1586,
      "infilled": 1587,
      "peak": 1588,
      "cosmic": 1589,
      "stacking": 1590,
      "interstice": 1591,
      "intercalate": 1592,
      "fashion": 1593,
      "teal": 1594,
      "designation": 1595,
      "intimately": 1596,
      "bridge": 1597,
      "interbedded": 1598,
      "descend": 1599,
      "outlying": 1600,
      "lineated": 1601,
      "mild": 1602,
      "rimmed": 1603,
      "geomorphological": 1604,
      "wholly": 1605,
      "terran": 1606,
      "connection": 1607,
      "ribbon": 1608,
      "lithologically": 1609,
      "transitionary": 1610,
      "forming": 1611,
      "severe": 1612,
      "interbedde": 1613,
      "marginalize": 1614,
      "pool": 1615,
      "lineamentation": 1616,
      "unbroken": 1617,
      "flatten": 1618,
      "denser": 1619,
      "saturated": 1620,
      "eon": 1621,
      "force": 1622,
      "stabilization": 1623,
      "terraplain": 1624,
      "trap": 1625,
      "package": 1626,
      "distal": 1627,
      "younger": 1628,
      "succeed": 1629,
      "juncture": 1630,
      "contrastingly": 1631,
      "fluvial": 1632,
      "conformable": 1633,
      "ubiquitous": 1634,
      "brownish": 1635,
      "sink": 1636,
      "dichotomy": 1637,
      "tell": 1638,
      "constant": 1639,
      "sentence": 1640,
      "meticulously": 1641,
      "variegated": 1642,
      "developed": 1643,
      "cratonic": 1644,
      "quiescent": 1645,
      "juxtaposing": 1646,
      "illuminate": 1647,
      "encompassing": 1648,
      "isolation": 1649,
      "powerful": 1650,
      "slight": 1651,
      "interconnected": 1652,
      "faintly": 1653,
      "integral": 1654,
      "definitive": 1655,
      "zonation": 1656,
      "formational": 1657,
      "impinge": 1658,
      "celestial": 1659,
      "world": 1660,
      "save": 1661,
      "proximate": 1662,
      "eventually": 1663,
      "outside": 1664,
      "coexist": 1665,
      "termination": 1666,
      "collisional": 1667,
      "untouched": 1668,
      "unconformably": 1669,
      "paleogeographic": 1670,
      "discretely": 1671,
      "raised": 1672,
      "rare": 1673,
      "enveloping": 1674,
      "branching": 1675,
      "apart": 1676,
      "interpretation": 1677,
      "rifte": 1678,
      "certain": 1679,
      "photo": 1680,
      "document": 1681,
      "unnamed": 1682,
      "complexes": 1683,
      "embrace": 1684,
      "energy": 1685,
      "spaced": 1686,
      "northward": 1687,
      "traversal": 1688,
      "apron": 1689,
      "subjacent": 1690,
      "abutted": 1691,
      "hemisphere": 1692,
      "youngest": 1693,
      "mask": 1694,
      "available": 1695,
      "blanketed": 1696,
      "ffffbe": 1697,
      "soften": 1698,
      "folding": 1699,
      "sprawling": 1700,
      "profoundly": 1701,
      "variance": 1702,
      "predate": 1703,
      "individual": 1704,
      "durable": 1705,
      "scope": 1706,
      "curvature": 1707,
      "absolute": 1708,
      "sporadically": 1709,
      "definite": 1710,
      "dynamically": 1711,
      "constituent": 1712,
      "transitionally": 1713,
      "troughing": 1714,
      "end": 1715,
      "presenting": 1716,
      "input": 1717,
      "depocenter": 1718,
      "brittle": 1719,
      "magmatic": 1720,
      "amorphous": 1721,
      "larger": 1722,
      "protect": 1723,
      "indentation": 1724,
      "disconnected": 1725,
      "constraint": 1726,
      "fifth": 1727,
      "happen": 1728,
      "compartmentalized": 1729,
      "contribution": 1730,
      "complicated": 1731,
      "flowage": 1732,
      "defined": 1733,
      "walled": 1734,
      "signature": 1735,
      "just": 1736,
      "sectorial": 1737,
      "locus": 1738,
      "coastal": 1739,
      "consistency": 1740,
      "preserved": 1741,
      "vista": 1742,
      "impacting": 1743,
      "irregularity": 1744,
      "connected": 1745,
      "engulf": 1746,
      "thinly": 1747,
      "edifice": 1748,
      "ffccbd": 1749,
      "apparently": 1750,
      "depositionally": 1751,
      "interweave": 1752,
      "minuscule": 1753,
      "addition": 1754,
      "constantly": 1755,
      "shelter": 1756,
      "draping": 1757,
      "containment": 1758,
      "commence": 1759,
      "heterogenous": 1760,
      "exterior": 1761,
      "darkly": 1762,
      "leveling": 1763,
      "apenninu": 1764,
      "liquid": 1765,
      "voids": 1766,
      "snugly": 1767,
      "layout": 1768,
      "quiescence": 1769,
      "violent": 1770,
      "coexistence": 1771,
      "volume": 1772,
      "final": 1773,
      "sided": 1774,
      "crat": 1775,
      "independently": 1776,
      "speckled": 1777,
      "geostructure": 1778,
      "impression": 1779,
      "combined": 1780,
      "thickness": 1781,
      "separator": 1782,
      "pocketed": 1783,
      "delimited": 1784,
      "confining": 1785,
      "detectable": 1786,
      "considerably": 1787,
      "ray": 1788,
      "transversely": 1789,
      "messy": 1790,
      "peaceful": 1791,
      "sharper": 1792,
      "cratographic": 1793,
      "inlier": 1794,
      "story": 1795,
      "submerge": 1796,
      "reinforce": 1797,
      "zoning": 1798,
      "depiction": 1799,
      "photographic": 1800,
      "contextualize": 1801,
      "craterize": 1802,
      "luminous": 1803,
      "tie": 1804,
      "hinting": 1805,
      "carving": 1806,
      "exceptionally": 1807,
      "width": 1808,
      "unmarked": 1809,
      "refine": 1810,
      "darkest": 1811,
      "advanced": 1812,
      "interpose": 1813,
      "coloration": 1814,
      "sprinkle": 1815,
      "complementary": 1816,
      "intermixed": 1817,
      "purplish": 1818,
      "northerly": 1819,
      "traversing": 1820,
      "textual": 1821,
      "radar": 1822,
      "discordance": 1823,
      "surprisingly": 1824,
      "loci": 1825,
      "picture": 1826,
      "house": 1827,
      "constrained": 1828,
      "superjacent": 1829,
      "preexist": 1830,
      "margine": 1831,
      "continued": 1832,
      "basally": 1833,
      "ridgeline": 1834,
      "sinuosity": 1835,
      "mar": 1836,
      "fascinating": 1837,
      "southernmost": 1838,
      "distance": 1839,
      "encompasse": 1840,
      "infiltrate": 1841,
      "simultaneously": 1842,
      "adjoined": 1843,
      "measured": 1844,
      "lithospheric": 1845,
      "sudden": 1846,
      "radially": 1847,
      "enclosed": 1848,
      "start": 1849,
      "beginning": 1850,
      "characterized": 1851,
      "darkness": 1852,
      "white": 1853,
      "ago": 1854,
      "conspicuously": 1855,
      "cratogenic": 1856,
      "accrete": 1857,
      "eolian": 1858,
      "intergrading": 1859,
      "tracing": 1860,
      "backbone": 1861,
      "strange": 1862,
      "busy": 1863,
      "chemically": 1864,
      "topology": 1865,
      "planation": 1866,
      "gather": 1867,
      "buttress": 1868,
      "unresolved": 1869,
      "southw": 1870,
      "bump": 1871,
      "displacement": 1872,
      "centralize": 1873,
      "marginalized": 1874,
      "detached": 1875,
      "settling": 1876,
      "troughe": 1877,
      "buffer": 1878,
      "jointing": 1879,
      "resilient": 1880,
      "focused": 1881,
      "quasi": 1882,
      "mingle": 1883,
      "representation": 1884,
      "opposite": 1885,
      "contoured": 1886,
      "ridged": 1887,
      "flex": 1888,
      "incidental": 1889,
      "impactful": 1890,
      "ocean": 1891,
      "testify": 1892,
      "bit": 1893,
      "score": 1894,
      "disjunct": 1895,
      "embedded": 1896,
      "mareal": 1897,
      "cop": 1898,
      "interwoven": 1899,
      "building": 1900,
      "interacting": 1901,
      "micro": 1902,
      "buildup": 1903,
      "masking": 1904,
      "bedding": 1905,
      "weathering": 1906,
      "explore": 1907,
      "nexus": 1908,
      "fainter": 1909,
      "periods": 1910,
      "drive": 1911,
      "strictly": 1912,
      "unexplored": 1913,
      "anciently": 1914,
      "encircled": 1915,
      "percent": 1916,
      "tuck": 1917,
      "reticulated": 1918,
      "downslope": 1919,
      "narrower": 1920,
      "add": 1921,
      "hand": 1922,
      "punctiform": 1923,
      "undulatory": 1924,
      "resilience": 1925,
      "unusual": 1926,
      "axis": 1927,
      "crusty": 1928,
      "pervade": 1929,
      "lithologic": 1930,
      "volumetrically": 1931,
      "segregation": 1932,
      "enormous": 1933,
      "overriding": 1934,
      "lacking": 1935,
      "confinement": 1936,
      "endure": 1937,
      "undeveloped": 1938,
      "centerpiece": 1939,
      "stud": 1940,
      "dissimilar": 1941,
      "craterized": 1942,
      "distinguishable": 1943,
      "blu": 1944,
      "dimension": 1945,
      "uncertain": 1946,
      "effusive": 1947,
      "muted": 1948,
      "viscosity": 1949,
      "accretionary": 1950,
      "length": 1951,
      "frontier": 1952,
      "superficially": 1953,
      "crown": 1954,
      "impress": 1955,
      "striping": 1956,
      "precursor": 1957,
      "physiography": 1958,
      "magnitude": 1959,
      "occasional": 1960,
      "unclear": 1961,
      "presume": 1962,
      "unitized": 1963,
      "reshape": 1964,
      "outlining": 1965,
      "impressed": 1966,
      "sectioned": 1967,
      "cratization": 1968,
      "supplementary": 1969,
      "symmetrically": 1970,
      "tessellated": 1971,
      "intrinsically": 1972,
      "ilcu": 1973,
      "cause": 1974,
      "floodplain": 1975,
      "greener": 1976,
      "postdate": 1977,
      "terminus": 1978,
      "greenish": 1979,
      "altitude": 1980,
      "focal": 1981,
      "shearing": 1982,
      "conformably": 1983,
      "setup": 1984,
      "order": 1985,
      "affected": 1986,
      "overridden": 1987,
      "beautiful": 1988,
      "unconformitie": 1989,
      "unclassifie": 1990,
      "scratch": 1991,
      "exhibiting": 1992,
      "basinward": 1993,
      "accreted": 1994,
      "intermittently": 1995,
      "upheaval": 1996,
      "contrastive": 1997,
      "peppering": 1998,
      "vivid": 1999,
      "meteoritic": 2000,
      "eratostosthenian": 2001,
      "geomorphically": 2002,
      "recessed": 2003,
      "bordure": 2004,
      "feel": 2005,
      "lead": 2006,
      "anastomose": 2007,
      "faceted": 2008,
      "manifesting": 2009,
      "register": 2010,
      "interdigitating": 2011,
      "neat": 2012,
      "stream": 2013,
      "crease": 2014,
      "jointly": 2015,
      "drapery": 2016,
      "coherence": 2017,
      "tension": 2018,
      "recording": 2019,
      "featured": 2020,
      "proximally": 2021,
      "successively": 2022,
      "action": 2023,
      "progressively": 2024,
      "intermediately": 2025,
      "approach": 2026,
      "remarkable": 2027,
      "bathymetry": 2028,
      "sunken": 2029,
      "encircling": 2030,
      "diversity": 2031,
      "nodule": 2032,
      "southerly": 2033,
      "flattish": 2034,
      "multilayere": 2035,
      "multifaceted": 2036,
      "abstract": 2037,
      "envelope": 2038,
      "stretching": 2039,
      "downwards": 2040,
      "lavas": 2041,
      "intermontane": 2042,
      "tessellate": 2043,
      "intermixing": 2044,
      "manner": 2045,
      "foregound": 2046,
      "asymmetrical": 2047,
      "eratosthene": 2048,
      "explicitly": 2049,
      "weathered": 2050,
      "knobbly": 2051,
      "today": 2052,
      "contemporaneous": 2053,
      "interdigitated": 2054,
      "curtain": 2055,
      "trail": 2056,
      "browner": 2057,
      "multitude": 2058,
      "rima": 2059,
      "intimate": 2060,
      "peach": 2061,
      "inland": 2062,
      "mauve": 2063,
      "template": 2064,
      "interval": 2065,
      "amid": 2066,
      "superimposite": 2067,
      "shelf": 2068,
      "juxtapositionally": 2069,
      "bearing": 2070,
      "overwrite": 2071,
      "outlined": 2072,
      "tensional": 2073,
      "yellowish": 2074,
      "cratography": 2075,
      "unify": 2076,
      "pntu": 2077,
      "unsegmented": 2078,
      "developmental": 2079,
      "ambiguous": 2080,
      "punctually": 2081,
      "protract": 2082,
      "acoustic": 2083,
      "zonal": 2084,
      "palimpsest": 2085,
      "archaic": 2086,
      "incising": 2087,
      "etched": 2088,
      "longitudinally": 2089,
      "framing": 2090,
      "geologist": 2091,
      "fragmentary": 2092,
      "ubiquitously": 2093,
      "predominance": 2094,
      "bookende": 2095,
      "hiatus": 2096,
      "proceed": 2097,
      "intrusive": 2098,
      "collide": 2099,
      "demonstrating": 2100,
      "yield": 2101,
      "cratocracy": 2102,
      "westward": 2103,
      "regionalize": 2104,
      "rimae": 2105,
      "recognize": 2106,
      "sparingly": 2107,
      "comprising": 2108,
      "serpentine": 2109,
      "determine": 2110,
      "composed": 2111,
      "easily": 2112,
      "draw": 2113,
      "originating": 2114,
      "suddenly": 2115,
      "conjunction": 2116,
      "wasting": 2117,
      "filled": 2118,
      "seamless": 2119,
      "adhere": 2120,
      "junctional": 2121,
      "wrapping": 2122,
      "understand": 2123,
      "frequent": 2124,
      "relic": 2125,
      "patchily": 2126,
      "closed": 2127,
      "cracking": 2128,
      "studied": 2129,
      "jumble": 2130,
      "umu": 2131,
      "convex": 2132,
      "prevalence": 2133,
      "bipartite": 2134,
      "allow": 2135,
      "vestige": 2136,
      "contrasted": 2137,
      "exceedingly": 2138,
      "rectilinear": 2139,
      "differing": 2140,
      "tessellation": 2141,
      "hug": 2142,
      "materially": 2143,
      "visualization": 2144,
      "correlation": 2145,
      "lend": 2146,
      "paleosurface": 2147,
      "comprehensively": 2148,
      "grading": 2149,
      "periodically": 2150,
      "laminate": 2151,
      "assemble": 2152,
      "clumpy": 2153,
      "reworking": 2154,
      "ultimate": 2155,
      "amplitude": 2156,
      "nuance": 2157,
      "lilac": 2158,
      "flux": 2159,
      "morphologically": 2160,
      "realm": 2161,
      "energetic": 2162,
      "uplifting": 2163,
      "juxtapositional": 2164,
      "tough": 2165,
      "waste": 2166,
      "abduct": 2167,
      "pervasively": 2168,
      "cratereous": 2169,
      "scarring": 2170,
      "consisting": 2171,
      "juxtapositioned": 2172,
      "mechanism": 2173,
      "degrading": 2174,
      "divider": 2175,
      "vestigial": 2176,
      "planate": 2177,
      "alp": 2178,
      "rapid": 2179,
      "chiefly": 2180,
      "texturing": 2181,
      "shaping": 2182,
      "intercalation": 2183,
      "significance": 2184,
      "progressing": 2185,
      "visibility": 2186,
      "enhance": 2187,
      "evolve": 2188,
      "definitional": 2189,
      "incision": 2190,
      "sinusoidally": 2191,
      "geoscape": 2192,
      "work": 2193,
      "rigid": 2194,
      "pigment": 2195,
      "unspecified": 2196,
      "blanketing": 2197,
      "marker": 2198,
      "polygenetic": 2199,
      "imposition": 2200,
      "marine": 2201,
      "drastically": 2202,
      "eruptive": 2203,
      "transgression": 2204,
      "property": 2205,
      "coeval": 2206,
      "row": 2207,
      "conduit": 2208,
      "semicircular": 2209,
      "rework": 2210,
      "basinary": 2211,
      "cod": 2212,
      "pancake": 2213,
      "triangular": 2214,
      "jut": 2215,
      "satellite": 2216,
      "depicted": 2217,
      "trajectory": 2218,
      "sample": 2219,
      "discern": 2220,
      "interactional": 2221,
      "ntu": 2222,
      "displace": 2223,
      "suture": 2224,
      "counterbalance": 2225,
      "coalescing": 2226,
      "epochal": 2227,
      "vein": 2228,
      "paired": 2229,
      "serving": 2230,
      "gradation": 2231,
      "intermare": 2232,
      "creation": 2233,
      "prehistoric": 2234,
      "westernmost": 2235,
      "direction": 2236,
      "modeled": 2237,
      "identifie": 2238,
      "indistinct": 2239,
      "bookend": 2240,
      "encroaching": 2241,
      "meaning": 2242,
      "superposing": 2243,
      "transversally": 2244,
      "sparser": 2245,
      "prevailing": 2246,
      "intermittent": 2247,
      "fully": 2248,
      "characterization": 2249,
      "deviation": 2250,
      "naturally": 2251,
      "punctuation": 2252,
      "rockier": 2253,
      "unidentifiable": 2254,
      "column": 2255,
      "coastline": 2256,
      "borde": 2257,
      "brighten": 2258,
      "important": 2259,
      "beautifully": 2260,
      "incipient": 2261,
      "ovoid": 2262,
      "uncharted": 2263,
      "crumpled": 2264,
      "quantity": 2265,
      "timescale": 2266,
      "perfectly": 2267,
      "patchworked": 2268,
      "enclosing": 2269,
      "acreage": 2270,
      "architecturally": 2271,
      "assume": 2272,
      "super": 2273,
      "oval": 2274,
      "orientation": 2275,
      "stratiform": 2276,
      "minority": 2277,
      "squeeze": 2278,
      "adiacent": 2279,
      "saddle": 2280,
      "variously": 2281,
      "accretional": 2282,
      "offer": 2283,
      "inset": 2284,
      "superpositioning": 2285,
      "embayment": 2286,
      "adjunct": 2287,
      "flatland": 2288,
      "require": 2289,
      "nectaria": 2290,
      "characteristically": 2291,
      "intriguing": 2292,
      "node": 2293,
      "scallop": 2294,
      "uplands": 2295,
      "regard": 2296,
      "continuation": 2297,
      "ventrally": 2298,
      "merging": 2299,
      "basic": 2300,
      "localization": 2301,
      "paleogeography": 2302,
      "hard": 2303,
      "known": 2304,
      "positional": 2305,
      "mitigate": 2306,
      "perfect": 2307,
      "synchronous": 2308,
      "oblique": 2309,
      "actively": 2310,
      "violet": 2311,
      "antiquity": 2312,
      "cratervation": 2313,
      "vigorous": 2314,
      "cratonization": 2315,
      "borders": 2316,
      "finish": 2317,
      "modest": 2318,
      "eratosthenia": 2319,
      "intrusionally": 2320,
      "craterogenic": 2321,
      "intersectional": 2322,
      "marginate": 2323,
      "geomorphologically": 2324,
      "motif": 2325,
      "genesis": 2326,
      "meteorite": 2327,
      "bathymetric": 2328,
      "stag": 2329,
      "interbed": 2330,
      "abyssal": 2331,
      "breach": 2332,
      "restructuring": 2333,
      "exactly": 2334,
      "target": 2335,
      "speak": 2336,
      "lcu": 2337,
      "mappable": 2338,
      "iumu": 2339,
      "confluent": 2340,
      "geochronological": 2341,
      "petrographic": 2342,
      "coalesce": 2343,
      "rnican": 2344,
      "oddly": 2345,
      "snake": 2346,
      "susceptibility": 2347,
      "rounder": 2348,
      "maximum": 2349,
      "warm": 2350,
      "planet": 2351,
      "rib": 2352,
      "varie": 2353,
      "difficult": 2354,
      "opening": 2355,
      "undeformed": 2356,
      "desolate": 2357,
      "narrowly": 2358,
      "versus": 2359,
      "punctual": 2360,
      "uniquely": 2361,
      "tilting": 2362,
      "obliterate": 2363,
      "couple": 2364,
      "devoid": 2365,
      "exceptional": 2366,
      "adacency": 2367,
      "catch": 2368,
      "grooved": 2369,
      "attach": 2370,
      "preferentially": 2371,
      "fitting": 2372,
      "cratospheric": 2373,
      "crate": 2374,
      "granular": 2375,
      "simply": 2376,
      "regardless": 2377,
      "effect": 2378,
      "restrictively": 2379,
      "channelize": 2380,
      "resist": 2381,
      "terminator": 2382,
      "undercut": 2383,
      "overrode": 2384,
      "depressionary": 2385,
      "ifu": 2386,
      "meteor": 2387,
      "barrier": 2388,
      "inhabit": 2389,
      "richly": 2390,
      "lowest": 2391,
      "think": 2392,
      "interlocking": 2393,
      "scan": 2394,
      "circumscribing": 2395,
      "mineralogical": 2396,
      "craterevent": 2397,
      "gardening": 2398,
      "complexifie": 2399,
      "observational": 2400,
      "intrinsic": 2401,
      "jumbled": 2402,
      "crumple": 2403,
      "punch": 2404,
      "unconformable": 2405,
      "resembling": 2406,
      "outpouring": 2407,
      "crateroid": 2408,
      "allochthonous": 2409,
      "highest": 2410,
      "depositionary": 2411,
      "ridden": 2412,
      "primordial": 2413,
      "adjustment": 2414,
      "overprinted": 2415,
      "sculpting": 2416,
      "magenta": 2417,
      "subunit": 2418,
      "interesting": 2419,
      "need": 2420,
      "packed": 2421,
      "coarse": 2422,
      "flattening": 2423,
      "interfingere": 2424,
      "push": 2425,
      "terrae": 2426,
      "resolve": 2427,
      "quality": 2428,
      "planimetric": 2429,
      "descent": 2430,
      "focus": 2431,
      "particular": 2432,
      "crisscrossing": 2433,
      "constituting": 2434,
      "construction": 2435,
      "caprock": 2436,
      "tectonism": 2437,
      "speck": 2438,
      "wash": 2439,
      "interlace": 2440,
      "finer": 2441,
      "demonstrable": 2442,
      "seated": 2443,
      "self": 2444,
      "correction": 2445,
      "borderland": 2446,
      "shading": 2447,
      "situ": 2448,
      "prone": 2449,
      "content": 2450,
      "shield": 2451,
      "slowly": 2452,
      "modifier": 2453,
      "stabilized": 2454,
      "uncratered": 2455,
      "extended": 2456,
      "reflector": 2457,
      "freeze": 2458,
      "stop": 2459,
      "comparison": 2460,
      "tongue": 2461,
      "thoroughly": 2462,
      "dusky": 2463,
      "lining": 2464,
      "canyon": 2465,
      "live": 2466,
      "mechanic": 2467,
      "sense": 2468,
      "measurable": 2469,
      "compartment": 2470,
      "basinal": 2471,
      "hosting": 2472,
      "negligibly": 2473,
      "strain": 2474,
      "sustain": 2475,
      "manif": 2476,
      "subordinately": 2477,
      "sim": 2478,
      "primitive": 2479,
      "sequester": 2480,
      "cratometric": 2481,
      "grey": 2482,
      "ncu": 2483,
      "effusion": 2484,
      "gigantic": 2485,
      "integrated": 2486,
      "vastness": 2487,
      "amalgamation": 2488,
      "rightward": 2489,
      "replace": 2490,
      "hierarchical": 2491,
      "project": 2492,
      "contours": 2493,
      "lowerermost": 2494,
      "weave": 2495,
      "poly": 2496,
      "contextual": 2497,
      "critically": 2498,
      "encapsulation": 2499,
      "embaye": 2500,
      "oppose": 2501,
      "approx": 2502,
      "allocate": 2503,
      "infillation": 2504,
      "lithic": 2505,
      "barely": 2506,
      "cratometrically": 2507,
      "instead": 2508,
      "conclude": 2509,
      "baseline": 2510,
      "effort": 2511,
      "ambient": 2512,
      "dissection": 2513,
      "pluvial": 2514,
      "refinement": 2515,
      "harbor": 2516,
      "protrusion": 2517,
      "coordinate": 2518,
      "seismic": 2519,
      "paleolunar": 2520,
      "container": 2521,
      "dispose": 2522,
      "legend": 2523,
      "suite": 2524,
      "crestal": 2525,
      "cryater": 2526,
      "eruption": 2527,
      "exteriorly": 2528,
      "formative": 2529,
      "annulus": 2530,
      "compartmentalization": 2531,
      "narrowest": 2532,
      "cratereze": 2533,
      "inward": 2534,
      "sharing": 2535,
      "macrostructure": 2536,
      "merely": 2537,
      "plan": 2538,
      "orbital": 2539,
      "preclude": 2540,
      "superpositionally": 2541,
      "iteration": 2542,
      "affinity": 2543,
      "polygonal": 2544,
      "investigation": 2545,
      "ipu": 2546,
      "insular": 2547,
      "construct": 2548,
      "subsiding": 2549,
      "laced": 2550,
      "tracework": 2551,
      "engulfs": 2552,
      "brecciation": 2553,
      "multigenic": 2554,
      "environmental": 2555,
      "exemplify": 2556,
      "broadest": 2557,
      "erosionally": 2558,
      "deviate": 2559,
      "steeper": 2560,
      "equatorially": 2561,
      "minorly": 2562,
      "ephemeral": 2563,
      "angularly": 2564,
      "repose": 2565,
      "curvilinearly": 2566,
      "oblong": 2567,
      "flowplain": 2568,
      "accurately": 2569,
      "incorporation": 2570,
      "observer": 2571,
      "purely": 2572,
      "unresurfaced": 2573,
      "plaineau": 2574,
      "preferential": 2575,
      "convoluted": 2576,
      "attenuated": 2577,
      "interrupted": 2578,
      "acute": 2579,
      "persistence": 2580,
      "consider": 2581,
      "interbedding": 2582,
      "slumping": 2583,
      "olive": 2584,
      "truncated": 2585,
      "placer": 2586,
      "course": 2587,
      "occupation": 2588,
      "imbapenninu": 2589,
      "crowded": 2590,
      "impedance": 2591,
      "formally": 2592,
      "completeness": 2593,
      "dash": 2594,
      "fluidic": 2595,
      "eratostrian": 2596,
      "maroon": 2597,
      "ochre": 2598,
      "arching": 2599,
      "reticulate": 2600,
      "unusually": 2601,
      "underlain": 2602,
      "predominate": 2603,
      "panoramic": 2604,
      "clast": 2605,
      "texturize": 2606,
      "distinguishe": 2607,
      "shortly": 2608,
      "infillate": 2609,
      "exception": 2610,
      "lime": 2611,
      "unmixed": 2612,
      "pinkish": 2613,
      "distally": 2614,
      "unlit": 2615,
      "measurement": 2616,
      "catchment": 2617,
      "paleosol": 2618,
      "average": 2619,
      "easy": 2620,
      "compromise": 2621,
      "juxtapositione": 2622,
      "homogenize": 2623,
      "randomly": 2624,
      "imposing": 2625,
      "impactary": 2626,
      "topographie": 2627,
      "address": 2628,
      "tier": 2629,
      "materialize": 2630,
      "quickly": 2631,
      "deformed": 2632,
      "pnu": 2633,
      "clarify": 2634,
      "boundarying": 2635,
      "initiate": 2636,
      "connectivity": 2637,
      "slate": 2638,
      "proto": 2639,
      "unseen": 2640,
      "prompt": 2641,
      "fling": 2642,
      "traceable": 2643,
      "diminutive": 2644,
      "cratereation": 2645,
      "patina": 2646,
      "truncating": 2647,
      "tend": 2648,
      "reminiscent": 2649,
      "differentiating": 2650,
      "leading": 2651,
      "fluting": 2652,
      "uplisted": 2653,
      "chronostratigraphic": 2654,
      "polished": 2655,
      "rebuild": 2656,
      "utilize": 2657,
      "apennine": 2658,
      "slender": 2659,
      "superimimpose": 2660,
      "smash": 2661,
      "montane": 2662,
      "inactive": 2663,
      "lacuna": 2664,
      "neighborhood": 2665,
      "nicely": 2666,
      "straddle": 2667,
      "interfinger": 2668,
      "cratertopic": 2669,
      "disturbance": 2670,
      "tectonized": 2671,
      "terraforme": 2672,
      "predictable": 2673,
      "persist": 2674,
      "rippling": 2675,
      "mas": 2676,
      "aqua": 2677,
      "adajce": 2678,
      "enclaved": 2679,
      "plaines": 2680,
      "facade": 2681,
      "intermareal": 2682,
      "clutter": 2683,
      "mega": 2684,
      "excellent": 2685,
      "recession": 2686,
      "merge": 2687,
      "increase": 2688,
      "passing": 2689,
      "implantation": 2690,
      "lineage": 2691,
      "identity": 2692,
      "inconsequential": 2693,
      "undifferentiate": 2694,
      "epeirogenic": 2695,
      "unmodeled": 2696,
      "forefront": 2697,
      "solidified": 2698,
      "plateaued": 2699,
      "request": 2700,
      "outflowe": 2701,
      "intrusionary": 2702,
      "hem": 2703,
      "undocumented": 2704,
      "flowover": 2705,
      "peaked": 2706,
      "palimps": 2707,
      "roughen": 2708,
      "abuttimg": 2709,
      "free": 2710,
      "longevity": 2711,
      "fairly": 2712,
      "passive": 2713,
      "infer": 2714,
      "exhibits": 2715,
      "mediating": 2716,
      "deform": 2717,
      "craterion": 2718,
      "foreland": 2719,
      "uplanded": 2720,
      "trackuate": 2721,
      "envelopment": 2722,
      "craters": 2723,
      "landing": 2724,
      "erupted": 2725,
      "bolide": 2726,
      "abuttale": 2727,
      "graceful": 2728,
      "subsident": 2729,
      "unlabeled": 2730,
      "cratiform": 2731,
      "viewable": 2732,
      "ruggedize": 2733,
      "facing": 2734,
      "uninterrupte": 2735,
      "seam": 2736,
      "testifying": 2737,
      "diagonal": 2738,
      "peneplaine": 2739,
      "dating": 2740,
      "lumpy": 2741,
      "ensemble": 2742,
      "arid": 2743,
      "featurization": 2744,
      "bold": 2745,
      "paleoterrane": 2746,
      "naris": 2747,
      "erupt": 2748,
      "strategically": 2749,
      "troughy": 2750,
      "mention": 2751,
      "alpine": 2752,
      "encasement": 2753,
      "historic": 2754,
      "landframe": 2755,
      "undergoing": 2756,
      "clifftop": 2757,
      "pave": 2758,
      "plate": 2759,
      "stressed": 2760,
      "partitioning": 2761,
      "immensely": 2762,
      "transfer": 2763,
      "interfacial": 2764,
      "vividly": 2765,
      "reform": 2766,
      "aligned": 2767,
      "chalky": 2768,
      "massy": 2769,
      "maybe": 2770,
      "glimpse": 2771,
      "mainland": 2772,
      "carefully": 2773,
      "firmly": 2774,
      "inactivate": 2775,
      "perpendicular": 2776,
      "waviness": 2777,
      "swarm": 2778,
      "elaborate": 2779,
      "accreting": 2780,
      "crowd": 2781,
      "unevenness": 2782,
      "wiggly": 2783,
      "outwash": 2784,
      "preexisting": 2785,
      "swirl": 2786,
      "distinctiveness": 2787,
      "shallowest": 2788,
      "protective": 2789,
      "masif": 2790,
      "jigsaw": 2791,
      "plaineutnic": 2792,
      "exposing": 2793,
      "limiting": 2794,
      "intrigue": 2795,
      "peripheraly": 2796,
      "topologically": 2797,
      "creamy": 2798,
      "accumulated": 2799,
      "sculptured": 2800,
      "isn": 2801,
      "generation": 2802,
      "experienced": 2803,
      "dropping": 2804,
      "channelized": 2805,
      "complexify": 2806,
      "equator": 2807,
      "undulated": 2808,
      "synthesis": 2809,
      "raw": 2810,
      "unexplained": 2811,
      "sculpted": 2812,
      "immbrian": 2813,
      "believe": 2814,
      "contemporaneity": 2815,
      "prevent": 2816,
      "highlighting": 2817,
      "designated": 2818,
      "cratonize": 2819,
      "cluttered": 2820,
      "vegetate": 2821,
      "interconnection": 2822,
      "pull": 2823,
      "alternating": 2824,
      "moonscape": 2825,
      "adorn": 2826,
      "cratereventation": 2827,
      "universally": 2828,
      "unstructured": 2829,
      "gravitationally": 2830,
      "overrides": 2831,
      "brecciated": 2832,
      "eye": 2833,
      "tall": 2834,
      "imbed": 2835,
      "ting": 2836,
      "preserving": 2837,
      "linealitie": 2838,
      "quietly": 2839,
      "calmer": 2840,
      "rnic": 2841,
      "earth": 2842,
      "omfu": 2843,
      "chronologic": 2844,
      "bay": 2845,
      "brightest": 2846,
      "pond": 2847,
      "unfamiliar": 2848,
      "arched": 2849,
      "starker": 2850,
      "amazing": 2851,
      "attest": 2852,
      "mold": 2853,
      "inflow": 2854,
      "mirror": 2855,
      "plainest": 2856,
      "plainward": 2857,
      "concurrently": 2858,
      "ancestral": 2859,
      "knowledge": 2860,
      "stripes": 2861,
      "turquoise": 2862,
      "dimmer": 2863,
      "clarity": 2864,
      "units": 2865,
      "luminosity": 2866,
      "unable": 2867,
      "specify": 2868,
      "harsh": 2869,
      "float": 2870,
      "write": 2871,
      "stone": 2872,
      "underground": 2873,
      "renew": 2874,
      "quadrilateral": 2875,
      "flowing": 2876,
      "basinally": 2877,
      "transsect": 2878,
      "invert": 2879,
      "blocks": 2880,
      "pour": 2881,
      "warp": 2882,
      "dried": 2883,
      "anomalous": 2884,
      "geochronologic": 2885,
      "fade": 2886,
      "lain": 2887,
      "grayish": 2888,
      "conceal": 2889,
      "catastrophic": 2890,
      "hide": 2891,
      "materials": 2892,
      "evente": 2893,
      "thickening": 2894,
      "juxtapostion": 2895,
      "negative": 2896,
      "glowing": 2897,
      "arced": 2898,
      "rniccan": 2899,
      "stratal": 2900,
      "finger": 2901,
      "discordantly": 2902,
      "jag": 2903,
      "marea": 2904,
      "neo": 2905,
      "distinguishing": 2906,
      "impactation": 2907,
      "depositionational": 2908,
      "enter": 2909,
      "disparity": 2910,
      "coincide": 2911,
      "groundmass": 2912,
      "terranes": 2913,
      "flexure": 2914,
      "unfragmente": 2915,
      "residue": 2916,
      "crusts": 2917,
      "uncolored": 2918,
      "matrice": 2919,
      "abyss": 2920,
      "deformational": 2921,
      "admixture": 2922,
      "hyper": 2923,
      "craterary": 2924,
      "marginize": 2925,
      "redefine": 2926,
      "accurate": 2927,
      "pervading": 2928,
      "shiny": 2929,
      "concentrically": 2930,
      "flatness": 2931,
      "suffer": 2932,
      "burst": 2933,
      "tangential": 2934,
      "tidal": 2935,
      "plaineous": 2936,
      "excavated": 2937,
      "organized": 2938,
      "securely": 2939,
      "outlier": 2940,
      "abuttal": 2941,
      "paleotopographic": 2942,
      "pockmarking": 2943,
      "ill": 2944,
      "discernable": 2945,
      "blockier": 2946,
      "resurgence": 2947,
      "faci": 2948,
      "concern": 2949,
      "aeolian": 2950,
      "bedded": 2951,
      "peneplanation": 2952,
      "asteroid": 2953,
      "violence": 2954,
      "transitionalize": 2955,
      "timeframe": 2956,
      "spill": 2957,
      "loading": 2958,
      "perform": 2959,
      "lifetime": 2960,
      "intercept": 2961,
      "battlefield": 2962,
      "extremity": 2963,
      "clearing": 2964,
      "placial": 2965,
      "scission": 2966,
      "relict": 2967,
      "crustally": 2968,
      "forceful": 2969,
      "chasm": 2970,
      "characteristics": 2971,
      "settlement": 2972,
      "artifact": 2973,
      "furth": 2974,
      "presently": 2975,
      "bread": 2976,
      "overlaps": 2977,
      "inferiormost": 2978,
      "unifying": 2979,
      "ride": 2980,
      "rnician": 2981,
      "peripheralize": 2982,
      "folded": 2983,
      "blackness": 2984,
      "cartographic": 2985,
      "stick": 2986,
      "impactomorphology": 2987,
      "affecting": 2988,
      "lightness": 2989,
      "obscuring": 2990,
      "imbria": 2991,
      "mobile": 2992,
      "rugose": 2993,
      "photographically": 2994,
      "plow": 2995,
      "orderly": 2996,
      "phasing": 2997,
      "unequal": 2998,
      "overwash": 2999,
      "tide": 3000,
      "linearament": 3001,
      "seamlessly": 3002,
      "renewal": 3003,
      "compound": 3004,
      "cornered": 3005,
      "bank": 3006,
      "mareic": 3007,
      "longitudinal": 3008,
      "infillment": 3009,
      "eccentrically": 3010,
      "dispersal": 3011,
      "slide": 3012,
      "intermingled": 3013,
      "fidelity": 3014,
      "circulate": 3015,
      "maturely": 3016,
      "patchworke": 3017,
      "discreetly": 3018,
      "crescentically": 3019,
      "sliver": 3020,
      "lastly": 3021,
      "unrelated": 3022,
      "lange": 3023,
      "lake": 3024,
      "regularly": 3025,
      "play": 3026,
      "irregularitie": 3027,
      "assortment": 3028,
      "epochally": 3029,
      "poke": 3030,
      "breccial": 3031,
      "adacencie": 3032,
      "bathin": 3033,
      "ensconce": 3034,
      "cratery": 3035,
      "capacity": 3036,
      "wild": 3037,
      "totally": 3038,
      "propagate": 3039,
      "secondarily": 3040,
      "relaxation": 3041,
      "nbm": 3042,
      "gradational": 3043,
      "pnc": 3044,
      "pnt": 3045,
      "rarer": 3046,
      "abutmente": 3047,
      "unambiguous": 3048,
      "paint": 3049,
      "minimize": 3050,
      "intertwine": 3051,
      "albedoyant": 3052,
      "equatorward": 3053,
      "depletion": 3054,
      "successional": 3055,
      "transgressive": 3056,
      "impactographic": 3057,
      "overflow": 3058,
      "hypervelocity": 3059,
      "recurrence": 3060,
      "incisively": 3061,
      "adopt": 3062,
      "overparte": 3063,
      "sunlight": 3064,
      "graze": 3065,
      "cryptic": 3066,
      "iohfs": 3067,
      "subparallel": 3068,
      "glow": 3069,
      "bilaterally": 3070,
      "sinuospatial": 3071,
      "coast": 3072,
      "implying": 3073,
      "stitch": 3074,
      "ranging": 3075,
      "cryocratic": 3076,
      "laminar": 3077,
      "accentuating": 3078,
      "perforate": 3079,
      "heterogeneously": 3080,
      "random": 3081,
      "nadir": 3082,
      "pliant": 3083,
      "spectral": 3084,
      "paleoregion": 3085,
      "planain": 3086,
      "prominence": 3087,
      "perturbation": 3088,
      "freshest": 3089,
      "inp": 3090,
      "interdigit": 3091,
      "tesseral": 3092,
      "superincumbent": 3093,
      "fly": 3094,
      "examine": 3095,
      "delineative": 3096,
      "multiply": 3097,
      "habitat": 3098,
      "remove": 3099,
      "arch": 3100,
      "cff": 3101,
      "medial": 3102,
      "lens": 3103,
      "cratony": 3104,
      "encased": 3105,
      "circumferential": 3106,
      "alternative": 3107,
      "rigorously": 3108,
      "encaustic": 3109,
      "palette": 3110,
      "perturbed": 3111,
      "lithography": 3112,
      "lma": 3113,
      "scarcity": 3114,
      "undetectable": 3115,
      "acting": 3116,
      "solidification": 3117,
      "pierce": 3118,
      "presentation": 3119,
      "stripping": 3120,
      "unmodified": 3121,
      "paleotopographical": 3122,
      "cool": 3123,
      "contributor": 3124,
      "scenery": 3125,
      "inherent": 3126,
      "positionally": 3127,
      "hairline": 3128,
      "lacunar": 3129,
      "member": 3130,
      "ensure": 3131,
      "frozen": 3132,
      "cessation": 3133,
      "fragmentation": 3134,
      "contemporaneously": 3135,
      "curvi": 3136,
      "contiguity": 3137,
      "terrainal": 3138,
      "coating": 3139,
      "northernly": 3140,
      "coexisting": 3141,
      "rarely": 3142,
      "subtlety": 3143,
      "pronouncedly": 3144,
      "catalog": 3145,
      "intersticial": 3146,
      "interlye": 3147,
      "perturb": 3148,
      "tonally": 3149,
      "delicately": 3150,
      "insert": 3151,
      "coalescence": 3152,
      "tensile": 3153,
      "rarity": 3154,
      "geotechnical": 3155,
      "depress": 3156,
      "auxiliary": 3157,
      "torus": 3158,
      "assignment": 3159,
      "mere": 3160,
      "circumference": 3161,
      "observationally": 3162,
      "genetically": 3163,
      "coevally": 3164,
      "prolific": 3165,
      "consolidate": 3166,
      "lithifie": 3167,
      "photometrically": 3168,
      "surveying": 3169,
      "global": 3170,
      "sectionalize": 3171,
      "generational": 3172,
      "cratricrete": 3173,
      "overpositione": 3174,
      "processing": 3175,
      "transecting": 3176,
      "southwestward": 3177,
      "elevationally": 3178,
      "reading": 3179,
      "attenuate": 3180,
      "aspect": 3181,
      "regulate": 3182,
      "sculpture": 3183,
      "micrometeorite": 3184,
      "studded": 3185,
      "intertidal": 3186,
      "represented": 3187,
      "packing": 3188,
      "itu": 3189,
      "interlinked": 3190,
      "lineae": 3191,
      "abuttment": 3192,
      "scarcely": 3193,
      "plainage": 3194,
      "garden": 3195,
      "serf": 3196,
      "stratographically": 3197,
      "zoned": 3198,
      "scarpe": 3199,
      "inconspicuous": 3200,
      "viscous": 3201,
      "redistribution": 3202,
      "architectural": 3203,
      "circumscribed": 3204,
      "featureation": 3205,
      "fluidly": 3206,
      "joint": 3207,
      "interrupting": 3208,
      "stain": 3209,
      "troughuate": 3210,
      "encapsulator": 3211,
      "substantive": 3212,
      "responsible": 3213,
      "systemic": 3214,
      "matrixal": 3215,
      "integration": 3216,
      "superimpositione": 3217,
      "branch": 3218,
      "recur": 3219,
      "indicator": 3220,
      "specialize": 3221,
      "amalgamate": 3222,
      "lithogeological": 3223,
      "exclude": 3224,
      "plename": 3225,
      "origraphic": 3226,
      "enhancement": 3227,
      "depostional": 3228,
      "tonality": 3229,
      "acutely": 3230,
      "equatorial": 3231,
      "intercalated": 3232,
      "minutely": 3233,
      "articulation": 3234,
      "superiormost": 3235,
      "concavely": 3236,
      "scrap": 3237,
      "collective": 3238,
      "ucu": 3239,
      "macroscopic": 3240,
      "planated": 3241,
      "essentially": 3242,
      "marginalization": 3243,
      "sinuation": 3244,
      "divisor": 3245,
      "outli": 3246,
      "interleave": 3247,
      "forefield": 3248,
      "ohf": 3249,
      "easterly": 3250,
      "njf": 3251,
      "crisply": 3252,
      "classifie": 3253,
      "umf": 3254,
      "incumbent": 3255,
      "doubly": 3256,
      "margination": 3257,
      "cohesively": 3258,
      "embedding": 3259,
      "latitude": 3260,
      "morphologie": 3261,
      "leveled": 3262,
      "cresting": 3263,
      "lacunae": 3264,
      "graining": 3265,
      "rill": 3266,
      "mosaicked": 3267,
      "projection": 3268,
      "globally": 3269,
      "micrometeoritic": 3270,
      "express": 3271,
      "strict": 3272,
      "interiorally": 3273,
      "slot": 3274,
      "stratigraphie": 3275,
      "heighten": 3276,
      "preservational": 3277,
      "passage": 3278,
      "initially": 3279,
      "innermost": 3280,
      "migration": 3281,
      "interadjacent": 3282,
      "manage": 3283,
      "macroscopically": 3284,
      "incomplete": 3285,
      "existent": 3286,
      "expansion": 3287,
      "planic": 3288,
      "sar": 3289,
      "impacto": 3290,
      "traction": 3291,
      "superstructure": 3292,
      "coalescent": 3293,
      "metamorphic": 3294,
      "interfacing": 3295,
      "networked": 3296,
      "parcel": 3297,
      "patination": 3298,
      "induce": 3299,
      "uppermare": 3300,
      "inneer": 3301,
      "linework": 3302,
      "fluctuate": 3303,
      "thinner": 3304,
      "perceive": 3305,
      "intracraterary": 3306,
      "termini": 3307,
      "evolutionarily": 3308,
      "interspace": 3309,
      "rosy": 3310,
      "spotty": 3311,
      "uppe": 3312,
      "supersede": 3313,
      "unaffected": 3314,
      "episodically": 3315,
      "exhume": 3316,
      "transcend": 3317,
      "abrade": 3318,
      "churn": 3319,
      "competent": 3320,
      "crucial": 3321,
      "peneplanization": 3322,
      "elliptically": 3323,
      "conceptual": 3324,
      "underwent": 3325,
      "compliment": 3326,
      "integrating": 3327,
      "cutout": 3328,
      "lithostratigraphically": 3329,
      "distantly": 3330,
      "iafu": 3331,
      "vibrant": 3332,
      "attributable": 3333,
      "planarly": 3334,
      "superordinate": 3335,
      "approximate": 3336,
      "restriction": 3337,
      "foundationally": 3338,
      "intergradation": 3339,
      "scouring": 3340,
      "congruent": 3341,
      "slumped": 3342,
      "enclavement": 3343,
      "likewise": 3344,
      "representing": 3345,
      "highlighted": 3346,
      "increasingly": 3347,
      "tenuous": 3348,
      "rimming": 3349,
      "ninety": 3350,
      "varietie": 3351,
      "transsecte": 3352,
      "agent": 3353,
      "albeit": 3354,
      "sizeable": 3355,
      "ilmu": 3356,
      "flowed": 3357,
      "ductile": 3358,
      "unital": 3359,
      "lithographic": 3360,
      "columnar": 3361,
      "mineral": 3362,
      "upwards": 3363,
      "respect": 3364,
      "infillade": 3365,
      "patchiness": 3366,
      "continual": 3367,
      "reshaping": 3368,
      "planatic": 3369,
      "indigo": 3370,
      "tight": 3371,
      "cba": 3372,
      "standpoint": 3373,
      "widest": 3374,
      "impactational": 3375,
      "discreet": 3376,
      "concluding": 3377,
      "erratic": 3378,
      "lacustrine": 3379,
      "cloak": 3380,
      "outflow": 3381,
      "overburden": 3382,
      "retreat": 3383,
      "simplifie": 3384,
      "sepia": 3385,
      "bscu": 3386,
      "expect": 3387,
      "insignificant": 3388,
      "fragmental": 3389,
      "parent": 3390,
      "vegetatively": 3391,
      "hummocky": 3392,
      "scf": 3393,
      "axially": 3394,
      "orographic": 3395,
      "thickly": 3396,
      "wise": 3397,
      "finalize": 3398,
      "supralaterally": 3399,
      "uninterruptedly": 3400,
      "unitary": 3401,
      "enmesh": 3402,
      "asymmetric": 3403,
      "sinuosoidal": 3404,
      "infillle": 3405,
      "sheer": 3406,
      "detachment": 3407,
      "medially": 3408,
      "confound": 3409,
      "examination": 3410,
      "polymorphous": 3411,
      "monotonous": 3412,
      "native": 3413,
      "fbd": 3414,
      "vegetated": 3415,
      "diachronic": 3416,
      "iucu": 3417,
      "contextually": 3418,
      "augment": 3419,
      "remodel": 3420,
      "rhythmically": 3421,
      "connective": 3422,
      "lithofacie": 3423,
      "sharpness": 3424,
      "axial": 3425,
      "morphologic": 3426,
      "planing": 3427,
      "sonogram": 3428,
      "dataset": 3429,
      "module": 3430,
      "interdune": 3431,
      "pocketing": 3432,
      "variedly": 3433,
      "chaotically": 3434,
      "plainness": 3435,
      "unstratified": 3436,
      "southeastward": 3437,
      "irrespective": 3438,
      "rhythmic": 3439,
      "evolutionary": 3440,
      "originally": 3441,
      "involvement": 3442,
      "vigorously": 3443,
      "peneplanate": 3444,
      "accord": 3445,
      "solitary": 3446,
      "mobilization": 3447,
      "lineamentary": 3448,
      "allopatric": 3449,
      "model": 3450,
      "sedimenting": 3451,
      "sonograms": 3452,
      "principle": 3453,
      "introduction": 3454,
      "failure": 3455,
      "opacity": 3456,
      "unfold": 3457,
      "ultrasonic": 3458,
      "ban": 3459,
      "hierarchy": 3460,
      "dual": 3461,
      "subdivision": 3462,
      "petrological": 3463,
      "mode": 3464,
      "sonar": 3465,
      "example": 3466,
      "spacing": 3467,
      "volcanically": 3468,
      "explicit": 3469,
      "specified": 3470,
      "infillament": 3471,
      "internalized": 3472,
      "unvarie": 3473,
      "cryogenically": 3474,
      "layers": 3475,
      "tabular": 3476,
      "crateritic": 3477,
      "batholith": 3478,
      "format": 3479,
      "pulse": 3480,
      "cyclical": 3481,
      "suspend": 3482,
      "abb": 3483,
      "user": 3484,
      "check": 3485,
      "jointed": 3486,
      "sounding": 3487,
      "conformability": 3488,
      "destructive": 3489,
      "overhang": 3490,
      "cea": 3491
    }
  }
}