{
  "version": "1.0",
  "truncation": null,
  "padding": null,
  "added_tokens": [
    {
      "id": 0,
      "content": "[PAD]",
      "single_word": false,
      "lstrip": false,
      "rstrip": false,
      "normalized": false,
      "special": true
    },
    {
      "id": 1,
      "content": "[SOS]",
      "single_word": false,
      "lstrip": false,
      "rstrip": false,
      "normalized": false,
      "special": true
    },
    {
      "id": 2,
      "content": "[EOS]",
      "single_word": false,
      "lstrip": false,
      "rstrip": false,
      "normalized": false,
      "special": true
    },
    {
      "id": 3,
      "content": "[MASK]",
      "single_word": false,
      "lstrip": false,
      "rstrip": false,
      "normalized": false,
      "special": true
    },
    {
      "id": 4,
      "content": "[RETRIEVAL]",
      "single_word": false,
      "lstrip": false,
      "rstrip": false,
      "normalized": false,
      "special": true
    },
    {
      "id": 5,
      "content": "[UNK]",
      "single_word": false,
      "lstrip": false,
      "rstrip": false,
      "normalized": false,
      "special": true
    }
  ],
  "normalizer": null,
  "pre_tokenizer": {
    "type": "Whitespace"
  },
  "post_processor": null,
  "decoder": null,
  "model": {
    "type": "BPE",
    "dropout": null,
    "unk_token": "[UNK]",
    "continuing_subword_prefix": null,
    "end_of_word_suffix": null,
    "fuse_unk": false,
    "byte_fallback": false,
    "ignore_merges": false,
    "vocab": {
      "[PAD]": 0,
      "[SOS]": 1,
      "[EOS]": 2,
      "[MASK]": 3,
      "[RETRIEVAL]": 4,
      "[UNK]": 5,
      "!": 6,
      "\"": 7,
      "#": 8,
      "$": 9,
      "%": 10,
      "&": 11,
      "'": 12,
      "(": 13,
      ")": 14,
      "*": 15,
      ",": 16,
      "-": 17,
      ".": 18,
      "/": 19,
      "0": 20,
      "1": 21,
      "2": 22,
      "3": 23,
      "4": 24,
      "5": 25,
      "6": 26,
      "7": 27,
      "8": 28,
      "9": 29,
      ":": 30,
      ";": 31,
      "A": 32,
      "B": 33,
      "C": 34,
      "D": 35,
      "E": 36,
      "F": 37,
      "G": 38,
      "H": 39,
      "I": 40,
      "J": 41,
      "K": 42,
      "L": 43,
      "M": 44,
      "N": 45,
      "O": 46,
      "P": 47,
      "R": 48,
      "S": 49,
      "T": 50,
      "U": 51,
      "V": 52,
      "W": 53,
      "Y": 54,
      "[": 55,
      "\\": 56,
      "]": 57,
      "_": 58,
      "`": 59,
      "a": 60,
      "b": 61,
      "c": 62,
      "d": 63,
      "e": 64,
      "f": 65,
      "g": 66,
      "h": 67,
      "i": 68,
      "j": 69,
      "k": 70,
      "l": 71,
      "m": 72,
      "n": 73,
      "o": 74,
      "p": 75,
      "q": 76,
      "r": 77,
      "s": 78,
      "t": 79,
      "u": 80,
      "v": 81,
      "w": 82,
      "x": 83,
      "y": 84,
      "z": 85,
      "{": 86,
      "}": 87,
      "è": 88,
      "é": 89,
      "—": 90,
      "’": 91,
      "er": 92,
      "in": 93,
      "he": 94,
      "ar": 95,
      "at": 96,
      "it": 97,
      "an": 98,
      "the": 99,
      "nit": 100,
      "ct": 101,
      "ed": 102,
      "is": 103,
      "Unit": 104,
      "re": 105,
      "on": 106,
      "ian": 107,
      "al": 108,
      "rat": 109,
      "ing": 110,
      "rater": 111,
      "or": 112,
      "en": 113,
      "ac": 114,
      "The": 115,
      "es": 116,
      "ra": 117,
      "su": 118,
      "ou": 119,
      "ion": 120,
      "ect": 121,
      "ly": 122,
      "and": 123,
      "ic": 124,
      "st": 125,
      "nd": 126,
      "ectar": 127,
      "Nectar": 128,
      "ent": 129,
      "Nectarian": 130,
      "la": 131,
      "br": 132,
      "Crater": 133,
      "Im": 134,
      "erra": 135,
      "Imbr": 136,
      "om": 137,
      "by": 138,
      "Imbrian": 139,
      "os": 140,
      "ound": 141,
      "as": 142,
      "sur": 143,
      "ge": 144,
      "lo": 145,
      "are": 146,
      "im": 147,
      "of": 148,
      "ex": 149,
      "unit": 150,
      "th": 151,
      "ure": 152,
      "dis": 153,
      "act": 154,
      "lain": 155,
      "crater": 156,
      "fac": 157,
      "de": 158,
      "se": 159,
      "surfac": 160,
      "ru": 161,
      "surface": 162,
      "ary": 163,
      "der": 164,
      "mat": 165,
      "con": 166,
      "le": 167,
      "ies": 168,
      "tin": 169,
      "iv": 170,
      "per": 171,
      "imp": 172,
      "bound": 173,
      "omin": 174,
      "asin": 175,
      "ver": 176,
      "tinct": 177,
      "Terra": 178,
      "to": 179,
      "distinct": 180,
      "wh": 181,
      "lains": 182,
      "mo": 183,
      "ated": 184,
      "ruct": 185,
      "olo": 186,
      "olog": 187,
      "ical": 188,
      "his": 189,
      "struct": 190,
      "terra": 191,
      "impact": 192,
      "terrain": 193,
      "geolog": 194,
      "units": 195,
      "ine": 196,
      "if": 197,
      "geological": 198,
      "This": 199,
      "sh": 200,
      "bor": 201,
      "over": 202,
      "border": 203,
      "ith": 204,
      "ad": 205,
      "domin": 206,
      "Pre": 207,
      "ap": 208,
      "ter": 209,
      "ig": 210,
      "reg": 211,
      "def": 212,
      "with": 213,
      "ur": 214,
      "pr": 215,
      "ial": 216,
      "oth": 217,
      "for": 218,
      "ich": 219,
      "mation": 220,
      "which": 221,
      "up": 222,
      "ive": 223,
      "ib": 224,
      "tw": 225,
      "Basin": 226,
      "est": 227,
      "ow": 228,
      "vi": 229,
      "eat": 230,
      "gg": 231,
      "feat": 232,
      "ext": 233,
      "ures": 234,
      "ark": 235,
      "lar": 236,
      "region": 237,
      "adj": 238,
      "defin": 239,
      "round": 240,
      "Plains": 241,
      "boundary": 242,
      "acent": 243,
      "iz": 244,
      "ma": 245,
      "adjacent": 246,
      "mooth": 247,
      "line": 248,
      "ition": 249,
      "oss": 250,
      "smooth": 251,
      "ant": 252,
      "ross": 253,
      "igh": 254,
      "sugg": 255,
      "suggest": 256,
      "across": 257,
      "lat": 258,
      "oc": 259,
      "be": 260,
      "pos": 261,
      "ol": 262,
      "com": 263,
      "pper": 264,
      "pat": 265,
      "ous": 266,
      "Upper": 267,
      "craters": 268,
      "lay": 269,
      "sc": 270,
      "avi": 271,
      "avily": 272,
      "ized": 273,
      "lu": 274,
      "jor": 275,
      "major": 276,
      "id": 277,
      "plain": 278,
      "heavily": 279,
      "cratered": 280,
      "ph": 281,
      "sive": 282,
      "cont": 283,
      "ri": 284,
      "area": 285,
      "ut": 286,
      "features": 287,
      "large": 288,
      "een": 289,
      "tween": 290,
      "between": 291,
      "Mare": 292,
      "form": 293,
      "bordered": 294,
      "structure": 295,
      "ormation": 296,
      "Formation": 297,
      "um": 298,
      "occ": 299,
      "aries": 300,
      "boundaries": 301,
      "occup": 302,
      "older": 303,
      "its": 304,
      "land": 305,
      "li": 306,
      "ab": 307,
      "mark": 308,
      "cond": 309,
      "all": 310,
      "ve": 311,
      "condary": 312,
      "ural": 313,
      "basin": 314,
      "surround": 315,
      "loc": 316,
      "plains": 317,
      "comp": 318,
      "ible": 319,
      "tr": 320,
      "erial": 321,
      "material": 322,
      "pre": 323,
      "dif": 324,
      "vis": 325,
      "ch": 326,
      "ates": 327,
      "play": 328,
      "ivid": 329,
      "visible": 330,
      "ivided": 331,
      "display": 332,
      "ndivided": 333,
      "par": 334,
      "ari": 335,
      "Undivided": 336,
      "prim": 337,
      "po": 338,
      "These": 339,
      "suggesting": 340,
      "text": 341,
      "linear": 342,
      "relat": 343,
      "ape": 344,
      "gra": 345,
      "landsc": 346,
      "landscape": 347,
      "structural": 348,
      "occupies": 349,
      "local": 350,
      "cent": 351,
      "acies": 352,
      "Facies": 353,
      "surrounding": 354,
      "inter": 355,
      "lex": 356,
      "show": 357,
      "complex": 358,
      "ans": 359,
      "dominated": 360,
      "localized": 361,
      "formation": 362,
      "lying": 363,
      "exh": 364,
      "exhib": 365,
      "defined": 366,
      "Se": 367,
      "this": 368,
      "ip": 369,
      "nar": 370,
      "shar": 371,
      "ale": 372,
      "graph": 373,
      "then": 374,
      "Secondary": 375,
      "sharp": 376,
      "osthen": 377,
      "Erat": 378,
      "osthenian": 379,
      "Eratosthenian": 380,
      "trans": 381,
      "high": 382,
      "ating": 383,
      "transition": 384,
      "that": 385,
      "exten": 386,
      "lunar": 387,
      "app": 388,
      "sub": 389,
      "displays": 390,
      "extensive": 391,
      "ear": 392,
      "cover": 393,
      "pan": 394,
      "fi": 395,
      "pograph": 396,
      "expan": 397,
      "ass": 398,
      "ong": 399,
      "ast": 400,
      "Ori": 401,
      "Orient": 402,
      "Orientale": 403,
      "erous": 404,
      "umerous": 405,
      "topograph": 406,
      "two": 407,
      "forms": 408,
      "low": 409,
      "centr": 410,
      "central": 411,
      "us": 412,
      "He": 413,
      "ack": 414,
      "depos": 415,
      "ll": 416,
      "osed": 417,
      "dark": 418,
      "dominant": 419,
      "und": 420,
      "abut": 421,
      "ground": 422,
      "lius": 423,
      "velius": 424,
      "Hevelius": 425,
      "numerous": 426,
      "primary": 427,
      "pres": 428,
      "separ": 429,
      "patial": 430,
      "vari": 431,
      "me": 432,
      "et": 433,
      "within": 434,
      "fill": 435,
      "dominates": 436,
      "borders": 437,
      "ower": 438,
      "cle": 439,
      "Lower": 440,
      "clear": 441,
      "ominent": 442,
      "ation": 443,
      "ind": 444,
      "mare": 445,
      "prominent": 446,
      "these": 447,
      "texture": 448,
      "spatial": 449,
      "age": 450,
      "marking": 451,
      "under": 452,
      "indic": 453,
      "vast": 454,
      "mall": 455,
      "char": 456,
      "acter": 457,
      "character": 458,
      "nif": 459,
      "appear": 460,
      "topography": 461,
      "ain": 462,
      "meet": 463,
      "exhibits": 464,
      "ate": 465,
      "smoother": 466,
      "ackground": 467,
      "assif": 468,
      "sit": 469,
      "contact": 470,
      "ile": 471,
      "defining": 472,
      "fer": 473,
      "while": 474,
      "uous": 475,
      "small": 476,
      "ul": 477,
      "uated": 478,
      "sharply": 479,
      "markings": 480,
      "feature": 481,
      "strat": 482,
      "shows": 483,
      "modif": 484,
      "ity": 485,
      "perimp": 486,
      "formations": 487,
      "eral": 488,
      "differ": 489,
      "**": 490,
      "characterized": 491,
      "suggests": 492,
      "hes": 493,
      "cru": 494,
      "crust": 495,
      "structures": 496,
      "ult": 497,
      "perimposed": 498,
      "relative": 499,
      "fr": 500,
      "present": 501,
      "from": 502,
      "deline": 503,
      "along": 504,
      "ight": 505,
      "underlying": 506,
      "upon": 507,
      "ches": 508,
      "situated": 509,
      "indicating": 510,
      "Massif": 511,
      "ionsh": 512,
      "ionship": 513,
      "relationship": 514,
      "Line": 515,
      "different": 516,
      "defines": 517,
      "ju": 518,
      "const": 519,
      "patches": 520,
      "rast": 521,
      "contrast": 522,
      "spatially": 523,
      "ger": 524,
      "erv": 525,
      "expansive": 526,
      "highly": 527,
      "abuts": 528,
      "qu": 529,
      "xt": 530,
      "ner": 531,
      "ium": 532,
      "compos": 533,
      "terrains": 534,
      "Imbrium": 535,
      "xtap": 536,
      "ultip": 537,
      "ultiple": 538,
      "constit": 539,
      "rix": 540,
      "matrix": 541,
      "constitut": 542,
      "majority": 543,
      "ment": 544,
      "enc": 545,
      "ire": 546,
      "juxtap": 547,
      "ular": 548,
      "ob": 549,
      "overla": 550,
      "cratering": 551,
      "serv": 552,
      "peri": 553,
      "Lineated": 554,
      "ag": 555,
      "In": 556,
      "ir": 557,
      "varied": 558,
      "constitutes": 559,
      "lower": 560,
      "strate": 561,
      "gged": 562,
      "darker": 563,
      "ied": 564,
      "more": 565,
      "appears": 566,
      "rugged": 567,
      "sig": 568,
      "substrate": 569,
      "background": 570,
      "ping": 571,
      "regions": 572,
      "zon": 573,
      "signif": 574,
      "icant": 575,
      "significant": 576,
      "expanse": 577,
      "relatively": 578,
      "represent": 579,
      "crustal": 580,
      "overlap": 581,
      "areas": 582,
      "oun": 583,
      "Inner": 584,
      "inc": 585,
      "define": 586,
      "min": 587,
      "contin": 588,
      "Units": 589,
      "marked": 590,
      "ere": 591,
      "mar": 592,
      "overall": 593,
      "ured": 594,
      "gh": 595,
      "ough": 596,
      "ling": 597,
      "sect": 598,
      "superimposed": 599,
      "multiple": 600,
      "deposits": 601,
      "image": 602,
      "entire": 603,
      "bordering": 604,
      "smaller": 605,
      "overlapping": 606,
      "tered": 607,
      "forming": 608,
      "continuous": 609,
      "deposition": 610,
      "ist": 611,
      "observ": 612,
      "attered": 613,
      "impacted": 614,
      "interact": 615,
      "exhibit": 616,
      "tra": 617,
      "anc": 618,
      "fra": 619,
      "own": 620,
      "ainst": 621,
      "against": 622,
      "gin": 623,
      "periph": 624,
      "traver": 625,
      "main": 626,
      "sequ": 627,
      "margin": 628,
      "arily": 629,
      "filling": 630,
      "primarily": 631,
      "tor": 632,
      "histor": 633,
      "upper": 634,
      "zone": 635,
      "ient": 636,
      "antling": 637,
      "ighter": 638,
      "ancient": 639,
      "kn": 640,
      "cre": 641,
      "gen": 642,
      "overlying": 643,
      "observed": 644,
      "ence": 645,
      "ming": 646,
      "inclu": 647,
      "Ou": 648,
      "minor": 649,
      "Outer": 650,
      "layer": 651,
      "ster": 652,
      "where": 653,
      "covered": 654,
      "known": 655,
      "luster": 656,
      "Mantling": 657,
      "nknown": 658,
      "nic": 659,
      "Co": 660,
      "pernic": 661,
      "Copernic": 662,
      "tern": 663,
      "secondary": 664,
      "Ma": 665,
      "Copernican": 666,
      "scattered": 667,
      "ication": 668,
      "ele": 669,
      "ther": 670,
      "regular": 671,
      "irregular": 672,
      "into": 673,
      "composed": 674,
      "hel": 675,
      "history": 676,
      "unif": 677,
      "orm": 678,
      "lies": 679,
      "rest": 680,
      "uniform": 681,
      "Fra": 682,
      "overw": 683,
      "helming": 684,
      "overwhelming": 685,
      "position": 686,
      "modification": 687,
      "meets": 688,
      "ding": 689,
      "showing": 690,
      "coverage": 691,
      "rough": 692,
      "bro": 693,
      "lighter": 694,
      "veral": 695,
      "occupy": 696,
      "modified": 697,
      "ew": 698,
      "cur": 699,
      "delineated": 700,
      "uro": 701,
      "Mauro": 702,
      "reve": 703,
      "reveal": 704,
      "textured": 705,
      "ree": 706,
      "overwhelmingly": 707,
      "exhibiting": 708,
      "vary": 709,
      "elev": 710,
      "peripheral": 711,
      "structurally": 712,
      "varying": 713,
      "ke": 714,
      "lie": 715,
      "lan": 716,
      "Cluster": 717,
      "transitions": 718,
      "flat": 719,
      "like": 720,
      "other": 721,
      "ep": 722,
      "contrasting": 723,
      "tion": 724,
      "ounger": 725,
      "several": 726,
      "resurfac": 727,
      "nor": 728,
      "late": 729,
      "ted": 730,
      "Background": 731,
      "man": 732,
      "pattern": 733,
      "general": 734,
      "larger": 735,
      "por": 736,
      "pread": 737,
      "sou": 738,
      "separates": 739,
      "ides": 740,
      "three": 741,
      "elevated": 742,
      "regional": 743,
      "light": 744,
      "te": 745,
      "younger": 746,
      "juxtapos": 747,
      "idespread": 748,
      "apped": 749,
      "portion": 750,
      "widespread": 751,
      "juxtaposed": 752,
      "clearly": 753,
      "view": 754,
      "patch": 755,
      "sist": 756,
      "contain": 757,
      "%)": 758,
      "sequent": 759,
      "pro": 760,
      "both": 761,
      "latea": 762,
      "separating": 763,
      "many": 764,
      "near": 765,
      "ok": 766,
      "mapped": 767,
      "ot": 768,
      "bounded": 769,
      "able": 770,
      "ess": 771,
      "Su": 772,
      "lateau": 773,
      "ev": 774,
      "resurfacing": 775,
      "consist": 776,
      "izes": 777,
      "overlay": 778,
      "see": 779,
      "part": 780,
      "relie": 781,
      "relief": 782,
      "vid": 783,
      "including": 784,
      "ont": 785,
      "travers": 786,
      "ined": 787,
      "ock": 788,
      "med": 789,
      "lank": 790,
      "flo": 791,
      "Superimposed": 792,
      "depositional": 793,
      "pes": 794,
      "infilling": 795,
      "band": 796,
      "led": 797,
      "crete": 798,
      "od": 799,
      "ange": 800,
      "arr": 801,
      "juxtaposition": 802,
      "sp": 803,
      "Unknown": 804,
      "un": 805,
      "event": 806,
      "intersect": 807,
      "discrete": 808,
      "sizes": 809,
      "ially": 810,
      "materials": 811,
      "posed": 812,
      "el": 813,
      "separated": 814,
      "composition": 815,
      "ting": 816,
      "It": 817,
      "delineate": 818,
      "generally": 819,
      "bed": 820,
      "differential": 821,
      "reveals": 822,
      "floor": 823,
      "edge": 824,
      "represents": 825,
      "contacts": 826,
      "thern": 827,
      "covers": 828,
      "subsequent": 829,
      "displaying": 830,
      "highland": 831,
      "broad": 832,
      "bright": 833,
      "ically": 834,
      "right": 835,
      "ions": 836,
      "conf": 837,
      "ified": 838,
      "layered": 839,
      "ide": 840,
      "resh": 841,
      "ded": 842,
      "traverse": 843,
      "rup": 844,
      "relationships": 845,
      "uring": 846,
      "curv": 847,
      "00": 848,
      "inuous": 849,
      "angement": 850,
      "arrangement": 851,
      "orph": 852,
      "ology": 853,
      "sinuous": 854,
      "deep": 855,
      "separate": 856,
      "most": 857,
      "(#": 858,
      "consists": 859,
      "morph": 860,
      "various": 861,
      "massif": 862,
      "interfac": 863,
      "representing": 864,
      "long": 865,
      "adjo": 866,
      "em": 867,
      "ations": 868,
      "flank": 869,
      "marks": 870,
      "lis": 871,
      "ene": 872,
      "north": 873,
      "covering": 874,
      "uniformly": 875,
      "pred": 876,
      "osion": 877,
      "adjoin": 878,
      "fresh": 879,
      "predomin": 880,
      "erosion": 881,
      "predominant": 882,
      "ne": 883,
      "center": 884,
      "cut": 885,
      "partially": 886,
      "scene": 887,
      "estab": 888,
      "establis": 889,
      "assive": 890,
      "den": 891,
      "sits": 892,
      "massive": 893,
      "ced": 894,
      "unknown": 895,
      "olated": 896,
      "Imp": 897,
      "lack": 898,
      "Impact": 899,
      "onoun": 900,
      "onounced": 901,
      "highlight": 902,
      "patterns": 903,
      "urally": 904,
      "super": 905,
      "confined": 906,
      "meeting": 907,
      "iguous": 908,
      "contiguous": 909,
      "look": 910,
      "isolated": 911,
      "morphology": 912,
      "uch": 913,
      "pronounced": 914,
      "interacts": 915,
      "du": 916,
      "found": 917,
      "curved": 918,
      "eld": 919,
      "occupying": 920,
      "field": 921,
      "underlies": 922,
      "cted": 923,
      "ges": 924,
      "south": 925,
      "much": 926,
      "am": 927,
      "impacts": 928,
      "events": 929,
      "ft": 930,
      "left": 931,
      "sequence": 932,
      "div": 933,
      "exposed": 934,
      "interrup": 935,
      "St": 936,
      "framed": 937,
      "featuring": 938,
      "press": 939,
      "belong": 940,
      "black": 941,
      "depress": 942,
      "flatter": 943,
      "Struct": 944,
      "deposit": 945,
      "so": 946,
      "fills": 947,
      "predominantly": 948,
      "ec": 949,
      "ally": 950,
      "contained": 951,
      "west": 952,
      "oriz": 953,
      "plateau": 954,
      "basins": 955,
      "ader": 956,
      "broader": 957,
      "horiz": 958,
      "),": 959,
      "rests": 960,
      "structured": 961,
      "fo": 962,
      "iated": 963,
      "horizont": 964,
      "formed": 965,
      "has": 966,
      "filled": 967,
      "tle": 968,
      "foreg": 969,
      "foreground": 970,
      "Mo": 971,
      "unct": 972,
      "out": 973,
      "among": 974,
      "quad": 975,
      "rant": 976,
      "quadrant": 977,
      "flow": 978,
      "vilinear": 979,
      "Al": 980,
      "curvilinear": 981,
      "dued": 982,
      "punct": 983,
      "trough": 984,
      "Alpes": 985,
      "pock": 986,
      "urther": 987,
      "subdued": 988,
      "transitional": 989,
      "foundation": 990,
      "ard": 991,
      "op": 992,
      "erse": 993,
      "rougher": 994,
      "Moon": 995,
      "restri": 996,
      "gment": 997,
      "evid": 998,
      "diverse": 999,
      "provid": 1000,
      "Plateau": 1001,
      "restricted": 1002,
      "bas": 1003,
      "further": 1004,
      "ty": 1005,
      "topographical": 1006,
      "spec": 1007,
      "sing": 1008,
      "variations": 1009,
      "ative": 1010,
      "fract": 1011,
      "fa": 1012,
      "margins": 1013,
      "irc": 1014,
      "stri": 1015,
      "subtle": 1016,
      "very": 1017,
      "ome": 1018,
      "esses": 1019,
      "punctuated": 1020,
      "vas": 1021,
      "dot": 1022,
      "pervas": 1023,
      "pervasive": 1024,
      "Numerous": 1025,
      "Structurally": 1026,
      "interrupted": 1027,
      "flanked": 1028,
      "highlights": 1029,
      "nest": 1030,
      "creating": 1031,
      "fault": 1032,
      "mature": 1033,
      "res": 1034,
      "assoc": 1035,
      "circ": 1036,
      "include": 1037,
      "indicates": 1038,
      "peripher": 1039,
      "ook": 1040,
      "rock": 1041,
      "Rook": 1042,
      "facies": 1043,
      "100": 1044,
      "geology": 1045,
      "periphery": 1046,
      "interaction": 1047,
      "not": 1048,
      "proc": 1049,
      "Mont": 1050,
      "Montes": 1051,
      "circular": 1052,
      "Nectaris": 1053,
      "dra": 1054,
      "set": 1055,
      "zones": 1056,
      "topographic": 1057,
      "sen": 1058,
      "southern": 1059,
      "anssen": 1060,
      "Janssen": 1061,
      "indicative": 1062,
      "associated": 1063,
      "posu": 1064,
      "exposu": 1065,
      "provides": 1066,
      "east": 1067,
      "specif": 1068,
      "highlands": 1069,
      "%),": 1070,
      "lin": 1071,
      "degra": 1072,
      "processes": 1073,
      "later": 1074,
      "ately": 1075,
      "surrounded": 1076,
      "also": 1077,
      "ivity": 1078,
      "lateral": 1079,
      "overlays": 1080,
      "An": 1081,
      "infill": 1082,
      "activity": 1083,
      "northern": 1084,
      "establish": 1085,
      "appearing": 1086,
      "ogen": 1087,
      "**,": 1088,
      "horizontal": 1089,
      "contrasts": 1090,
      "frame": 1091,
      "presence": 1092,
      "ork": 1093,
      "Small": 1094,
      "mi": 1095,
      "rim": 1096,
      "located": 1097,
      "foundational": 1098,
      "sed": 1099,
      "Multiple": 1100,
      "adjoins": 1101,
      "With": 1102,
      "types": 1103,
      "Within": 1104,
      "dominate": 1105,
      "cross": 1106,
      "overlies": 1107,
      "parse": 1108,
      "segment": 1109,
      "irect": 1110,
      "serves": 1111,
      "direct": 1112,
      "edges": 1113,
      "next": 1114,
      "less": 1115,
      "ove": 1116,
      "omb": 1117,
      "bomb": 1118,
      "one": 1119,
      "encomp": 1120,
      "encompass": 1121,
      "bedded": 1122,
      "surrounds": 1123,
      "cor": 1124,
      "sector": 1125,
      "lated": 1126,
      "AC": 1127,
      "WAC": 1128,
      "ograph": 1129,
      "wide": 1130,
      "through": 1131,
      "nestled": 1132,
      "ised": 1133,
      "raph": 1134,
      "igraph": 1135,
      "ident": 1136,
      "rol": 1137,
      "ern": 1138,
      "we": 1139,
      "distinctly": 1140,
      "related": 1141,
      "stratigraph": 1142,
      "Lar": 1143,
      "sparse": 1144,
      "shad": 1145,
      "Large": 1146,
      "ss": 1147,
      "side": 1148,
      "alle": 1149,
      "cla": 1150,
      "class": 1151,
      "moder": 1152,
      "looks": 1153,
      "traversed": 1154,
      "belonging": 1155,
      "establishing": 1156,
      "obby": 1157,
      "evidence": 1158,
      "directly": 1159,
      "single": 1160,
      "pi": 1161,
      "mass": 1162,
      "ton": 1163,
      "interfaces": 1164,
      "geograph": 1165,
      "classified": 1166,
      "shadow": 1167,
      "above": 1168,
      "textures": 1169,
      "ace": 1170,
      "ibut": 1171,
      "dramat": 1172,
      "gest": 1173,
      "exist": 1174,
      "persed": 1175,
      "identified": 1176,
      "largely": 1177,
      "interface": 1178,
      "traversing": 1179,
      "allel": 1180,
      "int": 1181,
      "characterist": 1182,
      "characteristic": 1183,
      "shap": 1184,
      "cap": 1185,
      "depression": 1186,
      "revealing": 1187,
      "dense": 1188,
      "mix": 1189,
      "ks": 1190,
      "erosional": 1191,
      "spersed": 1192,
      "Heavily": 1193,
      "compositional": 1194,
      "dom": 1195,
      "contains": 1196,
      "tled": 1197,
      "domain": 1198,
      "largest": 1199,
      "toned": 1200,
      "Dark": 1201,
      "shaped": 1202,
      "Spatial": 1203,
      "parallel": 1204,
      "Kn": 1205,
      "Knobby": 1206,
      "depi": 1207,
      "embedded": 1208,
      "tribut": 1209,
      "deeply": 1210,
      "delineating": 1211,
      "il": 1212,
      "stant": 1213,
      "substant": 1214,
      "av": 1215,
      "cluster": 1216,
      "king": 1217,
      "scale": 1218,
      "Smooth": 1219,
      "densit": 1220,
      "variable": 1221,
      "superposition": 1222,
      "arc": 1223,
      "ach": 1224,
      "distribut": 1225,
      "post": 1226,
      "gent": 1227,
      "bands": 1228,
      "medi": 1229,
      "plan": 1230,
      "presenting": 1231,
      "abutting": 1232,
      "traverses": 1233,
      "ardment": 1234,
      "bombardment": 1235,
      "vol": 1236,
      "substantial": 1237,
      "basal": 1238,
      "Spatially": 1239,
      "Th": 1240,
      "Sc": 1241,
      "Dis": 1242,
      "Scattered": 1243,
      "C9": 1244,
      "co": 1245,
      "degraded": 1246,
      "compr": 1247,
      "ogene": 1248,
      "lim": 1249,
      "intersected": 1250,
      "hom": 1251,
      "wes": 1252,
      "superposed": 1253,
      "density": 1254,
      "western": 1255,
      "period": 1256,
      "pen": 1257,
      "capt": 1258,
      "only": 1259,
      "exposures": 1260,
      "control": 1261,
      "bod": 1262,
      "mon": 1263,
      "adjoining": 1264,
      "work": 1265,
      "minim": 1266,
      "lines": 1267,
      "tur": 1268,
      "ject": 1269,
      "captures": 1270,
      "stre": 1271,
      "theast": 1272,
      "interacting": 1273,
      "thin": 1274,
      "interspersed": 1275,
      "run": 1276,
      "higher": 1277,
      "One": 1278,
      "faulting": 1279,
      "extensively": 1280,
      "each": 1281,
      "sel": 1282,
      "extent": 1283,
      "aged": 1284,
      "layers": 1285,
      "Smaller": 1286,
      "Craters": 1287,
      "inus": 1288,
      "section": 1289,
      "uate": 1290,
      "ogeneous": 1291,
      "lith": 1292,
      "surfaces": 1293,
      "delineates": 1294,
      "ninus": 1295,
      "Apen": 1296,
      "nct": 1297,
      "junct": 1298,
      "positioned": 1299,
      "Apenninus": 1300,
      "ological": 1301,
      "yst": 1302,
      "outer": 1303,
      "gre": 1304,
      "likely": 1305,
      "imaged": 1306,
      "turn": 1307,
      "Both": 1308,
      "recent": 1309,
      "ose": 1310,
      "junction": 1311,
      ").": 1312,
      "bloc": 1313,
      "blank": 1314,
      "dramatic": 1315,
      "blanket": 1316,
      "significantly": 1317,
      "map": 1318,
      "pe": 1319,
      "upt": 1320,
      "Distinct": 1321,
      "abr": 1322,
      "syst": 1323,
      "specific": 1324,
      "abrupt": 1325,
      "epis": 1326,
      "pocked": 1327,
      "ice": 1328,
      "intern": 1329,
      "distributed": 1330,
      "marginal": 1331,
      "provi": 1332,
      "brighter": 1333,
      "rid": 1334,
      "notice": 1335,
      "no": 1336,
      "nearly": 1337,
      "cuts": 1338,
      "subsurface": 1339,
      "ferent": 1340,
      "entirely": 1341,
      "striking": 1342,
      "avy": 1343,
      "demar": 1344,
      "ifferent": 1345,
      "demarc": 1346,
      "dotted": 1347,
      "ighbor": 1348,
      "neighbor": 1349,
      "below": 1350,
      "narr": 1351,
      "existing": 1352,
      "internal": 1353,
      "ts": 1354,
      "moderate": 1355,
      "poss": 1356,
      "stable": 1357,
      "bedrock": 1358,
      "histories": 1359,
      "sequential": 1360,
      "jecta": 1361,
      "arcuate": 1362,
      "ejecta": 1363,
      "36": 1364,
      "aic": 1365,
      "str": 1366,
      "To": 1367,
      "mos": 1368,
      "mosaic": 1369,
      "atop": 1370,
      "planar": 1371,
      "minimal": 1372,
      "system": 1373,
      "constra": 1374,
      "intersection": 1375,
      "geologically": 1376,
      "strong": 1377,
      "itsel": 1378,
      "Linear": 1379,
      "itself": 1380,
      "another": 1381,
      "ime": 1382,
      "observable": 1383,
      "providing": 1384,
      "ior": 1385,
      "rated": 1386,
      "corner": 1387,
      "comple": 1388,
      "29": 1389,
      "immedi": 1390,
      "episod": 1391,
      "ben": 1392,
      "presents": 1393,
      "narrow": 1394,
      "neighboring": 1395,
      "depressions": 1396,
      "constrained": 1397,
      "aly": 1398,
      "lightly": 1399,
      "episodes": 1400,
      "consistent": 1401,
      "Different": 1402,
      "domains": 1403,
      "ably": 1404,
      "Ge": 1405,
      "overlaying": 1406,
      "strea": 1407,
      "eath": 1408,
      "lif": 1409,
      "ments": 1410,
      "ewer": 1411,
      "raised": 1412,
      "perior": 1413,
      "ibly": 1414,
      "such": 1415,
      "ages": 1416,
      "core": 1417,
      "body": 1418,
      "segmented": 1419,
      "ulat": 1420,
      "ro": 1421,
      "uplif": 1422,
      "sections": 1423,
      "shadowed": 1424,
      "dissect": 1425,
      "modify": 1426,
      "deposited": 1427,
      "seem": 1428,
      "periods": 1429,
      "compris": 1430,
      "framework": 1431,
      "ave": 1432,
      "cts": 1433,
      "abutted": 1434,
      "69": 1435,
      "layering": 1436,
      "A3": 1437,
      "upland": 1438,
      "encompassing": 1439,
      "7A3": 1440,
      "E29": 1441,
      "7A3E29": 1442,
      "mot": 1443,
      "superior": 1444,
      "ang": 1445,
      "tect": 1446,
      "portions": 1447,
      "6936": 1448,
      "preserv": 1449,
      "prov": 1450,
      "C96936": 1451,
      "ences": 1452,
      "noticeable": 1453,
      "mottled": 1454,
      "variation": 1455,
      "stratigraphy": 1456,
      "ense": 1457,
      "tecton": 1458,
      "old": 1459,
      "strating": 1460,
      "Sur": 1461,
      "ometr": 1462,
      "ward": 1463,
      "centrally": 1464,
      "provinc": 1465,
      "ho": 1466,
      "ving": 1467,
      "containing": 1468,
      "Ad": 1469,
      "fine": 1470,
      "geometr": 1471,
      "base": 1472,
      "intersecting": 1473,
      "albed": 1474,
      "newer": 1475,
      "overlaid": 1476,
      "limit": 1477,
      "cr": 1478,
      "pockmarked": 1479,
      "fracture": 1480,
      "Its": 1481,
      "differing": 1482,
      "geographically": 1483,
      "albedo": 1484,
      "abruptly": 1485,
      "dominating": 1486,
      "resurfaced": 1487,
      "immediately": 1488,
      "invol": 1489,
      "hed": 1490,
      "phas": 1491,
      "leve": 1492,
      "depicts": 1493,
      "been": 1494,
      "establishes": 1495,
      "intense": 1496,
      "patterned": 1497,
      "acked": 1498,
      "masses": 1499,
      "heavy": 1500,
      "provinces": 1501,
      "well": 1502,
      "gently": 1503,
      "onent": 1504,
      "component": 1505,
      "host": 1506,
      "level": 1507,
      "specifically": 1508,
      "homogeneous": 1509,
      "encl": 1510,
      "There": 1511,
      "Text": 1512,
      "face": 1513,
      "demon": 1514,
      "des": 1515,
      "pot": 1516,
      "hs": 1517,
      "streaks": 1518,
      "ize": 1519,
      "mes": 1520,
      "transitioning": 1521,
      "belongs": 1522,
      "frames": 1523,
      "disrup": 1524,
      "troughs": 1525,
      "dissected": 1526,
      "have": 1527,
      "degre": 1528,
      "degrees": 1529,
      "ise": 1530,
      "cas": 1531,
      "showcas": 1532,
      "tectonic": 1533,
      "complete": 1534,
      "remain": 1535,
      "Surface": 1536,
      "potent": 1537,
      "looking": 1538,
      "ning": 1539,
      "beneath": 1540,
      "eith": 1541,
      "either": 1542,
      "Several": 1543,
      "can": 1544,
      "positions": 1545,
      "alongside": 1546,
      "Maunder": 1547,
      "FB": 1548,
      "pl": 1549,
      "epoc": 1550,
      "stage": 1551,
      "interior": 1552,
      "red": 1553,
      "concent": 1554,
      "subsequently": 1555,
      "involving": 1556,
      "swe": 1557,
      "stacked": 1558,
      "limited": 1559,
      "Over": 1560,
      "differences": 1561,
      "icular": 1562,
      "particular": 1563,
      "($": 1564,
      "superimp": 1565,
      "irregularly": 1566,
      "illu": 1567,
      "particularly": 1568,
      "textural": 1569,
      "interplay": 1570,
      "wo": 1571,
      "sis": 1572,
      "sparsely": 1573,
      "eping": 1574,
      "around": 1575,
      "ron": 1576,
      "alysis": 1577,
      "remaining": 1578,
      "possibly": 1579,
      "Pat": 1580,
      "scarr": 1581,
      "gether": 1582,
      "Two": 1583,
      "pale": 1584,
      "Texturally": 1585,
      "cutting": 1586,
      "sweeping": 1587,
      "seems": 1588,
      "FBD": 1589,
      "epochs": 1590,
      "5D": 1591,
      "FBD5D": 1592,
      "FBD5D3": 1593,
      "chan": 1594,
      "Patches": 1595,
      "horizontally": 1596,
      "represented": 1597,
      "cern": 1598,
      "tom": 1599,
      "olith": 1600,
      "ottom": 1601,
      "blocks": 1602,
      "discern": 1603,
      "pepper": 1604,
      "trace": 1605,
      "exposure": 1606,
      "continu": 1607,
      "discernible": 1608,
      "bul": 1609,
      "preserved": 1610,
      "scarred": 1611,
      "bulk": 1612,
      "%).": 1613,
      "encompasses": 1614,
      "orig": 1615,
      "origin": 1616,
      "together": 1617,
      "nearby": 1618,
      "southeast": 1619,
      "sole": 1620,
      "fracturing": 1621,
      "blankets": 1622,
      "southwest": 1623,
      "Analysis": 1624,
      "exc": 1625,
      "elements": 1626,
      "bottom": 1627,
      "ven": 1628,
      "interactions": 1629,
      "levels": 1630,
      "eastern": 1631,
      "ridges": 1632,
      "elong": 1633,
      "ings": 1634,
      "($\\": 1635,
      "northeast": 1636,
      "juxtaposing": 1637,
      "velo": 1638,
      "sat": 1639,
      "**.": 1640,
      "satu": 1641,
      "elongated": 1642,
      "evident": 1643,
      "their": 1644,
      "overlie": 1645,
      "ifest": 1646,
      "manifest": 1647,
      "Min": 1648,
      "hosts": 1649,
      "settled": 1650,
      "mant": 1651,
      "any": 1652,
      "aces": 1653,
      "northwest": 1654,
      "ance": 1655,
      "stratigraphic": 1656,
      "jacent": 1657,
      "Minor": 1658,
      "throughout": 1659,
      "was": 1660,
      "tain": 1661,
      "xim": 1662,
      "Pr": 1663,
      "vening": 1664,
      "yed": 1665,
      "ign": 1666,
      "divided": 1667,
      "surve": 1668,
      "proxim": 1669,
      "intervening": 1670,
      "elevation": 1671,
      "change": 1672,
      ":**": 1673,
      "ped": 1674,
      "stand": 1675,
      "demarcated": 1676,
      "Adjacent": 1677,
      "peppered": 1678,
      "mostly": 1679,
      "nant": 1680,
      "ulated": 1681,
      "comprises": 1682,
      "rial": 1683,
      "terrest": 1684,
      "terrestrial": 1685,
      "Mark": 1686,
      "ived": 1687,
      "dation": 1688,
      "they": 1689,
      "rem": 1690,
      "toward": 1691,
      "highlighting": 1692,
      "Markings": 1693,
      "remnant": 1694,
      "undulat": 1695,
      "notably": 1696,
      "derived": 1697,
      "striations": 1698,
      "degradation": 1699,
      "indicate": 1700,
      "curving": 1701,
      "laterally": 1702,
      "characterizes": 1703,
      "depicted": 1704,
      "uplifted": 1705,
      "surveyed": 1706,
      "lining": 1707,
      "alized": 1708,
      "Three": 1709,
      "compar": 1710,
      "space": 1711,
      "gentle": 1712,
      "superimpos": 1713,
      "outlining": 1714,
      "moderately": 1715,
      "here": 1716,
      "being": 1717,
      "separation": 1718,
      "***": 1719,
      "singular": 1720,
      "twork": 1721,
      "resting": 1722,
      "network": 1723,
      "geometry": 1724,
      "Geological": 1725,
      "ness": 1726,
      "acts": 1727,
      "saturated": 1728,
      "dr": 1729,
      "mult": 1730,
      "ration": 1731,
      "densely": 1732,
      "envi": 1733,
      "enclosed": 1734,
      "environ": 1735,
      "91": 1736,
      "multi": 1737,
      "flu": 1738,
      "perime": 1739,
      "perimeter": 1740,
      "fragment": 1741,
      "ologies": 1742,
      "interst": 1743,
      "block": 1744,
      "banding": 1745,
      "brown": 1746,
      "lineated": 1747,
      "sitting": 1748,
      "open": 1749,
      "CD": 1750,
      "Some": 1751,
      "Prominent": 1752,
      "onto": 1753,
      "raw": 1754,
      "aint": 1755,
      "0000": 1756,
      "cl": 1757,
      "heter": 1758,
      "spraw": 1759,
      "sprawling": 1760,
      "location": 1761,
      "Ol": 1762,
      "ces": 1763,
      "ute": 1764,
      "ament": 1765,
      "mantle": 1766,
      "complexes": 1767,
      "drop": 1768,
      "interstit": 1769,
      "latter": 1770,
      "volcan": 1771,
      "Older": 1772,
      "incip": 1773,
      "ogenous": 1774,
      "ves": 1775,
      "princip": 1776,
      "ird": 1777,
      "running": 1778,
      "back": 1779,
      "third": 1780,
      "continuity": 1781,
      "unclassified": 1782,
      "resp": 1783,
      "monolith": 1784,
      "superiorly": 1785,
      "close": 1786,
      "BA": 1787,
      "some": 1788,
      "homogenous": 1789,
      "backdrop": 1790,
      "dig": 1791,
      "them": 1792,
      "minute": 1793,
      "demonstrating": 1794,
      "digit": 1795,
      "DC9": 1796,
      "F91": 1797,
      "inner": 1798,
      "DC9F91": 1799,
      "but": 1800,
      "giv": 1801,
      "Loc": 1802,
      "interdigit": 1803,
      "ring": 1804,
      "empl": 1805,
      "disrupted": 1806,
      "potentially": 1807,
      "components": 1808,
      "standing": 1809,
      "col": 1810,
      "scar": 1811,
      "patchy": 1812,
      "whose": 1813,
      "principal": 1814,
      "bow": 1815,
      "ency": 1816,
      "bowl": 1817,
      "maintain": 1818,
      "crosses": 1819,
      "ologically": 1820,
      "Topograph": 1821,
      "High": 1822,
      "oded": 1823,
      "occur": 1824,
      "modifying": 1825,
      "undulating": 1826,
      "Image": 1827,
      "massifs": 1828,
      "fragmented": 1829,
      "acency": 1830,
      "scent": 1831,
      "Fract": 1832,
      "lithological": 1833,
      "Per": 1834,
      "cris": 1835,
      "resu": 1836,
      "adjacency": 1837,
      "established": 1838,
      "Peri": 1839,
      "resul": 1840,
      "geologic": 1841,
      "pheral": 1842,
      "context": 1843,
      "crossing": 1844,
      "environment": 1845,
      "Peripheral": 1846,
      "faint": 1847,
      "time": 1848,
      "det": 1849,
      "Localized": 1850,
      "suc": 1851,
      "crescent": 1852,
      "Fracture": 1853,
      "Flo": 1854,
      "nectar": 1855,
      "Floor": 1856,
      "coun": 1857,
      "nectarian": 1858,
      "*,": 1859,
      "remnants": 1860,
      "ay": 1861,
      "changes": 1862,
      "ification": 1863,
      "lithology": 1864,
      "fund": 1865,
      "nested": 1866,
      "fundament": 1867,
      "ual": 1868,
      "stark": 1869,
      "heterogeneous": 1870,
      "prol": 1871,
      "abund": 1872,
      "onged": 1873,
      "prolonged": 1874,
      "lue": 1875,
      "second": 1876,
      "resulting": 1877,
      "arch": 1878,
      "prominently": 1879,
      "concentrated": 1880,
      "solely": 1881,
      "deta": 1882,
      "influ": 1883,
      "limits": 1884,
      "illustrating": 1885,
      "geographical": 1886,
      "smoothly": 1887,
      "flanks": 1888,
      "dramatically": 1889,
      "comprised": 1890,
      "top": 1891,
      "They": 1892,
      "fractures": 1893,
      "unar": 1894,
      "juxtaposes": 1895,
      "Fresh": 1896,
      "Geologically": 1897,
      "mantling": 1898,
      "Lunar": 1899,
      "conver": 1900,
      "overlain": 1901,
      "abundant": 1902,
      "characterize": 1903,
      "shadows": 1904,
      "interstitial": 1905,
      "inclus": 1906,
      "ef": 1907,
      "exists": 1908,
      "mod": 1909,
      "blue": 1910,
      "appearance": 1911,
      "strates": 1912,
      "differentiated": 1913,
      "mixed": 1914,
      "locally": 1915,
      "underlie": 1916,
      "stratification": 1917,
      "volcanic": 1918,
      "terr": 1919,
      "angular": 1920,
      "exclu": 1921,
      "strata": 1922,
      "stratified": 1923,
      "($\\#": 1924,
      "exclusive": 1925,
      "sid": 1926,
      "uppermost": 1927,
      "peripherally": 1928,
      "flanking": 1929,
      "Inter": 1930,
      "ten": 1931,
      "af": 1932,
      "din": 1933,
      "dition": 1934,
      "eroded": 1935,
      "fields": 1936,
      "velop": 1937,
      "ite": 1938,
      "uplift": 1939,
      "fundamentally": 1940,
      "gro": 1941,
      "yscale": 1942,
      "rolling": 1943,
      "cessive": 1944,
      "cum": 1945,
      "outlines": 1946,
      "than": 1947,
      "lect": 1948,
      "bordin": 1949,
      "wise": 1950,
      "made": 1951,
      "prec": 1952,
      "runs": 1953,
      "showcases": 1954,
      "ren": 1955,
      "difference": 1956,
      "otherwise": 1957,
      "exclusively": 1958,
      "bordinate": 1959,
      "tless": 1960,
      "precise": 1961,
      "fol": 1962,
      "subsid": 1963,
      "provided": 1964,
      "flows": 1965,
      "rims": 1966,
      "showcasing": 1967,
      "Be": 1968,
      "design": 1969,
      "countless": 1970,
      "arded": 1971,
      "setting": 1972,
      "bombarded": 1973,
      "ridge": 1974,
      "eep": 1975,
      "subordinate": 1976,
      "scross": 1977,
      "crisscross": 1978,
      "capped": 1979,
      "di": 1980,
      "pocket": 1981,
      "phases": 1982,
      "olut": 1983,
      "resid": 1984,
      "olution": 1985,
      "FF": 1986,
      "respon": 1987,
      "intersects": 1988,
      "correspon": 1989,
      "resist": 1990,
      "patchwork": 1991,
      "successive": 1992,
      "way": 1993,
      "bodies": 1994,
      "past": 1995,
      "sized": 1996,
      "aced": 1997,
      "lowland": 1998,
      "Overlying": 1999,
      "groo": 2000,
      "ser": 2001,
      "shown": 2002,
      "30": 2003,
      "CBA": 2004,
      "Map": 2005,
      "may": 2006,
      "designated": 2007,
      "often": 2008,
      "acement": 2009,
      "efined": 2010,
      "residual": 2011,
      "4CD": 2012,
      "CBA4CD": 2013,
      "Many": 2014,
      "seen": 2015,
      "bum": 2016,
      "spaces": 2017,
      "monolithic": 2018,
      "follow": 2019,
      "Below": 2020,
      "16": 2021,
      "oding": 2022,
      "accum": 2023,
      "undefined": 2024,
      "sem": 2025,
      "modifies": 2026,
      "bump": 2027,
      "evolution": 2028,
      "va": 2029,
      "flooding": 2030,
      "semb": 2031,
      "ected": 2032,
      "Cratered": 2033,
      "enced": 2034,
      "Highly": 2035,
      "bumpy": 2036,
      "Younger": 2037,
      "approxim": 2038,
      "igu": 2039,
      "divis": 2040,
      "resistant": 2041,
      "$)": 2042,
      "Bright": 2043,
      "pop": 2044,
      "element": 2045,
      "approximately": 2046,
      "slightly": 2047,
      "conn": 2048,
      "configu": 2049,
      "ple": 2050,
      "shif": 2051,
      "suggestive": 2052,
      "ellow": 2053,
      "giving": 2054,
      "configuration": 2055,
      "lit": 2056,
      "encro": 2057,
      "divid": 2058,
      "lobe": 2059,
      "comprising": 2060,
      "southwestern": 2061,
      "former": 2062,
      "interming": 2063,
      "incised": 2064,
      "anging": 2065,
      "lowlands": 2066,
      "Dome": 2067,
      "orpo": 2068,
      "incorpo": 2069,
      "parts": 2070,
      "20": 2071,
      "size": 2072,
      "create": 2073,
      "clustered": 2074,
      "ranging": 2075,
      "intr": 2076,
      "alyz": 2077,
      "trun": 2078,
      "intensely": 2079,
      "trunc": 2080,
      "delimited": 2081,
      "analyz": 2082,
      "there": 2083,
      "point": 2084,
      "intermedi": 2085,
      "down": 2086,
      "abs": 2087,
      "controlled": 2088,
      "non": 2089,
      "morphologies": 2090,
      "incorporat": 2091,
      "modulated": 2092,
      "Addition": 2093,
      "analyzed": 2094,
      "big": 2095,
      "assemb": 2096,
      "green": 2097,
      "potential": 2098,
      "ider": 2099,
      "systems": 2100,
      "Additionally": 2101,
      "Structural": 2102,
      "geography": 2103,
      "share": 2104,
      "complexity": 2105,
      "yellow": 2106,
      "graben": 2107,
      "velopment": 2108,
      "serve": 2109,
      "slo": 2110,
      "ved": 2111,
      "steep": 2112,
      "development": 2113,
      "yet": 2114,
      "corresponding": 2115,
      "discontinuity": 2116,
      "unidentified": 2117,
      "dish": 2118,
      "even": 2119,
      "segments": 2120,
      "ds": 2121,
      "distinctive": 2122,
      "grayscale": 2123,
      "arching": 2124,
      "CF": 2125,
      "Sub": 2126,
      "reddish": 2127,
      "intermediate": 2128,
      "overarching": 2129,
      "visibly": 2130,
      "phase": 2131,
      "ferior": 2132,
      "unmapped": 2133,
      "gr": 2134,
      "sign": 2135,
      "framing": 2136,
      "stret": 2137,
      "closely": 2138,
      "$),": 2139,
      "lowest": 2140,
      "emplacement": 2141,
      "includes": 2142,
      "terran": 2143,
      "overpr": 2144,
      "distribution": 2145,
      "lateaus": 2146,
      "):**": 2147,
      "ame": 2148,
      "inferior": 2149,
      "others": 2150,
      "manifests": 2151,
      "A5": 2152,
      "rich": 2153,
      "notable": 2154,
      "widely": 2155,
      "000000": 2156,
      "plateaus": 2157,
      "serving": 2158,
      "broadly": 2159,
      "origins": 2160,
      "gl": 2161,
      "compositions": 2162,
      "assembla": 2163,
      "negl": 2164,
      "signs": 2165,
      "neglig": 2166,
      "wider": 2167,
      "imes": 2168,
      "geometrically": 2169,
      "Interspersed": 2170,
      "fic": 2171,
      "delineation": 2172,
      "negligible": 2173,
      ")**": 2174,
      "eper": 2175,
      "ref": 2176,
      "curren": 2177,
      "fractured": 2178,
      "infills": 2179,
      "southeastern": 2180,
      "current": 2181,
      "bu": 2182,
      "uneven": 2183,
      "uplands": 2184,
      "bear": 2185,
      "occurred": 2186,
      "were": 2187,
      "medium": 2188,
      "division": 2189,
      "Em": 2190,
      "car": 2191,
      "izing": 2192,
      "minimally": 2193,
      "scars": 2194,
      "ficial": 2195,
      "Embedded": 2196,
      "reflect": 2197,
      "modifications": 2198,
      "assemblage": 2199,
      "inund": 2200,
      "buil": 2201,
      "underg": 2202,
      "crop": 2203,
      "excav": 2204,
      "compared": 2205,
      "ored": 2206,
      "bounding": 2207,
      "compositionally": 2208,
      "enclos": 2209,
      "traces": 2210,
      "consisting": 2211,
      "brightness": 2212,
      "dust": 2213,
      "outcrop": 2214,
      "CF30": 2215,
      "A5CF30": 2216,
      "deeper": 2217,
      "iation": 2218,
      "abil": 2219,
      "stratum": 2220,
      "contrasted": 2221,
      "basement": 2222,
      "detail": 2223,
      "aff": 2224,
      "ink": 2225,
      "atively": 2226,
      "lithologies": 2227,
      "termin": 2228,
      "comparatively": 2229,
      "intru": 2230,
      "lap": 2231,
      "occupied": 2232,
      "sectors": 2233,
      "plane": 2234,
      "{#": 2235,
      "icate": 2236,
      "iary": 2237,
      "built": 2238,
      "ched": 2239,
      "strongly": 2240,
      "crisscrossed": 2241,
      "dict": 2242,
      "grou": 2243,
      "ps": 2244,
      "impacting": 2245,
      "constitute": 2246,
      "crossed": 2247,
      "converge": 2248,
      "inclusions": 2249,
      "absent": 2250,
      "undergone": 2251,
      "99": 2252,
      "superimposition": 2253,
      "nel": 2254,
      "channel": 2255,
      "accumulat": 2256,
      "Vari": 2257,
      "cal": 2258,
      "Smoother": 2259,
      "colored": 2260,
      "All": 2261,
      "discontinuous": 2262,
      "interrupts": 2263,
      "ce": 2264,
      "emphas": 2265,
      "typ": 2266,
      "44": 2267,
      "without": 2268,
      "ively": 2269,
      "expos": 2270,
      "bounds": 2271,
      "deformation": 2272,
      "observe": 2273,
      "*.": 2274,
      "65": 2275,
      "ken": 2276,
      "tal": 2277,
      "ecting": 2278,
      "clusters": 2279,
      "pockets": 2280,
      "shift": 2281,
      "rip": 2282,
      "quite": 2283,
      "aps": 2284,
      "interpre": 2285,
      "anged": 2286,
      "superimposing": 2287,
      "spread": 2288,
      "rations": 2289,
      "creates": 2290,
      "sequentially": 2291,
      "overprin": 2292,
      "she": 2293,
      "comb": 2294,
      "concentrations": 2295,
      "orange": 2296,
      "conflu": 2297,
      "dividing": 2298,
      "her": 2299,
      "kind": 2300,
      "noticeably": 2301,
      "emplaced": 2302,
      "mainly": 2303,
      "uninterrupted": 2304,
      "interrupt": 2305,
      "Overlap": 2306,
      "detai": 2307,
      "Overlapping": 2308,
      "pec": 2309,
      "ased": 2310,
      "ress": 2311,
      "selves": 2312,
      "themselves": 2313,
      "Subtle": 2314,
      "confluence": 2315,
      "iment": 2316,
      "incorporates": 2317,
      "interpreted": 2318,
      "hal": 2319,
      "regolith": 2320,
      "subject": 2321,
      "floors": 2322,
      "encroac": 2323,
      "inundation": 2324,
      "ensive": 2325,
      "sediment": 2326,
      "maintains": 2327,
      "typical": 2328,
      "sheet": 2329,
      "kinds": 2330,
      "cess": 2331,
      "kes": 2332,
      "undivided": 2333,
      "type": 2334,
      "immediate": 2335,
      "inclusion": 2336,
      "half": 2337,
      "how": 2338,
      "ities": 2339,
      "ects": 2340,
      "total": 2341,
      "broken": 2342,
      "tly": 2343,
      "characteristics": 2344,
      "preservation": 2345,
      "proximity": 2346,
      "dusty": 2347,
      "making": 2348,
      "lacking": 2349,
      "littered": 2350,
      "crusts": 2351,
      "arranged": 2352,
      "crescentic": 2353,
      "converg": 2354,
      "ability": 2355,
      "calm": 2356,
      "Ju": 2357,
      "ole": 2358,
      "recor": 2359,
      "interrupting": 2360,
      "Juxtap": 2361,
      "tou": 2362,
      "align": 2363,
      "lava": 2364,
      "apping": 2365,
      "etched": 2366,
      "strip": 2367,
      "draped": 2368,
      "streak": 2369,
      "veloped": 2370,
      "details": 2371,
      "convergence": 2372,
      "Vast": 2373,
      "whole": 2374,
      "sites": 2375,
      "networks": 2376,
      "`#": 2377,
      "exp": 2378,
      "demarcation": 2379,
      "illustrates": 2380,
      "grooves": 2381,
      "Based": 2382,
      "Com": 2383,
      "youn": 2384,
      "makes": 2385,
      "bel": 2386,
      "Discrete": 2387,
      "expans": 2388,
      "fu": 2389,
      "gree": 2390,
      "span": 2391,
      "degree": 2392,
      "intricate": 2393,
      "expanses": 2394,
      "Plain": 2395,
      "sw": 2396,
      "ugged": 2397,
      "rad": 2398,
      "demonstrate": 2399,
      "Topography": 2400,
      "influenced": 2401,
      "hesive": 2402,
      "reme": 2403,
      "though": 2404,
      "extreme": 2405,
      "striated": 2406,
      "cohesive": 2407,
      "possible": 2408,
      "possesses": 2409,
      "influence": 2410,
      "Bro": 2411,
      "Rugged": 2412,
      "ered": 2413,
      "apsu": 2414,
      "subtly": 2415,
      "encapsu": 2416,
      "knobby": 2417,
      "deepest": 2418,
      "Broad": 2419,
      "urple": 2420,
      "crip": 2421,
      "excavated": 2422,
      "cription": 2423,
      "characterizing": 2424,
      "dictates": 2425,
      "wall": 2426,
      "73": 2427,
      "Along": 2428,
      "Bound": 2429,
      "superimpose": 2430,
      "Juxtaposed": 2431,
      "BF": 2432,
      "Ext": 2433,
      "mid": 2434,
      "subsidiary": 2435,
      "swat": 2436,
      "CA": 2437,
      "Des": 2438,
      "atter": 2439,
      "stra": 2440,
      "regionally": 2441,
      "Structure": 2442,
      "Extensive": 2443,
      "tic": 2444,
      "ialized": 2445,
      "scatter": 2446,
      "hosting": 2447,
      "maintaining": 2448,
      "pink": 2449,
      "CE": 2450,
      "sol": 2451,
      "gives": 2452,
      "CEA": 2453,
      "7F": 2454,
      "Vis": 2455,
      "espec": 2456,
      "sup": 2457,
      "solid": 2458,
      "CEA7F": 2459,
      "especially": 2460,
      "CEA7F1": 2461,
      "Ab": 2462,
      "wavy": 2463,
      "specialized": 2464,
      "drape": 2465,
      "stratigraphically": 2466,
      "detailed": 2467,
      "iling": 2468,
      "les": 2469,
      "off": 2470,
      "urbed": 2471,
      "undist": 2472,
      "after": 2473,
      "extremely": 2474,
      "Description": 2475,
      "Visible": 2476,
      "undisturbed": 2477,
      "wor": 2478,
      "rounded": 2479,
      "chron": 2480,
      "Separ": 2481,
      "overlaps": 2482,
      "banded": 2483,
      "outline": 2484,
      "preva": 2485,
      "prevailing": 2486,
      "12": 2487,
      "caps": 2488,
      "northeastern": 2489,
      "connected": 2490,
      "carved": 2491,
      "ager": 2492,
      "inally": 2493,
      "great": 2494,
      "oldest": 2495,
      "original": 2496,
      "monolithically": 2497,
      "populat": 2498,
      "inferiorly": 2499,
      "combin": 2500,
      "Boundaries": 2501,
      "agery": 2502,
      "10": 2503,
      "greg": 2504,
      "acting": 2505,
      "segreg": 2506,
      "linea": 2507,
      "Darker": 2508,
      "channels": 2509,
      "11": 2510,
      "same": 2511,
      "semi": 2512,
      "blanketed": 2513,
      "followed": 2514,
      "terranes": 2515,
      "straight": 2516,
      "lineaments": 2517,
      "rif": 2518,
      "discontinu": 2519,
      "texturally": 2520,
      "ogeneity": 2521,
      "discontinuities": 2522,
      "kled": 2523,
      "acing": 2524,
      "geom": 2525,
      "imagery": 2526,
      "speckled": 2527,
      "rocky": 2528,
      "abutts": 2529,
      "intermingled": 2530,
      "worn": 2531,
      "akn": 2532,
      "hol": 2533,
      "purple": 2534,
      "itect": 2535,
      "stages": 2536,
      "weakn": 2537,
      "architect": 2538,
      "ently": 2539,
      "Major": 2540,
      "spanning": 2541,
      "Separately": 2542,
      "combination": 2543,
      "cast": 2544,
      "times": 2545,
      "shares": 2546,
      "flood": 2547,
      "superficial": 2548,
      "mixt": 2549,
      "Further": 2550,
      "rounding": 2551,
      "Surrounding": 2552,
      "segregated": 2553,
      "mixture": 2554,
      "CCA": 2555,
      "bis": 2556,
      "dle": 2557,
      "sion": 2558,
      "implying": 2559,
      "roughness": 2560,
      "northwestern": 2561,
      "demonstrates": 2562,
      "BAB": 2563,
      "Various": 2564,
      "offset": 2565,
      "architecture": 2566,
      "CCABAB": 2567,
      "0A": 2568,
      "C0A": 2569,
      "FCD": 2570,
      "tre": 2571,
      "amid": 2572,
      "bearing": 2573,
      "grouping": 2574,
      "FCDC0A": 2575,
      "Ben": 2576,
      "hu": 2577,
      "oured": 2578,
      "shared": 2579,
      "quadrants": 2580,
      "collect": 2581,
      "intermingling": 2582,
      "encloses": 2583,
      "Above": 2584,
      "holes": 2585,
      "trend": 2586,
      "Beneath": 2587,
      "}$)": 2588,
      "inte": 2589,
      "prof": 2590,
      "affecting": 2591,
      "belt": 2592,
      "middle": 2593,
      "97": 2594,
      "othe": 2595,
      "plat": 2596,
      "plex": 2597,
      "smo": 2598,
      "ys": 2599,
      "sequences": 2600,
      "demarcates": 2601,
      "tectonically": 2602,
      "outcrops": 2603,
      "Complex": 2604,
      "amidst": 2605,
      "smoothe": 2606,
      "23": 2607,
      "ode": 2608,
      "ribut": 2609,
      "thic": 2610,
      "contribut": 2611,
      "ounts": 2612,
      "amounts": 2613,
      "episode": 2614,
      "interdigitated": 2615,
      "13": 2616,
      "haps": 2617,
      "perhaps": 2618,
      "locations": 2619,
      "ching": 2620,
      "superimposes": 2621,
      "respect": 2622,
      "recently": 2623,
      "stretches": 2624,
      "wind": 2625,
      "smoothness": 2626,
      "obsc": 2627,
      "centered": 2628,
      "encapsulat": 2629,
      "22": 2630,
      "Sh": 2631,
      "diffu": 2632,
      "gradu": 2633,
      "site": 2634,
      "confin": 2635,
      "2016": 2636,
      "diffuse": 2637,
      "%,": 2638,
      "ged": 2639,
      "eras": 2640,
      "Formations": 2641,
      "mented": 2642,
      "encroach": 2643,
      "21": 2644,
      "sions": 2645,
      "remark": 2646,
      "vert": 2647,
      "appar": 2648,
      "variably": 2649,
      "differentiation": 2650,
      "disruption": 2651,
      "slopes": 2652,
      "subjected": 2653,
      "winding": 2654,
      "F8": 2655,
      "lineal": 2656,
      "curve": 2657,
      "key": 2658,
      "divide": 2659,
      "punctuate": 2660,
      "demarcating": 2661,
      "completing": 2662,
      "subsidence": 2663,
      "following": 2664,
      "accumulated": 2665,
      "accumulation": 2666,
      "platform": 2667,
      "2016F8": 2668,
      "lined": 2669,
      "precisely": 2670,
      "14": 2671,
      "C4": 2672,
      "smoothed": 2673,
      "24": 2674,
      "sim": 2675,
      "laid": 2676,
      "concentr": 2677,
      "complexly": 2678,
      "encirc": 2679,
      "southward": 2680,
      "outlined": 2681,
      "piec": 2682,
      "25": 2683,
      "requ": 2684,
      "relate": 2685,
      "divides": 2686,
      "encroaches": 2687,
      "remarkably": 2688,
      "concentric": 2689,
      "28": 2690,
      "2C": 2691,
      "B2C": 2692,
      "Sparse": 2693,
      "bur": 2694,
      "}$),": 2695,
      "ism": 2696,
      "rea": 2697,
      "what": 2698,
      "Heavy": 2699,
      "interdigitating": 2700,
      "sedimentation": 2701,
      "73B2C": 2702,
      "bisected": 2703,
      "thick": 2704,
      "73B2C2": 2705,
      "26": 2706,
      "Re": 2707,
      "gan": 2708,
      "nat": 2709,
      "recess": 2710,
      "organ": 2711,
      "distur": 2712,
      "extends": 2713,
      "concentration": 2714,
      "apparent": 2715,
      "(`#": 2716,
      "17": 2717,
      "Br": 2718,
      "path": 2719,
      "interconnected": 2720,
      "walls": 2721,
      "Furthermore": 2722,
      "31": 2723,
      "moon": 2724,
      "shal": 2725,
      "overprinted": 2726,
      "encapsulates": 2727,
      "every": 2728,
      "vo": 2729,
      "contoured": 2730,
      "interdigitates": 2731,
      "shifts": 2732,
      "Gra": 2733,
      "ering": 2734,
      "blocky": 2735,
      "chronological": 2736,
      "disturbed": 2737,
      "98": 2738,
      "Newer": 2739,
      "accom": 2740,
      "definition": 2741,
      "phys": 2742,
      "tracts": 2743,
      "undulations": 2744,
      "Topographic": 2745,
      "terrane": 2746,
      "exposing": 2747,
      "accommod": 2748,
      "Con": 2749,
      "Lighter": 2750,
      "\\#": 2751,
      "bes": 2752,
      "frequ": 2753,
      "sof": 2754,
      "centers": 2755,
      "association": 2756,
      "process": 2757,
      "somewhat": 2758,
      "collectively": 2759,
      "recessed": 2760,
      "Grayscale": 2761,
      "begin": 2762,
      "undifferent": 2763,
      "morphological": 2764,
      "Most": 2765,
      "depict": 2766,
      "volcanism": 2767,
      "suppor": 2768,
      "undifferentiated": 2769,
      "crat": 2770,
      "oing": 2771,
      "enveloped": 2772,
      "conc": 2773,
      "identif": 2774,
      "geomorph": 2775,
      "frequently": 2776,
      "18": 2777,
      "38": 2778,
      "Wow": 2779,
      "lle": 2780,
      "rather": 2781,
      "envelop": 2782,
      "surficial": 2783,
      "tward": 2784,
      "vious": 2785,
      "lineations": 2786,
      "rille": 2787,
      "prog": 2788,
      "proportion": 2789,
      "provide": 2790,
      "mantled": 2791,
      "truncates": 2792,
      "downward": 2793,
      "15": 2794,
      "8FF": 2795,
      "E8FF": 2796,
      "Their": 2797,
      "stress": 2798,
      "relates": 2799,
      "flowing": 2800,
      "bears": 2801,
      "enclosing": 2802,
      "C4E8FF": 2803,
      "ilar": 2804,
      "pit": 2805,
      "range": 2806,
      "active": 2807,
      "structuring": 2808,
      "dominantly": 2809,
      "fring": 2810,
      "densities": 2811,
      "scarp": 2812,
      "rift": 2813,
      "similar": 2814,
      "everywhere": 2815,
      ")**,": 2816,
      "1C": 2817,
      "7BF": 2818,
      "tri": 2819,
      "variability": 2820,
      "ightly": 2821,
      "mixing": 2822,
      "interstitially": 2823,
      "weaknesses": 2824,
      "concave": 2825,
      "1C7BF": 2826,
      "1C7BF6": 2827,
      "wra": 2828,
      "bric": 2829,
      "least": 2830,
      "pris": 2831,
      "entirety": 2832,
      "fabric": 2833,
      "huge": 2834,
      "Brown": 2835,
      "equ": 2836,
      "tightly": 2837,
      "generalized": 2838,
      "tem": 2839,
      "demarcate": 2840,
      "involves": 2841,
      "populated": 2842,
      "young": 2843,
      "$).": 2844,
      "35": 2845,
      "moun": 2846,
      "mapping": 2847,
      "packed": 2848,
      "ulate": 2849,
      "ying": 2850,
      "outward": 2851,
      "extern": 2852,
      "addition": 2853,
      "plainer": 2854,
      "Copernicus": 2855,
      "due": 2856,
      "Topographically": 2857,
      "grooved": 2858,
      "profile": 2859,
      "mountain": 2860,
      "BB": 2861,
      "F4": 2862,
      "Flank": 2863,
      "Par": 2864,
      "gated": 2865,
      "varies": 2866,
      "tracing": 2867,
      "ongoing": 2868,
      "centralized": 2869,
      "resides": 2870,
      "disrupt": 2871,
      "occurren": 2872,
      "442": 2873,
      "65442": 2874,
      "calmer": 2875,
      "beginning": 2876,
      "Flanking": 2877,
      "emat": 2878,
      "infilled": 2879,
      "andering": 2880,
      "asion": 2881,
      "dispar": 2882,
      "laying": 2883,
      "occasion": 2884,
      "sharing": 2885,
      "systemat": 2886,
      "overprinting": 2887,
      "radial": 2888,
      "Parallel": 2889,
      "65442F": 2890,
      "ABB": 2891,
      "tine": 2892,
      "dominance": 2893,
      "meandering": 2894,
      "odu": 2895,
      "crack": 2896,
      "Overlaying": 2897,
      "stands": 2898,
      "crisp": 2899,
      "record": 2900,
      "integ": 2901,
      "pieces": 2902,
      "pristine": 2903,
      "tempor": 2904,
      "disparate": 2905,
      "19": 2906,
      "40": 2907,
      "Plan": 2908,
      "dat": 2909,
      "weath": 2910,
      "hest": 2911,
      "arp": 2912,
      "rill": 2913,
      "00ABB": 2914,
      "Sharp": 2915,
      "envelops": 2916,
      "00ABB3": 2917,
      "27": 2918,
      "gover": 2919,
      "seeming": 2920,
      "flowed": 2921,
      "saturation": 2922,
      "populations": 2923,
      "casting": 2924,
      "trends": 2925,
      "nature": 2926,
      "data": 2927,
      "Much": 2928,
      "brea": 2929,
      "stability": 2930,
      "brian": 2931,
      "relating": 2932,
      "depressed": 2933,
      "tones": 2934,
      "Relat": 2935,
      "(\\#": 2936,
      "32": 2937,
      "tan": 2938,
      "imbrian": 2939,
      "previous": 2940,
      "substrates": 2941,
      "mean": 2942,
      "contacting": 2943,
      "interfacing": 2944,
      "lacks": 2945,
      "dissects": 2946,
      "environments": 2947,
      "Topographical": 2948,
      "points": 2949,
      "crateric": 2950,
      "extending": 2951,
      "stripes": 2952,
      "introdu": 2953,
      "accumulations": 2954,
      "occasionally": 2955,
      "336": 2956,
      "Feat": 2957,
      "Und": 2958,
      "rib": 2959,
      "outh": 2960,
      "clean": 2961,
      "coher": 2962,
      "fluid": 2963,
      "FF336": 2964,
      "organized": 2965,
      "govern": 2966,
      "meaning": 2967,
      "FF3361": 2968,
      "Deep": 2969,
      "Finally": 2970,
      "dy": 2971,
      "lots": 2972,
      "regime": 2973,
      "mab": 2974,
      "grad": 2975,
      "locale": 2976,
      "transects": 2977,
      "abutment": 2978,
      "qui": 2979,
      "divisions": 2980,
      "populate": 2981,
      "youngest": 2982,
      "gradual": 2983,
      "softer": 2984,
      "rilles": 2985,
      "42": 2986,
      "A16": 2987,
      "capping": 2988,
      "hit": 2989,
      "ler": 2990,
      "repe": 2991,
      "featured": 2992,
      "shades": 2993,
      "sloping": 2994,
      "stretch": 2995,
      "reflects": 2996,
      "F4A16": 2997,
      "weathered": 2998,
      "Features": 2999,
      "repeated": 3000,
      "F4A164": 3001,
      "34": 3002,
      "70": 3003,
      "hig": 3004,
      "iqu": 3005,
      "homogeneity": 3006,
      "placement": 3007,
      "terminates": 3008,
      "gradient": 3009,
      "highest": 3010,
      "6D": 3011,
      "6FF": 3012,
      "A6D": 3013,
      "Tra": 3014,
      "ill": 3015,
      "ters": 3016,
      "evidenced": 3017,
      "fraction": 3018,
      "narrower": 3019,
      "Pronounced": 3020,
      "grooving": 3021,
      "progress": 3022,
      "additional": 3023,
      "Relationship": 3024,
      "A6D6FF": 3025,
      "37": 3026,
      "Lay": 3027,
      "Nest": 3028,
      "lic": 3029,
      "valle": 3030,
      "rate": 3031,
      "displayed": 3032,
      "transver": 3033,
      "indicated": 3034,
      "patterning": 3035,
      "flooded": 3036,
      "encompassed": 3037,
      "complemented": 3038,
      "comprise": 3039,
      "subsided": 3040,
      "truncate": 3041,
      "encroached": 3042,
      "buried": 3043,
      "Traver": 3044,
      "33": 3045,
      "egated": 3046,
      "gaps": 3047,
      "spo": 3048,
      "erlying": 3049,
      "artic": 3050,
      "altern": 3051,
      "entr": 3052,
      "experi": 3053,
      "izable": 3054,
      "make": 3055,
      "variegated": 3056,
      "success": 3057,
      "exposes": 3058,
      "contributing": 3059,
      "Planes": 3060,
      "Underlying": 3061,
      "coherent": 3062,
      "spots": 3063,
      "experienced": 3064,
      "%.": 3065,
      "39": 3066,
      "52": 3067,
      "At": 3068,
      "almost": 3069,
      "lier": 3070,
      "Super": 3071,
      "neighbors": 3072,
      "illustrate": 3073,
      "alignments": 3074,
      "void": 3075,
      "seemingly": 3076,
      "60": 3077,
      "Is": 3078,
      "tment": 3079,
      "arra": 3080,
      "accoun": 3081,
      "developed": 3082,
      "collis": 3083,
      "corresponds": 3084,
      "swath": 3085,
      "Relationships": 3086,
      "succession": 3087,
      "Isolated": 3088,
      "47": 3089,
      "50": 3090,
      "89": 3091,
      "Centr": 3092,
      "vene": 3093,
      "envelo": 3094,
      "move": 3095,
      "lineament": 3096,
      "intermixed": 3097,
      "variet": 3098,
      "composite": 3099,
      "basalts": 3100,
      "limb": 3101,
      "connecting": 3102,
      "occurrences": 3103,
      "veneer": 3104,
      "Evid": 3105,
      "wave": 3106,
      "inside": 3107,
      "smallest": 3108,
      "Intern": 3109,
      "striped": 3110,
      "compartment": 3111,
      "shallower": 3112,
      "equal": 3113,
      "Evidence": 3114,
      "dent": 3115,
      "finally": 3116,
      "penet": 3117,
      "controls": 3118,
      "occurs": 3119,
      "incorporating": 3120,
      "respective": 3121,
      "systematically": 3122,
      "55": 3123,
      "Faint": 3124,
      "Near": 3125,
      "rates": 3126,
      "grading": 3127,
      "viewing": 3128,
      "heterogeneity": 3129,
      "sheets": 3130,
      "records": 3131,
      "accommodates": 3132,
      "43": 3133,
      "air": 3134,
      "icuous": 3135,
      "labe": 3136,
      "consp": 3137,
      "scrib": 3138,
      "topographies": 3139,
      "constituting": 3140,
      "juxtapose": 3141,
      "scarps": 3142,
      "alignment": 3143,
      "pitted": 3144,
      "triple": 3145,
      "cleanly": 3146,
      "alternating": 3147,
      "labeled": 3148,
      "conspicuous": 3149,
      "54": 3150,
      "62": 3151,
      "DBF": 3152,
      "Str": 3153,
      "pair": 3154,
      "ization": 3155,
      "adjacently": 3156,
      "relation": 3157,
      "early": 3158,
      "ained": 3159,
      "sour": 3160,
      "partial": 3161,
      "correlating": 3162,
      "geographic": 3163,
      "intact": 3164,
      "manifesting": 3165,
      "interdigitation": 3166,
      "absence": 3167,
      "emphasizes": 3168,
      "97DBF": 3169,
      "confining": 3170,
      "Strong": 3171,
      "97DBF2": 3172,
      "41": 3173,
      "49": 3174,
      "Pho": 3175,
      "jo": 3176,
      "ue": 3177,
      "reac": 3178,
      "shape": 3179,
      "itioned": 3180,
      "created": 3181,
      "amongst": 3182,
      "shadowing": 3183,
      "volum": 3184,
      "ways": 3185,
      "vertically": 3186,
      "Layered": 3187,
      "Traversing": 3188,
      "enveloping": 3189,
      "Photo": 3190,
      "51": 3191,
      "64": 3192,
      "Due": 3193,
      "crad": 3194,
      "ened": 3195,
      "vastly": 3196,
      "geometric": 3197,
      "proximal": 3198,
      "diame": 3199,
      "Varied": 3200,
      "touches": 3201,
      "encroaching": 3202,
      "governed": 3203,
      "articulated": 3204,
      "reaches": 3205,
      "45": 3206,
      "Tr": 3207,
      "cate": 3208,
      "during": 3209,
      "gor": 3210,
      "pal": 3211,
      "youth": 3212,
      "reas": 3213,
      "stack": 3214,
      "visu": 3215,
      "highs": 3216,
      "fir": 3217,
      "elevations": 3218,
      "Superior": 3219,
      "superpos": 3220,
      "rocks": 3221,
      "gentler": 3222,
      "overprint": 3223,
      "reflecting": 3224,
      "emphasizing": 3225,
      "respectively": 3226,
      "confines": 3227,
      "movement": 3228,
      "scribed": 3229,
      "categor": 3230,
      "categorized": 3231,
      "57": 3232,
      "Areas": 3233,
      "Gre": 3234,
      "inting": 3235,
      "rep": 3236,
      "our": 3237,
      "ional": 3238,
      "regimes": 3239,
      "lows": 3240,
      "ince": 3241,
      "spans": 3242,
      "possess": 3243,
      "vertical": 3244,
      "pathways": 3245,
      "mountainous": 3246,
      "mably": 3247,
      "variety": 3248,
      "48": 3249,
      "Div": 3250,
      "ama": 3251,
      "len": 3252,
      "tes": 3253,
      "accre": 3254,
      "implies": 3255,
      "impactated": 3256,
      "common": 3257,
      "complic": 3258,
      "transect": 3259,
      "earlier": 3260,
      "darkest": 3261,
      "broadest": 3262,
      "litho": 3263,
      "Textures": 3264,
      "completely": 3265,
      "intrusions": 3266,
      "encircles": 3267,
      "Green": 3268,
      "Diverse": 3269,
      "complicated": 3270,
      "80": 3271,
      "dama": 3272,
      "simp": 3273,
      "tone": 3274,
      "accent": 3275,
      "omet": 3276,
      "grained": 3277,
      "unde": 3278,
      "uniformity": 3279,
      "adjoined": 3280,
      "pockmarks": 3281,
      "linking": 3282,
      "substantially": 3283,
      "interdigitate": 3284,
      "touching": 3285,
      "supports": 3286,
      "craton": 3287,
      "cracks": 3288,
      "valley": 3289,
      "Central": 3290,
      "Cont": 3291,
      "call": 3292,
      "give": 3293,
      "mary": 3294,
      "pass": 3295,
      "wedge": 3296,
      "inde": 3297,
      "ann": 3298,
      "conform": 3299,
      "interacted": 3300,
      "tions": 3301,
      "uniqu": 3302,
      "internally": 3303,
      "placed": 3304,
      "epoch": 3305,
      "truncated": 3306,
      "currently": 3307,
      "population": 3308,
      "previously": 3309,
      "Nestled": 3310,
      "lithostratigraphic": 3311,
      "indepen": 3312,
      "unique": 3313,
      "\\%": 3314,
      "somet": 3315,
      "itial": 3316,
      "alter": 3317,
      "bris": 3318,
      "debris": 3319,
      "sely": 3320,
      "differentially": 3321,
      "%)**": 3322,
      "aving": 3323,
      "basaltic": 3324,
      "disrupting": 3325,
      "fundamental": 3326,
      "swaths": 3327,
      "beside": 3328,
      "external": 3329,
      "integrated": 3330,
      "diameters": 3331,
      "called": 3332,
      "sometimes": 3333,
      "53": 3334,
      "58": 3335,
      "59": 3336,
      "75": 3337,
      "Sit": 3338,
      "ige": 3339,
      "na": 3340,
      "val": 3341,
      "ory": 3342,
      "dispersed": 3343,
      "topographically": 3344,
      "encas": 3345,
      "minated": 3346,
      "marginally": 3347,
      "gener": 3348,
      "sequently": 3349,
      "floored": 3350,
      "Stri": 3351,
      "planet": 3352,
      "olds": 3353,
      "FBE": 3354,
      "connects": 3355,
      "termined": 3356,
      "supple": 3357,
      "Consequently": 3358,
      "Trans": 3359,
      "Situated": 3360,
      "96": 3361,
      "Ele": 3362,
      "Widespread": 3363,
      "dled": 3364,
      "oto": 3365,
      "sizable": 3366,
      "tling": 3367,
      "vated": 3368,
      "ish": 3369,
      "iant": 3370,
      "lobes": 3371,
      "sea": 3372,
      "photo": 3373,
      "extension": 3374,
      "punctate": 3375,
      "segmenting": 3376,
      "riddled": 3377,
      "constrain": 3378,
      "touch": 3379,
      "streaky": 3380,
      "depicting": 3381,
      "compartmentalized": 3382,
      "paler": 3383,
      "damaged": 3384,
      "annular": 3385,
      "Transition": 3386,
      "Elevated": 3387,
      "Black": 3388,
      "Sinuous": 3389,
      "`)": 3390,
      "mari": 3391,
      "nam": 3392,
      "altered": 3393,
      "radi": 3394,
      "dep": 3395,
      "scul": 3396,
      "presu": 3397,
      "linearity": 3398,
      "Int": 3399,
      "markedly": 3400,
      "shadowy": 3401,
      "superpositional": 3402,
      "planes": 3403,
      "province": 3404,
      "connect": 3405,
      "collisions": 3406,
      "penetrate": 3407,
      "named": 3408,
      "planetary": 3409,
      "maria": 3410,
      "sculp": 3411,
      "72": 3412,
      "95": 3413,
      "do": 3414,
      "hinting": 3415,
      "ked": 3416,
      "name": 3417,
      "beige": 3418,
      "paths": 3419,
      "assign": 3420,
      "darkened": 3421,
      "bedding": 3422,
      "circum": 3423,
      "draping": 3424,
      "arcing": 3425,
      "Overall": 3426,
      "territ": 3427,
      "emphasize": 3428,
      "combined": 3429,
      "wraps": 3430,
      "dynam": 3431,
      "undetermined": 3432,
      "46": 3433,
      "78": 3434,
      "analysis": 3435,
      "sure": 3436,
      "sust": 3437,
      "stu": 3438,
      "encing": 3439,
      "eastward": 3440,
      "ographic": 3441,
      "outermost": 3442,
      "role": 3443,
      "($\\#\\": 3444,
      "20D": 3445,
      "stretching": 3446,
      "geomorphology": 3447,
      "wrap": 3448,
      "assigned": 3449,
      "56": 3450,
      "eter": 3451,
      "ful": 3452,
      "holds": 3453,
      "tiary": 3454,
      "ust": 3455,
      "edged": 3456,
      "stabil": 3457,
      "preval": 3458,
      "ruggedly": 3459,
      "incis": 3460,
      "historical": 3461,
      "crest": 3462,
      "sinuously": 3463,
      "separately": 3464,
      "carving": 3465,
      "disruptions": 3466,
      "temporal": 3467,
      "quieter": 3468,
      "Superposed": 3469,
      "accounts": 3470,
      "cradled": 3471,
      "Superiorly": 3472,
      "independent": 3473,
      "generated": 3474,
      "namely": 3475,
      "sustained": 3476,
      "63": 3477,
      "67": 3478,
      "90": 3479,
      "Sum": 3480,
      "`),": 3481,
      "blen": 3482,
      "dates": 3483,
      "far": 3484,
      "iable": 3485,
      "ors": 3486,
      "seated": 3487,
      "uted": 3488,
      "compact": 3489,
      "featureless": 3490,
      "helps": 3491,
      "split": 3492,
      "Impacted": 3493,
      "highlighted": 3494,
      "mediates": 3495,
      "identifiable": 3496,
      "fringes": 3497,
      "Internally": 3498,
      "visualized": 3499,
      "Summary": 3500,
      "88": 3501,
      "Fine": 3502,
      "Fir": 3503,
      "Wide": 3504,
      "`,": 3505,
      "four": 3506,
      "neat": 3507,
      "sides": 3508,
      "since": 3509,
      "initial": 3510,
      "orly": 3511,
      "consolid": 3512,
      "persist": 3513,
      "poorly": 3514,
      "constituted": 3515,
      "encoun": 3516,
      "incur": 3517,
      "faults": 3518,
      "thinner": 3519,
      "paleo": 3520,
      "affected": 3521,
      "intruded": 3522,
      "intrudes": 3523,
      "4465": 3524,
      "full": 3525,
      "greatly": 3526,
      "rifting": 3527,
      "weakness": 3528,
      "gradually": 3529,
      "temporally": 3530,
      "break": 3531,
      "supplemented": 3532,
      "First": 3533,
      "consolidated": 3534,
      "446589": 3535,
      "71": 3536,
      "77": 3537,
      "CU": 3538,
      "cy": 3539,
      "muted": 3540,
      "new": 3541,
      "inous": 3542,
      "ices": 3543,
      "leaving": 3544,
      "visual": 3545,
      "overlapped": 3546,
      "%)—": 3547,
      "curves": 3548,
      "fore": 3549,
      "rimmed": 3550,
      "influences": 3551,
      "belts": 3552,
      "integr": 3553,
      "progression": 3554,
      "source": 3555,
      "voluminous": 3556,
      "passing": 3557,
      "presumably": 3558,
      "Ex": 3559,
      "Pan": 3560,
      "dome": 3561,
      "fin": 3562,
      "funct": 3563,
      "list": 3564,
      "resemb": 3565,
      "areal": 3566,
      "imately": 3567,
      "via": 3568,
      "brightly": 3569,
      "dotting": 3570,
      "drain": 3571,
      "Another": 3572,
      "ographically": 3573,
      "basalt": 3574,
      "homogeneously": 3575,
      "sweep": 3576,
      "thirds": 3577,
      "ringed": 3578,
      "follows": 3579,
      "geomap": 3580,
      "encroachment": 3581,
      "introduce": 3582,
      "gradients": 3583,
      "radiating": 3584,
      "sculpted": 3585,
      "circumscribed": 3586,
      "prevalent": 3587,
      "blend": 3588,
      "Panel": 3589,
      "61": 3590,
      "6B": 3591,
      "Low": 3592,
      "No": 3593,
      "Orange": 3594,
      "ually": 3595,
      "wn": 3596,
      "inst": 3597,
      "hen": 3598,
      "ental": 3599,
      "apes": 3600,
      "smoothing": 3601,
      "landmass": 3602,
      "landscapes": 3603,
      "Second": 3604,
      "continental": 3605,
      "%)**,": 3606,
      "partitioned": 3607,
      "mediated": 3608,
      "unconform": 3609,
      "fresher": 3610,
      "segmentation": 3611,
      "Thin": 3612,
      "controlling": 3613,
      "Geographically": 3614,
      "ulative": 3615,
      "places": 3616,
      "cumulative": 3617,
      "little": 3618,
      "sloped": 3619,
      "detailing": 3620,
      "scattering": 3621,
      "externally": 3622,
      "array": 3623,
      "Intru": 3624,
      "20DF": 3625,
      "drainage": 3626,
      "6B20DF": 3627,
      "##": 3628,
      "85": 3629,
      "B9": 3630,
      "Cle": 3631,
      "Light": 3632,
      "Massive": 3633,
      "Yellow": 3634,
      "iev": 3635,
      "rings": 3636,
      "ining": 3637,
      "once": 3638,
      "alline": 3639,
      "cratere": 3640,
      "confor": 3641,
      "term": 3642,
      "phere": 3643,
      "traced": 3644,
      "ances": 3645,
      "porad": 3646,
      "juxtapositions": 3647,
      "achiev": 3648,
      "ystalline": 3649,
      "dissecting": 3650,
      "crystalline": 3651,
      "fragments": 3652,
      "CDB9": 3653,
      "FFCDB9": 3654,
      "litter": 3655,
      "dusted": 3656,
      "encircled": 3657,
      "physi": 3658,
      "identifying": 3659,
      "breaks": 3660,
      "Photograph": 3661,
      "encases": 3662,
      "neatly": 3663,
      "persistent": 3664,
      "listed": 3665,
      "Clear": 3666,
      "81": 3667,
      "Spec": 3668,
      "ier": 3669,
      "lt": 3670,
      "rob": 3671,
      "rehen": 3672,
      "although": 3673,
      "sever": 3674,
      "scarc": 3675,
      "comprehen": 3676,
      "grades": 3677,
      "differently": 3678,
      "partite": 3679,
      "tributed": 3680,
      "completes": 3681,
      "disrupts": 3682,
      "crisscrossing": 3683,
      "slope": 3684,
      "distinctively": 3685,
      "profound": 3686,
      "shallow": 3687,
      "repeat": 3688,
      "accretion": 3689,
      "depth": 3690,
      "robust": 3691,
      "severe": 3692,
      "comprehensive": 3693,
      "68": 3694,
      "76": 3695,
      "83": 3696,
      "Across": 3697,
      "Big": 3698,
      "EFBE": 3699,
      "Rough": 3700,
      "ck": 3701,
      "fect": 3702,
      "mac": 3703,
      "pu": 3704,
      "var": 3705,
      "}$).": 3706,
      "era": 3707,
      "itive": 3708,
      "orient": 3709,
      "accomp": 3710,
      "del": 3711,
      "impres": 3712,
      "latile": 3713,
      "lum": 3714,
      "shapes": 3715,
      "mediating": 3716,
      "strewn": 3717,
      "Distinctly": 3718,
      "geometries": 3719,
      "enclose": 3720,
      "showcase": 3721,
      "truncating": 3722,
      "emphasized": 3723,
      "sediments": 3724,
      "encapsulated": 3725,
      "volatile": 3726,
      "Nearby": 3727,
      "Transitional": 3728,
      "territory": 3729,
      "scarce": 3730,
      "EFBECF": 3731,
      ")**.": 3732,
      "66": 3733,
      "79": 3734,
      "82": 3735,
      "Dense": 3736,
      "PN": 3737,
      "away": 3738,
      "fit": 3739,
      "ld": 3740,
      "sand": 3741,
      "zz": 3742,
      "itic": 3743,
      "states": 3744,
      "entity": 3745,
      "laven": 3746,
      "lob": 3747,
      "sewhere": 3748,
      "matic": 3749,
      "imposed": 3750,
      "versely": 3751,
      "adow": 3752,
      "unified": 3753,
      "positioning": 3754,
      "spaced": 3755,
      "elsewhere": 3756,
      "confine": 3757,
      "stratigraphical": 3758,
      "shaping": 3759,
      "lithos": 3760,
      "preserves": 3761,
      "remains": 3762,
      "interiors": 3763,
      "towards": 3764,
      "influencing": 3765,
      "Interacting": 3766,
      "series": 3767,
      "terminating": 3768,
      "dictated": 3769,
      "obscures": 3770,
      "Shadow": 3771,
      "physical": 3772,
      "Conversely": 3773,
      "quiet": 3774,
      "repeatedly": 3775,
      "dynamic": 3776,
      "Intrusion": 3777,
      "repeating": 3778,
      "puzz": 3779,
      "sandw": 3780,
      "lavender": 3781,
      "puzzle": 3782,
      "92": 3783,
      "Mar": 3784,
      "ble": 3785,
      "cra": 3786,
      "fall": 3787,
      "ky": 3788,
      "ses": 3789,
      "wr": 3790,
      "ins": 3791,
      "anch": 3792,
      "iched": 3793,
      "laden": 3794,
      "confir": 3795,
      "ously": 3796,
      "landmasses": 3797,
      "trac": 3798,
      "chun": 3799,
      "interbedded": 3800,
      "Fragment": 3801,
      "directional": 3802,
      "completed": 3803,
      "excavation": 3804,
      "streaked": 3805,
      "obscuring": 3806,
      "physically": 3807,
      "supporting": 3808,
      "geomorphic": 3809,
      "similarly": 3810,
      "superposes": 3811,
      "simple": 3812,
      "incursions": 3813,
      "unconformity": 3814,
      "macro": 3815,
      "delicate": 3816,
      "sandwiched": 3817,
      "Margin": 3818,
      "cragg": 3819,
      "87": 3820,
      "Other": 3821,
      "ai": 3822,
      "cient": 3823,
      "phed": 3824,
      "sporad": 3825,
      "iso": 3826,
      "rece": 3827,
      "stru": 3828,
      "Cratering": 3829,
      "igen": 3830,
      "chain": 3831,
      "linearly": 3832,
      "graphed": 3833,
      "Ancient": 3834,
      "classification": 3835,
      "clustering": 3836,
      "sectioned": 3837,
      "streaking": 3838,
      "crit": 3839,
      "survey": 3840,
      "Sparsely": 3841,
      "tripartite": 3842,
      "progresses": 3843,
      "arrayed": 3844,
      "photographed": 3845,
      "study": 3846,
      "physiographic": 3847,
      "oriented": 3848,
      "lobate": 3849,
      "wrink": 3850,
      "craggy": 3851,
      "struck": 3852,
      "Ir": 3853,
      "On": 3854,
      "fis": 3855,
      "pits": 3856,
      "sider": 3857,
      "slum": 3858,
      "icately": 3859,
      "losure": 3860,
      "dist": 3861,
      "consider": 3862,
      "overrid": 3863,
      "sco": 3864,
      "substratum": 3865,
      "rasting": 3866,
      "enclosure": 3867,
      "help": 3868,
      "settle": 3869,
      "settling": 3870,
      "linked": 3871,
      "arcs": 3872,
      "originating": 3873,
      "terrigen": 3874,
      "intricately": 3875,
      "incorporate": 3876,
      "reflective": 3877,
      "outcropping": 3878,
      "affects": 3879,
      "grouped": 3880,
      "solidified": 3881,
      "obscured": 3882,
      "Contrasting": 3883,
      "Striking": 3884,
      "Specif": 3885,
      "Irregular": 3886,
      "terrigenous": 3887,
      "93": 3888,
      "Pink": 3889,
      "battered": 3890,
      "cul": 3891,
      "spot": 3892,
      "resurface": 3893,
      "ensit": 3894,
      "percent": 3895,
      "overlooks": 3896,
      "tertiary": 3897,
      "upward": 3898,
      "ational": 3899,
      "delineations": 3900,
      "aging": 3901,
      "interruptions": 3902,
      "Strat": 3903,
      "modern": 3904,
      "intensit": 3905,
      "uplifts": 3906,
      "Texture": 3907,
      "groove": 3908,
      "assembly": 3909,
      "disruptive": 3910,
      "encounter": 3911,
      "resembling": 3912,
      "varian": 3913,
      "critical": 3914,
      "culmin": 3915,
      "Bottom": 3916,
      "Blue": 3917,
      "Purple": 3918,
      "Top": 3919,
      "ean": 3920,
      "ris": 3921,
      "rating": 3922,
      "imaging": 3923,
      "iven": 3924,
      "impose": 3925,
      "moving": 3926,
      "track": 3927,
      "melt": 3928,
      "Massifs": 3929,
      "agon": 3930,
      "Strea": 3931,
      "peripheries": 3932,
      "intensive": 3933,
      "superpositioned": 3934,
      "strikingly": 3935,
      "consistently": 3936,
      "preserving": 3937,
      "collap": 3938,
      "effect": 3939,
      "terracing": 3940,
      "diagon": 3941,
      "groups": 3942,
      "makeup": 3943,
      "possessing": 3944,
      "crests": 3945,
      "achieves": 3946,
      ")—": 3947,
      "500": 3948,
      "84": 3949,
      "C5": 3950,
      "Cur": 3951,
      "De": 3952,
      "E500": 3953,
      "Flatter": 3954,
      "Wh": 3955,
      "Wavy": 3956,
      "few": 3957,
      "gn": 3958,
      "iered": 3959,
      "pite": 3960,
      "tiered": 3961,
      "wear": 3962,
      "ery": 3963,
      "anom": 3964,
      "reco": 3965,
      "still": 3966,
      "osing": 3967,
      "imm": 3968,
      "disting": 3969,
      "lands": 3970,
      "extend": 3971,
      "pansive": 3972,
      "eted": 3973,
      "encla": 3974,
      "ruggedness": 3975,
      "brightest": 3976,
      "horizon": 3977,
      "mild": 3978,
      "existence": 3979,
      "Differential": 3980,
      "channe": 3981,
      "principally": 3982,
      "occurring": 3983,
      "truncation": 3984,
      "intruding": 3985,
      "intrusion": 3986,
      "Composition": 3987,
      "Plaines": 3988,
      "casts": 3989,
      "contribute": 3990,
      "obscure": 3991,
      "introduces": 3992,
      "transverses": 3993,
      "integrity": 3994,
      "Expansive": 3995,
      "anchors": 3996,
      "isolat": 3997,
      "scoop": 3998,
      "effectively": 3999,
      "diagonally": 4000,
      "E500C5": 4001,
      "recogn": 4002,
      "distingu": 4003,
      "74": 4004,
      "Run": 4005,
      "Sig": 4006,
      "au": 4007,
      "dating": 4008,
      "mic": 4009,
      "pt": 4010,
      "put": 4011,
      "tren": 4012,
      "inity": 4013,
      "hem": 4014,
      "attributed": 4015,
      "itu": 4016,
      "ane": 4017,
      "seminated": 4018,
      "prior": 4019,
      "definable": 4020,
      "lineation": 4021,
      "plaine": 4022,
      "condition": 4023,
      "grade": 4024,
      "interloc": 4025,
      "sharper": 4026,
      "subdivided": 4027,
      "nificant": 4028,
      "mares": 4029,
      "observation": 4030,
      "wherein": 4031,
      "dendr": 4032,
      "based": 4033,
      "Together": 4034,
      "expose": 4035,
      "aligned": 4036,
      "swathe": 4037,
      "collection": 4038,
      "piece": 4039,
      "organization": 4040,
      "accommodating": 4041,
      "fringed": 4042,
      "first": 4043,
      "stabilized": 4044,
      "impressive": 4045,
      "lithosphere": 4046,
      "receiv": 4047,
      "collapse": 4048,
      "immense": 4049,
      "Running": 4050,
      "Significant": 4051,
      "dendritic": 4052,
      "0B": 4053,
      "F0B": 4054,
      "Pos": 4055,
      "Sent": 4056,
      "ccessive": 4057,
      "hil": 4058,
      "oid": 4059,
      "vit": 4060,
      "yon": 4061,
      "{\\": 4062,
      "ached": 4063,
      "brack": 4064,
      "gravit": 4065,
      "secting": 4066,
      "Successive": 4067,
      "intersections": 4068,
      "004": 4069,
      "ressing": 4070,
      "circles": 4071,
      "captured": 4072,
      "place": 4073,
      "(${\\": 4074,
      "scarring": 4075,
      "intermingles": 4076,
      "reflectivity": 4077,
      "terminal": 4078,
      "CAD": 4079,
      "stresses": 4080,
      "Internal": 4081,
      "pairing": 4082,
      "functions": 4083,
      "instances": 4084,
      "overriding": 4085,
      "intensity": 4086,
      "scooped": 4087,
      "interlocking": 4088,
      "F0BCAD": 4089,
      "hilly": 4090,
      "$\\": 4091,
      "A8": 4092,
      "DA8": 4093,
      "bre": 4094,
      "dip": 4095,
      "ging": 4096,
      "giant": 4097,
      "my": 4098,
      "rt": 4099,
      "tim": 4100,
      "vic": 4101,
      "zer": 4102,
      "ers": 4103,
      "ature": 4104,
      "those": 4105,
      "deco": 4106,
      "matur": 4107,
      "distinction": 4108,
      "virt": 4109,
      "scoured": 4110,
      "intercal": 4111,
      "extensions": 4112,
      "met": 4113,
      "metr": 4114,
      "ultimately": 4115,
      "front": 4116,
      "incise": 4117,
      "punctu": 4118,
      "strips": 4119,
      "resolution": 4120,
      "northernmost": 4121,
      "corrid": 4122,
      "piled": 4123,
      "distributions": 4124,
      "provincial": 4125,
      "resistance": 4126,
      "grabens": 4127,
      "Subdued": 4128,
      "group": 4129,
      "greater": 4130,
      "burial": 4131,
      "natural": 4132,
      "pitting": 4133,
      "systematic": 4134,
      "ills": 4135,
      "joining": 4136,
      "superpose": 4137,
      "alteration": 4138,
      "wrapping": 4139,
      "severely": 4140,
      "PNCU": 4141,
      "culminating": 4142,
      "channeling": 4143,
      "recognizable": 4144,
      "Positioned": 4145,
      "gravitational": 4146,
      "004DA8": 4147,
      "vicinity": 4148,
      "zero": 4149,
      "virtually": 4150,
      "86": 4151,
      "8E": 4152,
      "AA5": 4153,
      "Dra": 4154,
      "Mean": 4155,
      "Por": 4156,
      "Pale": 4157,
      "South": 4158,
      "hills": 4159,
      "ry": 4160,
      "inted": 4161,
      "anied": 4162,
      "thing": 4163,
      "delimit": 4164,
      "esting": 4165,
      "suggested": 4166,
      "landforms": 4167,
      "tran": 4168,
      "intercrater": 4169,
      "etitive": 4170,
      "underp": 4171,
      "constant": 4172,
      "signifying": 4173,
      "incred": 4174,
      "continuously": 4175,
      "%)**.": 4176,
      "correlated": 4177,
      "correlates": 4178,
      "tonal": 4179,
      "angle": 4180,
      "illuminated": 4181,
      "results": 4182,
      "detached": 4183,
      "Subsurface": 4184,
      "fringe": 4185,
      "occurrence": 4186,
      "repetitive": 4187,
      "incises": 4188,
      "cycl": 4189,
      "conformab": 4190,
      "accompanied": 4191,
      "tracery": 4192,
      "distant": 4193,
      "Specifically": 4194,
      "receiving": 4195,
      "yond": 4196,
      "timing": 4197,
      "maturity": 4198,
      "8E0": 4199,
      "AA58E0": 4200,
      "Dramatic": 4201,
      "Meanwhile": 4202,
      "Portions": 4203,
      "incredibly": 4204,
      "Horiz": 4205,
      "Lat": 4206,
      "aot": 4207,
      "biqu": 4208,
      "cos": 4209,
      "fas": 4210,
      "ms": 4211,
      "mound": 4212,
      "mas": 4213,
      "neath": 4214,
      "pment": 4215,
      "ubiqu": 4216,
      "really": 4217,
      "retain": 4218,
      "order": 4219,
      "ener": 4220,
      "escar": 4221,
      "impr": 4222,
      "impar": 4223,
      "mag": 4224,
      "lipt": 4225,
      "chaot": 4226,
      "Oriental": 4227,
      "underneath": 4228,
      "quies": 4229,
      "quil": 4230,
      "tract": 4231,
      "resurfaces": 4232,
      "ontal": 4233,
      "ellipt": 4234,
      "blanketing": 4235,
      "marginalized": 4236,
      "mottling": 4237,
      "Adjoining": 4238,
      "finely": 4239,
      "plac": 4240,
      "abundance": 4241,
      "Intersecting": 4242,
      "Subsequent": 4243,
      "intrude": 4244,
      "sedimentary": 4245,
      "chronologically": 4246,
      "offsets": 4247,
      "encircling": 4248,
      "mountains": 4249,
      "Deeply": 4250,
      "Nested": 4251,
      "transversed": 4252,
      "stacking": 4253,
      "Striated": 4254,
      "paleogeographical": 4255,
      "cyan": 4256,
      "finer": 4257,
      "falls": 4258,
      "percentage": 4259,
      "distinguish": 4260,
      "ause": 4261,
      "conditions": 4262,
      "Sentences": 4263,
      "tranquil": 4264,
      "cycles": 4265,
      "conformable": 4266,
      "Horizontal": 4267,
      "ubiquit": 4268,
      "escarpment": 4269,
      "94": 4270,
      "Bec": 4271,
      "Col": 4272,
      "Domin": 4273,
      "Det": 4274,
      "Given": 4275,
      "Resting": 4276,
      "Ter": 4277,
      "We": 4278,
      "`.": 4279,
      "pled": 4280,
      "tap": 4281,
      "}$": 4282,
      "inscribed": 4283,
      "rele": 4284,
      "disposition": 4285,
      "modu": 4286,
      "estry": 4287,
      "before": 4288,
      "changed": 4289,
      "gray": 4290,
      "intergrading": 4291,
      "transected": 4292,
      "Into": 4293,
      "lowermost": 4294,
      "restrict": 4295,
      "classic": 4296,
      "inusoid": 4297,
      "episodic": 4298,
      "albedos": 4299,
      "despite": 4300,
      "remainder": 4301,
      "canvas": 4302,
      "interstices": 4303,
      "topmost": 4304,
      "terraced": 4305,
      "steeply": 4306,
      "carve": 4307,
      "affect": 4308,
      "typically": 4309,
      "chronology": 4310,
      "bisects": 4311,
      "hued": 4312,
      "equally": 4313,
      "valleys": 4314,
      "accounting": 4315,
      "overprints": 4316,
      "simpler": 4317,
      "cratonal": 4318,
      "photograph": 4319,
      "incising": 4320,
      "###": 4321,
      "Fragmented": 4322,
      "ailed": 4323,
      "sporadic": 4324,
      "chains": 4325,
      "considerable": 4326,
      "anomaly": 4327,
      "dips": 4328,
      "imprinted": 4329,
      "chaotic": 4330,
      "elliptical": 4331,
      "Because": 4332,
      "Dominating": 4333,
      "Detailed": 4334,
      "tapestry": 4335,
      "Vary": 4336,
      "agged": 4337,
      "dich": 4338,
      "foc": 4339,
      "ious": 4340,
      "pack": 4341,
      "tation": 4342,
      "vial": 4343,
      "ator": 4344,
      "ittle": 4345,
      "ingly": 4346,
      "step": 4347,
      "omy": 4348,
      "forces": 4349,
      "smooths": 4350,
      "paralle": 4351,
      "surroundings": 4352,
      "interm": 4353,
      "interwo": 4354,
      "anced": 4355,
      "fillings": 4356,
      "sterious": 4357,
      "otomy": 4358,
      "founded": 4359,
      "Moder": 4360,
      "punctured": 4361,
      "stripe": 4362,
      "reside": 4363,
      "correlate": 4364,
      "intimately": 4365,
      "mixes": 4366,
      "noted": 4367,
      "illumin": 4368,
      "continues": 4369,
      "folded": 4370,
      "designation": 4371,
      "thereby": 4372,
      "intermediary": 4373,
      "inundated": 4374,
      "Comple": 4375,
      "greatest": 4376,
      "progressing": 4377,
      "compartmental": 4378,
      "accentuate": 4379,
      "chunk": 4380,
      "variants": 4381,
      "While": 4382,
      "enclaves": 4383,
      "bracketed": 4384,
      "mysterious": 4385,
      "intercalated": 4386,
      "corridor": 4387,
      "mounds": 4388,
      "placid": 4389,
      "relegated": 4390,
      "Varying": 4391,
      "dichotomy": 4392,
      "interwoven": 4393,
      "Abut": 4394,
      "FFBE": 4395,
      "Lav": 4396,
      "Not": 4397,
      "Pro": 4398,
      "Sinusoid": 4399,
      "`).": 4400,
      "hy": 4401,
      "ili": 4402,
      "jagged": 4403,
      "ote": 4404,
      "ta": 4405,
      "wedged": 4406,
      "ender": 4407,
      "enance": 4408,
      "sures": 4409,
      "express": 4410,
      "expl": 4411,
      "thus": 4412,
      "tiny": 4413,
      "imply": 4414,
      "transitionary": 4415,
      "differenti": 4416,
      "quar": 4417,
      "composing": 4418,
      "mentary": 4419,
      "encased": 4420,
      "object": 4421,
      "obvious": 4422,
      "ircle": 4423,
      "representative": 4424,
      "roughly": 4425,
      "eption": 4426,
      "uncharacterized": 4427,
      "freshly": 4428,
      "sectional": 4429,
      "lithologically": 4430,
      "pea": 4431,
      "provenance": 4432,
      "exception": 4433,
      "manifestations": 4434,
      "comparable": 4435,
      "starkly": 4436,
      "FFFFBE": 4437,
      "assemblages": 4438,
      "reflectance": 4439,
      "spreads": 4440,
      "identifies": 4441,
      "geomorphological": 4442,
      "integrates": 4443,
      "integrating": 4444,
      "dents": 4445,
      "volume": 4446,
      "Contained": 4447,
      "altering": 4448,
      "extensional": 4449,
      "function": 4450,
      "sweeps": 4451,
      "conformably": 4452,
      "depths": 4453,
      "fissures": 4454,
      "outcroppings": 4455,
      "Stratigraph": 4456,
      "rising": 4457,
      "itude": 4458,
      "bread": 4459,
      "Tertiary": 4460,
      "modulate": 4461,
      "Lavender": 4462,
      "3A3": 4463,
      "4E": 4464,
      "6F": 4465,
      "As": 4466,
      "Elong": 4467,
      "Here": 4468,
      "Ste": 4469,
      "Swe": 4470,
      "TU": 4471,
      "amorph": 4472,
      "cc": 4473,
      "cer": 4474,
      "clif": 4475,
      "gy": 4476,
      "mer": 4477,
      "rare": 4478,
      "sky": 4479,
      "went": 4480,
      "head": 4481,
      "height": 4482,
      "ories": 4483,
      "ends": 4484,
      "sun": 4485,
      "distal": 4486,
      "conforming": 4487,
      "perme": 4488,
      "whol": 4489,
      "iform": 4490,
      "ifying": 4491,
      "utting": 4492,
      "graded": 4493,
      "undant": 4494,
      "mea": 4495,
      "metic": 4496,
      "underwent": 4497,
      "ulously": 4498,
      "encircle": 4499,
      "partly": 4500,
      "denser": 4501,
      "denote": 4502,
      "Although": 4503,
      "troughing": 4504,
      "crosscut": 4505,
      "Disseminated": 4506,
      "coast": 4507,
      "ridged": 4508,
      "ridging": 4509,
      "crib": 4510,
      "involve": 4511,
      "describ": 4512,
      "elongate": 4513,
      "fluvial": 4514,
      "Located": 4515,
      "bowls": 4516,
      "succe": 4517,
      "($\\#$": 4518,
      "excavates": 4519,
      "spreading": 4520,
      "walled": 4521,
      "Boundary": 4522,
      "Abundant": 4523,
      "C400": 4524,
      "Brighter": 4525,
      "visually": 4526,
      "integral": 4527,
      "final": 4528,
      "terms": 4529,
      "confirming": 4530,
      "confirms": 4531,
      "Marginal": 4532,
      "mildly": 4533,
      "underpins": 4534,
      "Later": 4535,
      "energy": 4536,
      "ubiquitous": 4537,
      "illumination": 4538,
      "Abutting": 4539,
      "breadth": 4540,
      "3A37": 4541,
      "4E3A37": 4542,
      "6FC400": 4543,
      "Elongated": 4544,
      "Steep": 4545,
      "Sweeping": 4546,
      "certain": 4547,
      "cliff": 4548,
      "permeated": 4549,
      "wholly": 4550,
      "meticulously": 4551,
      "succeed": 4552,
      "$\\#": 4553,
      ",\"": 4554,
      "Cross": 4555,
      "Cutting": 4556,
      "Def": 4557,
      "Flat": 4558,
      "Long": 4559,
      "]**": 4560,
      "bon": 4561,
      "cav": 4562,
      "gul": 4563,
      "hion": 4564,
      "pped": 4565,
      "rices": 4566,
      "sin": 4567,
      "save": 4568,
      "wid": 4569,
      "infi": 4570,
      "ones": 4571,
      "ales": 4572,
      "engul": 4573,
      "rable": 4574,
      "matrices": 4575,
      "overlooking": 4576,
      "beyond": 4577,
      "scop": 4578,
      "ividual": 4579,
      "pool": 4580,
      "clearer": 4581,
      "individual": 4582,
      "**[": 4583,
      "**—": 4584,
      "presented": 4585,
      "zonation": 4586,
      "trapped": 4587,
      "historically": 4588,
      "therly": 4589,
      "revealed": 4590,
      "flatten": 4591,
      "proportions": 4592,
      "unbroken": 4593,
      "unassigned": 4594,
      "Structured": 4595,
      "resili": 4596,
      "Through": 4597,
      "Dispersed": 4598,
      "extents": 4599,
      "juncture": 4600,
      "hole": 4601,
      "leveling": 4602,
      "desc": 4603,
      "description": 4604,
      "tectonics": 4605,
      "ples": 4606,
      "($#": 4607,
      "anying": 4608,
      "heterogenous": 4609,
      "butts": 4610,
      "color": 4611,
      "maintained": 4612,
      "Interming": 4613,
      "settings": 4614,
      "therefore": 4615,
      "thickn": 4616,
      "Reg": 4617,
      "accommodate": 4618,
      "ribbon": 4619,
      "Superposition": 4620,
      "Centrally": 4621,
      "youthful": 4622,
      "accented": 4623,
      "cratons": 4624,
      "dynamically": 4625,
      "stud": 4626,
      "accompanying": 4627,
      "Shadowed": 4628,
      "chunks": 4629,
      "Fragments": 4630,
      "Marginally": 4631,
      "wrinkle": 4632,
      "fissure": 4633,
      "Streaky": 4634,
      "Curved": 4635,
      "isolation": 4636,
      "trenches": 4637,
      "decorate": 4638,
      "punctuates": 4639,
      "fashion": 4640,
      "chunkier": 4641,
      "quarters": 4642,
      "objects": 4643,
      "amorphous": 4644,
      "sunken": 4645,
      "describe": 4646,
      "succeeded": 4647,
      "Defining": 4648,
      "cavity": 4649,
      "sinu": 4650,
      "engulf": 4651,
      "scope": 4652,
      "BD": 4653,
      "CC": 4654,
      "C88": 4655,
      "Er": 4656,
      "Fr": 4657,
      "Red": 4658,
      "Res": 4659,
      "cel": 4660,
      "eon": 4661,
      "ever": 4662,
      "gap": 4663,
      "lac": 4664,
      "mencing": 4665,
      "mmetr": 4666,
      "nu": 4667,
      "shel": 4668,
      "slight": 4669,
      "slic": 4670,
      "uent": 4671,
      "vest": 4672,
      "ymmetr": 4673,
      "}}$)": 4674,
      "art": 4675,
      "isphere": 4676,
      "sty": 4677,
      "lable": 4678,
      "brid": 4679,
      "brill": 4680,
      "osition": 4681,
      "ase": 4682,
      "asi": 4683,
      "exter": 4684,
      "ths": 4685,
      "things": 4686,
      "disconnected": 4687,
      "overhead": 4688,
      "ading": 4689,
      "apron": 4690,
      "ocent": 4691,
      "ocum": 4692,
      "olute": 4693,
      "commencing": 4694,
      "contour": 4695,
      "liqu": 4696,
      "locus": 4697,
      "preced": 4698,
      "poly": 4699,
      "interrelationships": 4700,
      "formational": 4701,
      "constituent": 4702,
      "Intr": 4703,
      "niche": 4704,
      "ept": 4705,
      "teal": 4706,
      "tell": 4707,
      "reliefs": 4708,
      "arrangements": 4709,
      "Impactated": 4710,
      "interruption": 4711,
      "outlying": 4712,
      "outside": 4713,
      "restricts": 4714,
      "ogenic": 4715,
      "avai": 4716,
      "mediate": 4717,
      "demarcations": 4718,
      "uplifting": 4719,
      "Overlaid": 4720,
      "Locally": 4721,
      "faintly": 4722,
      "sided": 4723,
      "folding": 4724,
      "Between": 4725,
      "residing": 4726,
      "FFCC": 4727,
      "absolute": 4728,
      "unevenly": 4729,
      "termination": 4730,
      "ripple": 4731,
      "ripples": 4732,
      "recording": 4733,
      "recorded": 4734,
      "groupings": 4735,
      "smoothest": 4736,
      "thicker": 4737,
      "softly": 4738,
      "F4C88": 4739,
      "transverse": 4740,
      "voids": 4741,
      "collisional": 4742,
      "lineamentation": 4743,
      "sources": 4744,
      "join": 4745,
      "accentuated": 4746,
      "cratonic": 4747,
      "depocent": 4748,
      "does": 4749,
      "territories": 4750,
      "stabilization": 4751,
      "instance": 4752,
      "profoundly": 4753,
      "sporadically": 4754,
      "slumping": 4755,
      "encountering": 4756,
      "hemisphere": 4757,
      "Southward": 4758,
      "cosmic": 4759,
      "magmatic": 4760,
      "Notice": 4761,
      "Sinusoidal": 4762,
      "Throughout": 4763,
      "sinuos": 4764,
      "Erosion": 4765,
      "From": 4766,
      "vestig": 4767,
      "brilliant": 4768,
      "exterior": 4769,
      "ocument": 4770,
      "contours": 4771,
      "available": 4772,
      "FFCCBD": 4773,
      "F4C884": 4774,
      "%—": 4775,
      ":*": 4776,
      "Border": 4777,
      "Gently": 4778,
      "Med": 4779,
      "Rad": 4780,
      "Since": 4781,
      "ax": 4782,
      "bat": 4783,
      "cing": 4784,
      "document": 4785,
      "ey": 4786,
      "fif": 4787,
      "ffer": 4788,
      "hint": 4789,
      "having": 4790,
      "ostructure": 4791,
      "power": 4792,
      "soften": 4793,
      "ule": 4794,
      "usc": 4795,
      "eric": 4796,
      "itt": 4797,
      "ited": 4798,
      "anching": 4799,
      "rein": 4800,
      "rect": 4801,
      "end": 4802,
      "brittle": 4803,
      "branching": 4804,
      "geostructure": 4805,
      "images": 4806,
      "seas": 4807,
      "sell": 4808,
      "terraplain": 4809,
      "apart": 4810,
      "estial": 4811,
      "definitive": 4812,
      "pheric": 4813,
      "pretation": 4814,
      "locales": 4815,
      "subjacent": 4816,
      "separations": 4817,
      "mete": 4818,
      "etch": 4819,
      "zoning": 4820,
      "minusc": 4821,
      "protect": 4822,
      "consistency": 4823,
      "partition": 4824,
      "curvature": 4825,
      "embr": 4826,
      "durable": 4827,
      "rimming": 4828,
      "ography": 4829,
      "aching": 4830,
      "Distributed": 4831,
      "thinly": 4832,
      "constraint": 4833,
      "narrowest": 4834,
      "Textural": 4835,
      "proximate": 4836,
      "brownish": 4837,
      "Interst": 4838,
      "Interpretation": 4839,
      "incorporated": 4840,
      "stretched": 4841,
      "building": 4842,
      "dictate": 4843,
      "Variations": 4844,
      "Juxtaposing": 4845,
      "touched": 4846,
      "swathes": 4847,
      "contributes": 4848,
      "encapsulating": 4849,
      "definitions": 4850,
      "soft": 4851,
      "begins": 4852,
      "supported": 4853,
      "Planar": 4854,
      "governs": 4855,
      "varieties": 4856,
      "cradles": 4857,
      "tessell": 4858,
      "accreted": 4859,
      "\\%$": 4860,
      "\\%$)": 4861,
      "newly": 4862,
      "Exposed": 4863,
      "Photographic": 4864,
      "Densely": 4865,
      "Shadows": 4866,
      "rises": 4867,
      "imparts": 4868,
      "quiescent": 4869,
      "distinguishing": 4870,
      "Color": 4871,
      "focus": 4872,
      "intermitt": 4873,
      "Stratigraphically": 4874,
      "Intermingled": 4875,
      "celestial": 4876,
      "Bordering": 4877,
      "Medium": 4878,
      "powerful": 4879,
      "minuscule": 4880,
      "tessellated": 4881,
      "(**": 4882,
      ")$": 4883,
      "Band": 4884,
      "Cre": 4885,
      "Gen": 4886,
      "Hu": 4887,
      "Key": 4888,
      "LCU": 4889,
      "MU": 4890,
      "Occ": 4891,
      "colo": 4892,
      "cence": 4893,
      "dden": 4894,
      "eed": 4895,
      "eol": 4896,
      "eeper": 4897,
      "fres": 4898,
      "hind": 4899,
      "mmary": 4900,
      "ran": 4901,
      "sest": 4902,
      "spar": 4903,
      "test": 4904,
      "inlier": 4905,
      "edif": 4906,
      "rework": 4907,
      "retic": 4908,
      "sudden": 4909,
      "summary": 4910,
      "steeper": 4911,
      "entations": 4912,
      "sured": 4913,
      "imate": 4914,
      "disseminated": 4915,
      "detect": 4916,
      "matching": 4917,
      "imping": 4918,
      "ologic": 4919,
      "upying": 4920,
      "come": 4921,
      "lumin": 4922,
      "idual": 4923,
      "loci": 4924,
      "textual": 4925,
      "intergrades": 4926,
      "transitioned": 4927,
      "transitionally": 4928,
      "submer": 4929,
      "abutments": 4930,
      "indentations": 4931,
      "menting": 4932,
      "niches": 4933,
      "containment": 4934,
      "overlayed": 4935,
      "unnamed": 4936,
      "unconformably": 4937,
      "untouched": 4938,
      "eventually": 4939,
      "Structures": 4940,
      "flowage": 4941,
      "striping": 4942,
      "associ": 4943,
      "southernmost": 4944,
      "degrade": 4945,
      "acements": 4946,
      "coales": 4947,
      "capturing": 4948,
      "3600": 4949,
      "leveled": 4950,
      "placing": 4951,
      "perimeters": 4952,
      "emplacements": 4953,
      "topped": 4954,
      "tension": 4955,
      "FF3600": 4956,
      "refined": 4957,
      "buffer": 4958,
      "inundates": 4959,
      "inundate": 4960,
      "undergoing": 4961,
      "excavating": 4962,
      "ression": 4963,
      "aligns": 4964,
      "platforms": 4965,
      "bury": 4966,
      "introduced": 4967,
      "transversely": 4968,
      "movements": 4969,
      "\\%$),": 4970,
      "constraining": 4971,
      "Intense": 4972,
      "incursion": 4973,
      "paleogeographic": 4974,
      "impressed": 4975,
      "wrinkled": 4976,
      "variance": 4977,
      "Compositionally": 4978,
      "trench": 4979,
      "aneously": 4980,
      "packages": 4981,
      "Moderate": 4982,
      "compartmentalize": 4983,
      "hymetr": 4984,
      "explored": 4985,
      "exceptionally": 4986,
      "measured": 4987,
      "coastal": 4988,
      "Residual": 4989,
      "Erosional": 4990,
      "fifths": 4991,
      "softened": 4992,
      "meteor": 4993,
      "protected": 4994,
      "Interstitial": 4995,
      "Crescent": 4996,
      "General": 4997,
      "Huge": 4998,
      "Occupying": 4999,
      "eolian": 5000,
      "freshest": 5001,
      "detectable": 5002,
      "BL": 5003,
      "New": 5004,
      "Ple": 5005,
      "UMU": 5006,
      "book": 5007,
      "chem": 5008,
      "dim": 5009,
      "dently": 5010,
      "gly": 5011,
      "happ": 5012,
      "ield": 5013,
      "now": 5014,
      "oes": 5015,
      "rise": 5016,
      "sal": 5017,
      "tied": 5018,
      "uating": 5019,
      "ualized": 5020,
      "vanced": 5021,
      "input": 5022,
      "heavi": 5023,
      "state": 5024,
      "story": 5025,
      "oses": 5026,
      "discor": 5027,
      "action": 5028,
      "faceted": 5029,
      "seam": 5030,
      "perv": 5031,
      "impsest": 5032,
      "imposes": 5033,
      "geologist": 5034,
      "advanced": 5035,
      "appro": 5036,
      "viol": 5037,
      "definite": 5038,
      "trically": 5039,
      "relations": 5040,
      "grain": 5041,
      "Erato": 5042,
      "darkly": 5043,
      "separator": 5044,
      "mareal": 5045,
      "appearances": 5046,
      "ultaneously": 5047,
      "just": 5048,
      "quasi": 5049,
      "served": 5050,
      "Coded": 5051,
      "contrastingly": 5052,
      "northerly": 5053,
      "Superimp": 5054,
      "Subordinate": 5055,
      "depositionally": 5056,
      "northward": 5057,
      "predates": 5058,
      "punctiform": 5059,
      "pockmarking": 5060,
      "oppos": 5061,
      "strict": 5062,
      "resol": 5063,
      "degrading": 5064,
      "rima": 5065,
      "sectorial": 5066,
      "aceful": 5067,
      "superpositions": 5068,
      "coexistence": 5069,
      "maps": 5070,
      "ulating": 5071,
      "continued": 5072,
      "contextualized": 5073,
      "conversely": 5074,
      "sidiary": 5075,
      "pocketed": 5076,
      "Brightly": 5077,
      "greener": 5078,
      "Subsidiary": 5079,
      "accumulating": 5080,
      "radially": 5081,
      "encapsulate": 5082,
      "stract": 5083,
      "hue": 5084,
      "trending": 5085,
      "apparently": 5086,
      "simultaneously": 5087,
      "depiction": 5088,
      "weathering": 5089,
      "Relatively": 5090,
      "articulate": 5091,
      "collision": 5092,
      "penetrates": 5093,
      "conspicuously": 5094,
      "sourced": 5095,
      "joined": 5096,
      "palimpsest": 5097,
      "passes": 5098,
      "independently": 5099,
      "connections": 5100,
      "lithospheric": 5101,
      "tracings": 5102,
      "slump": 5103,
      "slumped": 5104,
      "considerably": 5105,
      "Specific": 5106,
      "White": 5107,
      "micro": 5108,
      "decorated": 5109,
      "delimiting": 5110,
      "constantly": 5111,
      "retains": 5112,
      "quiescence": 5113,
      "paralleling": 5114,
      "paralleled": 5115,
      "peaks": 5116,
      "volumetrically": 5117,
      "width": 5118,
      "infilt": 5119,
      "descends": 5120,
      "thickness": 5121,
      "liquid": 5122,
      "preceding": 5123,
      "depocenter": 5124,
      "Noticeable": 5125,
      "axis": 5126,
      "bathymetr": 5127,
      "reinfor": 5128,
      "constraints": 5129,
      "coloration": 5130,
      "ranges": 5131,
      "edifices": 5132,
      "associations": 5133,
      "BLU": 5134,
      "Please": 5135,
      "chemically": 5136,
      "heavier": 5137,
      "discord": 5138,
      ")*": 5139,
      "0D": 5140,
      "FU": 5141,
      "Fill": 5142,
      "F20D": 5143,
      "Gent": 5144,
      "How": 5145,
      "Lim": 5146,
      "Mat": 5147,
      "Ob": 5148,
      "Un": 5149,
      "Vi": 5150,
      "aut": 5151,
      "bone": 5152,
      "ca": 5153,
      "date": 5154,
      "flex": 5155,
      "fined": 5156,
      "hand": 5157,
      "might": 5158,
      "mess": 5159,
      "nex": 5160,
      "pur": 5161,
      "plis": 5162,
      "rides": 5163,
      "sl": 5164,
      "snu": 5165,
      "vivid": 5166,
      "wast": 5167,
      "ère": 5168,
      "erat": 5169,
      "aring": 5170,
      "arting": 5171,
      "nitu": 5172,
      "ishes": 5173,
      "reaching": 5174,
      "ending": 5175,
      "ended": 5176,
      "oust": 5177,
      "starting": 5178,
      "entities": 5179,
      "lot": 5180,
      "disjunct": 5181,
      "displacement": 5182,
      "leading": 5183,
      "perfect": 5184,
      "impression": 5185,
      "iful": 5186,
      "overrides": 5187,
      "becom": 5188,
      "beaut": 5189,
      "patched": 5190,
      "layout": 5191,
      "contem": 5192,
      "preexisting": 5193,
      "viscos": 5194,
      "vista": 5195,
      "gradation": 5196,
      "interrelationship": 5197,
      "intermixing": 5198,
      "darkness": 5199,
      "**;": 5200,
      "ago": 5201,
      "Inside": 5202,
      "Inferior": 5203,
      "Input": 5204,
      "signifies": 5205,
      "incident": 5206,
      "irregularities": 5207,
      "helping": 5208,
      "amb": 5209,
      "ampl": 5210,
      "pressed": 5211,
      "puncture": 5212,
      "ircular": 5213,
      "striation": 5214,
      "ressive": 5215,
      "ility": 5216,
      "planation": 5217,
      "coexist": 5218,
      "peaceful": 5219,
      "Distinctive": 5220,
      "ometrically": 5221,
      "limiting": 5222,
      "phased": 5223,
      "Minute": 5224,
      "Adjacently": 5225,
      "driven": 5226,
      "backbone": 5227,
      "butt": 5228,
      "Fractures": 5229,
      "Intermediate": 5230,
      "subsiding": 5231,
      "Beyond": 5232,
      "intermingle": 5233,
      "analyze": 5234,
      "signature": 5235,
      "ficially": 5236,
      "undergoes": 5237,
      "excavate": 5238,
      "rippled": 5239,
      "shearing": 5240,
      "Discretely": 5241,
      "swept": 5242,
      "radar": 5243,
      "Despite": 5244,
      "holding": 5245,
      "hues": 5246,
      "everything": 5247,
      "Confined": 5248,
      "cratographic": 5249,
      "cratogenic": 5250,
      "cratère": 5251,
      "outwards": 5252,
      "occasional": 5253,
      "coherence": 5254,
      "Traversal": 5255,
      "veneers": 5256,
      "penetrating": 5257,
      "paired": 5258,
      "joint": 5259,
      "jointing": 5260,
      "diameter": 5261,
      "encasing": 5262,
      "supplementary": 5263,
      "presumed": 5264,
      "encountered": 5265,
      "resembles": 5266,
      "achieving": 5267,
      "littering": 5268,
      "accretionary": 5269,
      "dynamics": 5270,
      "insically": 5271,
      "wrinkles": 5272,
      "Streaks": 5273,
      "Curvilinear": 5274,
      "Deeper": 5275,
      "anomal": 5276,
      "fronts": 5277,
      "masking": 5278,
      "magnitu": 5279,
      "restricting": 5280,
      "Moderately": 5281,
      "Completing": 5282,
      "Complementing": 5283,
      "expression": 5284,
      "expressions": 5285,
      "differentiating": 5286,
      "resilient": 5287,
      "Regional": 5288,
      "studded": 5289,
      "engulfed": 5290,
      "sheltered": 5291,
      "slices": 5292,
      "style": 5293,
      "Intricate": 5294,
      "documenting": 5295,
      "partitioning": 5296,
      "embracing": 5297,
      "focused": 5298,
      "intermittently": 5299,
      "testifying": 5300,
      "inliers": 5301,
      "reworking": 5302,
      "reticulated": 5303,
      "luminous": 5304,
      "buffered": 5305,
      "happened": 5306,
      "violent": 5307,
      "strictly": 5308,
      "Filling": 5309,
      "F20D0D": 5310,
      "Gentle": 5311,
      "However": 5312,
      "Limited": 5313,
      "View": 5314,
      "messy": 5315,
      "nexus": 5316,
      "purplis": 5317,
      "snugly": 5318,
      "wasting": 5319,
      "eratosthenian": 5320,
      "oustic": 5321,
      "beautiful": 5322,
      "contempor": 5323,
      "viscosity": 5324,
      "incidental": 5325,
      "purplish": 5326,
      "*—": 5327,
      "Ag": 5328,
      "Around": 5329,
      "Ass": 5330,
      "Cor": 5331,
      "Cru": 5332,
      "Every": 5333,
      "Flow": 5334,
      "ILCU": 5335,
      "Lin": 5336,
      "Little": 5337,
      "Nor": 5338,
      "Next": 5339,
      "Rem": 5340,
      "Sect": 5341,
      "Sporad": 5342,
      "Te": 5343,
      "Tan": 5344,
      "ade": 5345,
      "bi": 5346,
      "bit": 5347,
      "bus": 5348,
      "cin": 5349,
      "dup": 5350,
      "fewer": 5351,
      "folds": 5352,
      "ga": 5353,
      "gat": 5354,
      "hous": 5355,
      "ia": 5356,
      "iating": 5357,
      "jum": 5358,
      "lf": 5359,
      "meat": 5360,
      "ned": 5361,
      "nodu": 5362,
      "pé": 5363,
      "plate": 5364,
      "peach": 5365,
      "rnic": 5366,
      "sent": 5367,
      "spr": 5368,
      "symmetr": 5369,
      "usu": 5370,
      "uve": 5371,
      "yn": 5372,
      "}}$),": 5373,
      "})$": 5374,
      "itten": 5375,
      "anast": 5376,
      "read": 5377,
      "alread": 5378,
      "ensions": 5379,
      "acoustic": 5380,
      "icit": 5381,
      "stosthenian": 5382,
      "lavas": 5383,
      "Images": 5384,
      "omorph": 5385,
      "omosing": 5386,
      "osc": 5387,
      "asymmetr": 5388,
      "surpris": 5389,
      "get": 5390,
      "craterized": 5391,
      "devi": 5392,
      "conforms": 5393,
      "permeat": 5394,
      "Terrain": 5395,
      "mode": 5396,
      "impactful": 5397,
      "regis": 5398,
      "ibility": 5399,
      "Basins": 5400,
      "och": 5401,
      "ociated": 5402,
      "ocean": 5403,
      "behind": 5404,
      "lied": 5405,
      "lilac": 5406,
      "precur": 5407,
      "changing": 5408,
      "centrated": 5409,
      "Self": 5410,
      "Eratosthen": 5411,
      "extended": 5412,
      "mechan": 5413,
      "marred": 5414,
      "genet": 5415,
      "Copé": 5416,
      "Clustered": 5417,
      "manner": 5418,
      "lightest": 5419,
      "ontane": 5420,
      "juxtapositioned": 5421,
      "unmarked": 5422,
      "unresol": 5423,
      "unusu": 5424,
      "discretely": 5425,
      "beds": 5426,
      "reshap": 5427,
      "longitu": 5428,
      "emb": 5429,
      "Impacts": 5430,
      "duct": 5431,
      "basally": 5432,
      "fainter": 5433,
      "drapes": 5434,
      "links": 5435,
      "Larger": 5436,
      "classifying": 5437,
      "moderated": 5438,
      "pict": 5439,
      "coexisting": 5440,
      "lithologic": 5441,
      "strange": 5442,
      "complementary": 5443,
      "involved": 5444,
      "peppering": 5445,
      "mantles": 5446,
      "undulatory": 5447,
      "Old": 5448,
      "something": 5449,
      "Peripherally": 5450,
      "effu": 5451,
      "Interior": 5452,
      "bumps": 5453,
      "greenish": 5454,
      "inundations": 5455,
      "buildup": 5456,
      "inkled": 5457,
      "terminated": 5458,
      "terminus": 5459,
      "terminate": 5460,
      "interpretation": 5461,
      "hering": 5462,
      "Juxtaposition": 5463,
      "Abstract": 5464,
      "world": 5465,
      "Separated": 5466,
      "segregation": 5467,
      "contribution": 5468,
      "contributions": 5469,
      "remarkable": 5470,
      "thickest": 5471,
      "Recent": 5472,
      "Concentrated": 5473,
      "progressive": 5474,
      "downwards": 5475,
      "fringing": 5476,
      "equator": 5477,
      "additions": 5478,
      "(\\#\\": 5479,
      "Layering": 5480,
      "Layers": 5481,
      "Superjacent": 5482,
      "tessel": 5483,
      "accentuating": 5484,
      "\\%}$": 5485,
      "encase": 5486,
      "Transitioning": 5487,
      "radiate": 5488,
      "encounters": 5489,
      "unconformities": 5490,
      "physiography": 5491,
      "variant": 5492,
      "PNTU": 5493,
      "confinement": 5494,
      "Shadowing": 5495,
      "falling": 5496,
      "distance": 5497,
      "overridden": 5498,
      "Stratification": 5499,
      "culminates": 5500,
      "Degraded": 5501,
      "isolating": 5502,
      "isolates": 5503,
      "distinguishes": 5504,
      "bracket": 5505,
      "underpin": 5506,
      "fascin": 5507,
      "masked": 5508,
      "retaining": 5509,
      "Colored": 5510,
      "focal": 5511,
      "package": 5512,
      "intermontane": 5513,
      "takes": 5514,
      "explicit": 5515,
      "peak": 5516,
      "pools": 5517,
      "flattened": 5518,
      "resilience": 5519,
      "studied": 5520,
      "eons": 5521,
      "tells": 5522,
      "sinuosity": 5523,
      "rection": 5524,
      "endured": 5525,
      "Banded": 5526,
      "submerged": 5527,
      "meteoritic": 5528,
      "dimensions": 5529,
      "seamless": 5530,
      "pervad": 5531,
      "Eratostosthenian": 5532,
      "opposite": 5533,
      "bathymetry": 5534,
      "discordance": 5535,
      "Material": 5536,
      "flexing": 5537,
      "becomes": 5538,
      "amplitude": 5539,
      "jointly": 5540,
      "anomalies": 5541,
      "contemporane": 5542,
      "Against": 5543,
      "Associated": 5544,
      "Correction": 5545,
      "Crust": 5546,
      "Everything": 5547,
      "Lines": 5548,
      "Remnant": 5549,
      "Teal": 5550,
      "busy": 5551,
      "nodule": 5552,
      "sprinkled": 5553,
      "symmetrically": 5554,
      "anastomosing": 5555,
      "already": 5556,
      "surprisingly": 5557,
      "precurs": 5558,
      "Copérnic": 5559,
      "unresolved": 5560,
      "longitudin": 5561,
      "effusive": 5562,
      "progressively": 5563,
      "fascinating": 5564,
      ");": 5565,
      ")***": 5566,
      "96936": 5567,
      "A_": 5568,
      "Coun": 5569,
      "Defined": 5570,
      "Ejecta": 5571,
      "Gro": 5572,
      "NTU": 5573,
      "Perv": 5574,
      "Pock": 5575,
      "Prim": 5576,
      "Plateaus": 5577,
      "Up": 5578,
      "bly": 5579,
      "backed": 5580,
      "cat": 5581,
      "cesses": 5582,
      "cked": 5583,
      "eel": 5584,
      "fing": 5585,
      "feel": 5586,
      "gular": 5587,
      "har": 5588,
      "hold": 5589,
      "hier": 5590,
      "ily": 5591,
      "ilinear": 5592,
      "must": 5593,
      "mpled": 5594,
      "rig": 5595,
      "ritten": 5596,
      "titude": 5597,
      "ucked": 5598,
      "vex": 5599,
      "wav": 5600,
      "will": 5601,
      "zed": 5602,
      "}}$).": 5603,
      "erup": 5604,
      "inland": 5605,
      "heav": 5606,
      "atures": 5607,
      "anular": 5608,
      "recesses": 5609,
      "onal": 5610,
      "onous": 5611,
      "altitude": 5612,
      "enh": 5613,
      "enorm": 5614,
      "acenc": 5615,
      "rays": 5616,
      "laminated": 5617,
      "Craterized": 5618,
      "Imagery": 5619,
      "ompt": 5620,
      "asive": 5621,
      "getic": 5622,
      "imal": 5623,
      "unitized": 5624,
      "dissimilar": 5625,
      "acted": 5626,
      "activ": 5627,
      "construct": 5628,
      "convex": 5629,
      "implied": 5630,
      "white": 5631,
      "shade": 5632,
      "adhering": 5633,
      "upheav": 5634,
      "mauve": 5635,
      "lation": 5636,
      "posits": 5637,
      "scrat": 5638,
      "umn": 5639,
      "landform": 5640,
      "abduct": 5641,
      "condu": 5642,
      "basinward": 5643,
      "materially": 5644,
      "preferent": 5645,
      "texturing": 5646,
      "localize": 5647,
      "interposed": 5648,
      "intermix": 5649,
      "intergrade": 5650,
      "transg": 5651,
      "llite": 5652,
      "grounded": 5653,
      "atellite": 5654,
      "sited": 5655,
      "stratiform": 5656,
      "differs": 5657,
      "**)": 5658,
      "crumpled": 5659,
      "ultimate": 5660,
      "contrastive": 5661,
      "backgrounds": 5662,
      "zonal": 5663,
      "signify": 5664,
      "representation": 5665,
      "marine": 5666,
      "tracted": 5667,
      "anciently": 5668,
      "mingle": 5669,
      "terned": 5670,
      "overwritten": 5671,
      "curtain": 5672,
      "southerly": 5673,
      "regionalized": 5674,
      "patchily": 5675,
      "%)*": 5676,
      "protracted": 5677,
      "traversal": 5678,
      "juxtapositional": 5679,
      "unclear": 5680,
      "unsegmented": 5681,
      "uncertain": 5682,
      "unexplored": 5683,
      "morphologically": 5684,
      "predominance": 5685,
      "centerpiece": 5686,
      "denot": 5687,
      "depositing": 5688,
      "Moving": 5689,
      "punctually": 5690,
      "pockmark": 5691,
      "specified": 5692,
      "pervasively": 5693,
      "ressed": 5694,
      "proceed": 5695,
      "draper": 5696,
      "sets": 5697,
      "setup": 5698,
      "correlation": 5699,
      "pier": 5700,
      "intimate": 5701,
      "parallels": 5702,
      "superpositioning": 5703,
      "coev": 5704,
      "westward": 5705,
      "periodically": 5706,
      "petr": 5707,
      "corners": 5708,
      "Geology": 5709,
      "Geomorph": 5710,
      "crown": 5711,
      "Therefore": 5712,
      "Patch": 5713,
      "Patterned": 5714,
      "exceed": 5715,
      "Minimal": 5716,
      "proximally": 5717,
      "multitude": 5718,
      "multilayered": 5719,
      "fragmentary": 5720,
      "Prominently": 5721,
      "closed": 5722,
      "topologies": 5723,
      "Freshly": 5724,
      "Intervening": 5725,
      "ridgelines": 5726,
      "correspond": 5727,
      "patchworked": 5728,
      "residuals": 5729,
      "intermediately": 5730,
      "downslope": 5731,
      "yellowish": 5732,
      "granular": 5733,
      "signatures": 5734,
      "reflectors": 5735,
      "intrusive": 5736,
      "however": 5737,
      "populating": 5738,
      "combines": 5739,
      "floods": 5740,
      "floodplains": 5741,
      "disturb": 5742,
      "definitional": 5743,
      "cratization": 5744,
      "template": 5745,
      "governing": 5746,
      "Undulating": 5747,
      "Superficially": 5748,
      "account": 5749,
      "leng": 5750,
      "lending": 5751,
      "damage": 5752,
      "undeveloped": 5753,
      "Contact": 5754,
      "\\%}$)": 5755,
      "\\%}$),": 5756,
      "constrains": 5757,
      "connection": 5758,
      "sculpting": 5759,
      "circumscrib": 5760,
      "fully": 5761,
      "stabilize": 5762,
      "prevalence": 5763,
      "Specialized": 5764,
      "comprehensively": 5765,
      "fitted": 5766,
      "fitting": 5767,
      "isolate": 5768,
      "intensities": 5769,
      "Curving": 5770,
      "Deposits": 5771,
      "enclave": 5772,
      "brecc": 5773,
      "intercalation": 5774,
      "frontier": 5775,
      "punctuating": 5776,
      "corridors": 5777,
      "Lateral": 5778,
      "energetic": 5779,
      "imparted": 5780,
      "distinguishable": 5781,
      "ubiquitously": 5782,
      "photographic": 5783,
      "stepped": 5784,
      "compartmentalizing": 5785,
      "Prov": 5786,
      "functioning": 5787,
      "heights": 5788,
      "cliffs": 5789,
      "Crossing": 5790,
      "infil": 5791,
      "descending": 5792,
      "thicknesses": 5793,
      "shelf": 5794,
      "styles": 5795,
      "bridge": 5796,
      "polygenet": 5797,
      "Intrinsically": 5798,
      "vestiges": 5799,
      "vestigial": 5800,
      "Radial": 5801,
      "Radiating": 5802,
      "rectilinear": 5803,
      "sparser": 5804,
      "sparingly": 5805,
      "impinging": 5806,
      "tensional": 5807,
      "bookended": 5808,
      "approx": 5809,
      "Superimposing": 5810,
      "reinforced": 5811,
      "caus": 5812,
      "slice": 5813,
      "ambiguous": 5814,
      "magnitudes": 5815,
      "Sporadic": 5816,
      "bipartite": 5817,
      "gather": 5818,
      "sentence": 5819,
      "asymmetrical": 5820,
      "permeates": 5821,
      "modeled": 5822,
      "unusual": 5823,
      "picture": 5824,
      "tessellation": 5825,
      "explicitly": 5826,
      "contemporaneous": 5827,
      "Crustal": 5828,
      "Remnants": 5829,
      "precursor": 5830,
      "longitudinally": 5831,
      "Countless": 5832,
      "Groo": 5833,
      "Pervasive": 5834,
      "Pocket": 5835,
      "Primary": 5836,
      "hierarch": 5837,
      "enormous": 5838,
      "acencies": 5839,
      "upheaval": 5840,
      "abducting": 5841,
      "exceedingly": 5842,
      "polygenetic": 5843,
      "(*": 5844,
      ")*,": 5845,
      "*(": 5846,
      "465": 5847,
      "Brill": 5848,
      "Capping": 5849,
      "Circular": 5850,
      "DC": 5851,
      "Del": 5852,
      "Each": 5853,
      "FC": 5854,
      "Few": 5855,
      "Field": 5856,
      "Giant": 5857,
      "IUMU": 5858,
      "IFU": 5859,
      "Lack": 5860,
      "Late": 5861,
      "Lot": 5862,
      "Morph": 5863,
      "Mature": 5864,
      "NCU": 5865,
      "Stra": 5866,
      "Syn": 5867,
      "Very": 5868,
      "[#": 5869,
      "aby": 5870,
      "bal": 5871,
      "best": 5872,
      "bled": 5873,
      "cu": 5874,
      "clum": 5875,
      "dated": 5876,
      "dures": 5877,
      "drast": 5878,
      "day": 5879,
      "easi": 5880,
      "five": 5881,
      "gar": 5882,
      "gressing": 5883,
      "hi": 5884,
      "hth": 5885,
      "hab": 5886,
      "iacent": 5887,
      "ief": 5888,
      "lid": 5889,
      "laced": 5890,
      "lds": 5891,
      "mit": 5892,
      "mere": 5893,
      "nod": 5894,
      "oz": 5895,
      "ood": 5896,
      "ovoid": 5897,
      "py": 5898,
      "pent": 5899,
      "pig": 5900,
      "pid": 5901,
      "rar": 5902,
      "rac": 5903,
      "rand": 5904,
      "sam": 5905,
      "sally": 5906,
      "satellite": 5907,
      "ture": 5908,
      "ties": 5909,
      "tough": 5910,
      "til": 5911,
      "tish": 5912,
      "tucked": 5913,
      "vig": 5914,
      "war": 5915,
      "erve": 5916,
      "ersit": 5917,
      "erupt": 5918,
      "eroding": 5919,
      "init": 5920,
      "indistinct": 5921,
      "insets": 5922,
      "arse": 5923,
      "arding": 5924,
      "atus": 5925,
      "thesis": 5926,
      "real": 5927,
      "reage": 5928,
      "relic": 5929,
      "onic": 5930,
      "iangular": 5931,
      "allo": 5932,
      "alloc": 5933,
      "alga": 5934,
      "oring": 5935,
      "ordin": 5936,
      "acute": 5937,
      "accu": 5938,
      "acreage": 5939,
      "rapid": 5940,
      "suture": 5941,
      "ouring": 5942,
      "icance": 5943,
      "icircular": 5944,
      "stood": 5945,
      "brow": 5946,
      "Imposed": 5947,
      "Immedi": 5948,
      "ases": 5949,
      "assu": 5950,
      "geosc": 5951,
      "geoch": 5952,
      "urely": 5953,
      "craterevent": 5954,
      "faces": 5955,
      "devoid": 5956,
      "determined": 5957,
      "seism": 5958,
      "surfaced": 5959,
      "conjunction": 5960,
      "pertur": 5961,
      "perties": 5962,
      "imposing": 5963,
      "imposition": 5964,
      "Terras": 5965,
      "today": 5966,
      "ify": 5967,
      "bordures": 5968,
      "overlains": 5969,
      "overro": 5970,
      "added": 5971,
      "adiacent": 5972,
      "terbal": 5973,
      "regard": 5974,
      "prompt": 5975,
      "format": 5976,
      "ested": 5977,
      "viole": 5978,
      "adjunct": 5979,
      "adjacencies": 5980,
      "maxim": 5981,
      "antities": 5982,
      "latest": 5983,
      "ocrac": 5984,
      "coming": 5985,
      "patin": 5986,
      "scales": 5987,
      "ludes": 5988,
      "plained": 5989,
      "markers": 5990,
      "veget": 5991,
      "basinary": 5992,
      "triangular": 5993,
      "visibility": 5994,
      "chief": 5995,
      "localization": 5996,
      "interval": 5997,
      "interbeds": 5998,
      "interfing": 5999,
      "complexified": 6000,
      "complexities": 6001,
      "lowing": 6002,
      "abutt": 6003,
      "preserve": 6004,
      "understood": 6005,
      "situ": 6006,
      "contacted": 6007,
      "crusty": 6008,
      "crusted": 6009,
      "froz": 6010,
      "quantities": 6011,
      "compose": 6012,
      "oblit": 6013,
      "obbly": 6014,
      "significance": 6015,
      "mineral": 6016,
      "traject": 6017,
      "margining": 6018,
      "historic": 6019,
      "knobbly": 6020,
      "creation": 6021,
      "creases": 6022,
      "gend": 6023,
      "minority": 6024,
      "pernican": 6025,
      "positional": 6026,
      "Clusters": 6027,
      "flattish": 6028,
      "eplan": 6029,
      "%);": 6030,
      "project": 6031,
      "properties": 6032,
      "evol": 6033,
      "vided": 6034,
      "infillings": 6035,
      "juxtapositionally": 6036,
      "rupting": 6037,
      "variously": 6038,
      "embedding": 6039,
      "dening": 6040,
      "foundations": 6041,
      "amalga": 6042,
      "divider": 6043,
      "diversit": 6044,
      "foregound": 6045,
      "outlier": 6046,
      "Alps": 6047,
      "punctual": 6048,
      "basic": 6049,
      "drawn": 6050,
      "Analyz": 6051,
      "crossings": 6052,
      "lesser": 6053,
      "characteristically": 6054,
      "postdates": 6055,
      "planated": 6056,
      "Third": 6057,
      "coarse": 6058,
      "copernican": 6059,
      "westernmost": 6060,
      "peneplan": 6061,
      "thinnest": 6062,
      "grey": 6063,
      "junctional": 6064,
      "ridden": 6065,
      "mosaics": 6066,
      "narrowly": 6067,
      "Geometrically": 6068,
      "motif": 6069,
      "finement": 6070,
      "cry": 6071,
      "cracked": 6072,
      "Textured": 6073,
      "FB8": 6074,
      "continue": 6075,
      "manifested": 6076,
      "ximal": 6077,
      "superimposited": 6078,
      "***(": 6079,
      "multifaceted": 6080,
      "flux": 6081,
      "incipient": 6082,
      "BAFC": 6083,
      "digitating": 6084,
      "Local": 6085,
      "column": 6086,
      "collid": 6087,
      "Higher": 6088,
      "counterbal": 6089,
      "ayment": 6090,
      "archaic": 6091,
      "eff": 6092,
      "Interposed": 6093,
      "Interaction": 6094,
      "Interrupting": 6095,
      "Interdigitating": 6096,
      "Beige": 6097,
      "Behind": 6098,
      "crisscrosses": 6099,
      "successively": 6100,
      "serpent": 6101,
      "semicircular": 6102,
      "iguing": 6103,
      "shifting": 6104,
      "formerly": 6105,
      "intrins": 6106,
      "intriguing": 6107,
      "truncations": 6108,
      "Additional": 6109,
      "biggest": 6110,
      "assembled": 6111,
      "developmental": 6112,
      "dictating": 6113,
      "channelized": 6114,
      "cales": 6115,
      "confluent": 6116,
      "totaling": 6117,
      "converging": 6118,
      "worlds": 6119,
      "Separating": 6120,
      "architecturally": 6121,
      "timescales": 6122,
      "requested": 6123,
      "organize": 6124,
      "shallowest": 6125,
      "cratography": 6126,
      "cratocrac": 6127,
      "geomorphically": 6128,
      "additionally": 6129,
      "cracking": 6130,
      "breaking": 6131,
      "introducing": 6132,
      "transversally": 6133,
      "Traversed": 6134,
      "alternates": 6135,
      "alternate": 6136,
      "entrally": 6137,
      "52BAFC": 6138,
      "envelopes": 6139,
      "envelope": 6140,
      "dented": 6141,
      "volumes": 6142,
      "cradle": 6143,
      "Trace": 6144,
      "Tracing": 6145,
      "superposing": 6146,
      "accretions": 6147,
      "generate": 6148,
      "sculpt": 6149,
      "paleosurface": 6150,
      "visualization": 6151,
      "resemble": 6152,
      "cratereous": 6153,
      "iers": 6154,
      "accretional": 6155,
      "orientation": 6156,
      "Intrusionally": 6157,
      "anchored": 6158,
      "received": 6159,
      "Only": 6160,
      "score": 6161,
      "Contrastingly": 6162,
      "tracks": 6163,
      "Streaking": 6164,
      "Degradation": 6165,
      "enclaved": 6166,
      "channeled": 6167,
      "Compositional": 6168,
      "recognized": 6169,
      "receives": 6170,
      "Sentence": 6171,
      "placements": 6172,
      "punctuation": 6173,
      "imparting": 6174,
      "Notably": 6175,
      "Progressing": 6176,
      "Provided": 6177,
      "Proximal": 6178,
      "Sinusoidally": 6179,
      "hyper": 6180,
      "differentiates": 6181,
      "differentiate": 6182,
      "exceptional": 6183,
      "Stratigraphic": 6184,
      "coastline": 6185,
      "widest": 6186,
      "flattening": 6187,
      "Reddish": 6188,
      "nuanced": 6189,
      "slicing": 6190,
      "bridges": 6191,
      "lique": 6192,
      "preceded": 6193,
      "depocenters": 6194,
      "sinuosities": 6195,
      "documented": 6196,
      "intermittent": 6197,
      "suddenly": 6198,
      "impinge": 6199,
      "coalesced": 6200,
      "coalescing": 6201,
      "bookend": 6202,
      "rimae": 6203,
      "infiltrating": 6204,
      "Observed": 6205,
      "Unclassified": 6206,
      "perfectly": 6207,
      "buttress": 6208,
      "buttressed": 6209,
      "Sectional": 6210,
      "housing": 6211,
      "jumbled": 6212,
      "register": 6213,
      "Eratosthenes": 6214,
      "mechanism": 6215,
      "reshaped": 6216,
      "embayment": 6217,
      "underpinned": 6218,
      "pervades": 6219,
      "rigid": 6220,
      "waves": 6221,
      "activities": 6222,
      "scratches": 6223,
      "conduits": 6224,
      "proceeds": 6225,
      "drapery": 6226,
      "coeval": 6227,
      "petrographic": 6228,
      "crowning": 6229,
      "Patchy": 6230,
      "length": 6231,
      "Province": 6232,
      "hierarchical": 6233,
      "465FB8": 6234,
      "Brilliant": 6235,
      "Delicate": 6236,
      "Lacking": 6237,
      "Lots": 6238,
      "Morphology": 6239,
      "Straight": 6240,
      "Synthesis": 6241,
      "abyss": 6242,
      "clumpy": 6243,
      "drastically": 6244,
      "easily": 6245,
      "gardening": 6246,
      "hiatus": 6247,
      "hthonous": 6248,
      "habit": 6249,
      "mitig": 6250,
      "nodes": 6251,
      "pigmented": 6252,
      "random": 6253,
      "sampled": 6254,
      "tilting": 6255,
      "vigor": 6256,
      "eruptive": 6257,
      "realms": 6258,
      "allochthonous": 6259,
      "accurate": 6260,
      "browner": 6261,
      "Immediately": 6262,
      "geoscape": 6263,
      "geochron": 6264,
      "seismic": 6265,
      "overrode": 6266,
      "regardless": 6267,
      "violet": 6268,
      "maximum": 6269,
      "chiefly": 6270,
      "frozen": 6271,
      "obliter": 6272,
      "diversity": 6273,
      "counterbalanced": 6274,
      "serpentine": 6275,
      "intrinsic": 6276,
      "cratocracy": 6277,
      ")*.": 6278,
      "*)": 6279,
      "--": 6280,
      ".\"": 6281,
      ".*": 6282,
      "2A5": 6283,
      "A9": 6284,
      "Bat": 6285,
      "Bas": 6286,
      "Bomb": 6287,
      "BC4": 6288,
      "Base": 6289,
      "Cry": 6290,
      "D4": 6291,
      "Down": 6292,
      "Direct": 6293,
      "Ear": 6294,
      "ED4": 6295,
      "Fo": 6296,
      "F38": 6297,
      "Grad": 6298,
      "HF": 6299,
      "IP": 6300,
      "Le": 6301,
      "Last": 6302,
      "Less": 6303,
      "Lightly": 6304,
      "Mid": 6305,
      "Mot": 6306,
      "Mapping": 6307,
      "MFU": 6308,
      "Ne": 6309,
      "Narr": 6310,
      "Out": 6311,
      "OHF": 6312,
      "OMFU": 6313,
      "Ra": 6314,
      "Sed": 6315,
      "Son": 6316,
      "Tow": 6317,
      "Trough": 6318,
      "Tonal": 6319,
      "UCU": 6320,
      "Vol": 6321,
      "].": 6322,
      "aver": 6323,
      "aqu": 6324,
      "amin": 6325,
      "ayed": 6326,
      "bar": 6327,
      "bent": 6328,
      "bare": 6329,
      "cou": 6330,
      "clar": 6331,
      "clu": 6332,
      "cised": 6333,
      "crated": 6334,
      "came": 6335,
      "cour": 6336,
      "cept": 6337,
      "dly": 6338,
      "das": 6339,
      "dial": 6340,
      "dus": 6341,
      "dicular": 6342,
      "dressing": 6343,
      "ea": 6344,
      "ee": 6345,
      "eor": 6346,
      "ead": 6347,
      "eir": 6348,
      "gical": 6349,
      "gig": 6350,
      "glob": 6351,
      "gonal": 6352,
      "glowing": 6353,
      "hard": 6354,
      "hugged": 6355,
      "lived": 6356,
      "mapp": 6357,
      "nine": 6358,
      "oon": 6359,
      "ogra": 6360,
      "olate": 6361,
      "oval": 6362,
      "ogical": 6363,
      "plu": 6364,
      "pus": 6365,
      "pling": 6366,
      "pun": 6367,
      "pouring": 6368,
      "purely": 6369,
      "ral": 6370,
      "ric": 6371,
      "row": 6372,
      "righ": 6373,
      "romet": 6374,
      "rhy": 6375,
      "rosc": 6376,
      "sad": 6377,
      "slow": 6378,
      "squ": 6379,
      "sna": 6380,
      "sinusoid": 6381,
      "syn": 6382,
      "tar": 6383,
      "tru": 6384,
      "tant": 6385,
      "tid": 6386,
      "tong": 6387,
      "tments": 6388,
      "tles": 6389,
      "tached": 6390,
      "ues": 6391,
      "ulu": 6392,
      "vation": 6393,
      "ventrally": 6394,
      "yield": 6395,
      "zing": 6396,
      "{\\#": 6397,
      "}\\%": 6398,
      "}\\%$)": 6399,
      "ermost": 6400,
      "erations": 6401,
      "iny": 6402,
      "insu": 6403,
      "incon": 6404,
      "inut": 6405,
      "iness": 6406,
      "inflow": 6407,
      "inward": 6408,
      "investig": 6409,
      "inhabit": 6410,
      "ater": 6411,
      "attribut": 6412,
      "atten": 6413,
      "iterations": 6414,
      "edance": 6415,
      "ison": 6416,
      "ished": 6417,
      "repos": 6418,
      "restructuring": 6419,
      "ality": 6420,
      "allocated": 6421,
      "allows": 6422,
      "ratic": 6423,
      "orough": 6424,
      "orbit": 6425,
      "ordial": 6426,
      "ortant": 6427,
      "ens": 6428,
      "acity": 6429,
      "esis": 6430,
      "estered": 6431,
      "sus": 6432,
      "susc": 6433,
      "suite": 6434,
      "subordin": 6435,
      "surable": 6436,
      "ics": 6437,
      "stop": 6438,
      "Nectaria": 6439,
      "omised": 6440,
      "osity": 6441,
      "ospheric": 6442,
      "ash": 6443,
      "offer": 6444,
      "exact": 6445,
      "exempl": 6446,
      "examin": 6447,
      "thorough": 6448,
      "disposed": 6449,
      "dissection": 6450,
      "actively": 6451,
      "crateroid": 6452,
      "craterogenic": 6453,
      "cratervation": 6454,
      "facing": 6455,
      "convol": 6456,
      "ivers": 6457,
      "perpen": 6458,
      "impedance": 6459,
      "important": 6460,
      "versus": 6461,
      "Terrains": 6462,
      "too": 6463,
      "mob": 6464,
      "moves": 6465,
      "ologist": 6466,
      "terrae": 6467,
      "ifies": 6468,
      "shield": 6469,
      "bors": 6470,
      "overlook": 6471,
      "borderland": 6472,
      "add": 6473,
      "adacency": 6474,
      "apen": 6475,
      "reground": 6476,
      "deform": 6477,
      "urized": 6478,
      "prone": 6479,
      "forts": 6480,
      "force": 6481,
      "owded": 6482,
      "adjust": 6483,
      "rounder": 6484,
      "magent": 6485,
      "antic": 6486,
      "antiqu": 6487,
      "lations": 6488,
      "olunar": 6489,
      "luding": 6490,
      "content": 6491,
      "rier": 6492,
      "util": 6493,
      "formally": 6494,
      "umbent": 6495,
      "occupation": 6496,
      "landed": 6497,
      "abstract": 6498,
      "veins": 6499,
      "basinal": 6500,
      "tric": 6501,
      "prehistoric": 6502,
      "diffic": 6503,
      "primitive": 6504,
      "primordial": 6505,
      "texturized": 6506,
      "intermare": 6507,
      "interven": 6508,
      "interbedding": 6509,
      "interesting": 6510,
      "Segment": 6511,
      "transecting": 6512,
      "subunits": 6513,
      "panca": 6514,
      "lowed": 6515,
      "usion": 6516,
      "abuttal": 6517,
      "mega": 6518,
      "undercuts": 6519,
      "vastness": 6520,
      "charted": 6521,
      "characterization": 6522,
      "ains": 6523,
      "modifiers": 6524,
      "**:": 6525,
      "**).": 6526,
      "quality": 6527,
      "oblong": 6528,
      "obser": 6529,
      "oblique": 6530,
      "servable": 6531,
      "Incised": 6532,
      "lowerermost": 6533,
      "representations": 6534,
      "incumbent": 6535,
      "maroon": 6536,
      "depositions": 6537,
      "depositionary": 6538,
      "observational": 6539,
      "trail": 6540,
      "maining": 6541,
      "sequenced": 6542,
      "sequestered": 6543,
      "margined": 6544,
      "creet": 6545,
      "genesis": 6546,
      "minorly": 6547,
      "Outermost": 6548,
      "whereas": 6549,
      "irregularity": 6550,
      "unifying": 6551,
      "ework": 6552,
      "flatlands": 6553,
      "ephem": 6554,
      "epeir": 6555,
      "viewed": 6556,
      "patchier": 6557,
      "container": 6558,
      "%)*,": 6559,
      "protru": 6560,
      "oddly": 6561,
      "spea": 6562,
      "uncratered": 6563,
      "unresurfaced": 6564,
      "unidentifiable": 6565,
      "unconformable": 6566,
      "unspecified": 6567,
      "univers": 6568,
      "uncharted": 6569,
      "brightened": 6570,
      "erosionally": 6571,
      "need": 6572,
      "centering": 6573,
      "superjacent": 6574,
      "superficially": 6575,
      "pressing": 6576,
      "presses": 6577,
      "pressions": 6578,
      "outpouring": 6579,
      "flowplain": 6580,
      "curvilinearly": 6581,
      "specks": 6582,
      "nestle": 6583,
      "rockier": 6584,
      "interactional": 6585,
      "settles": 6586,
      "sense": 6587,
      "roles": 6588,
      "weave": 6589,
      "shading": 6590,
      "classifies": 6591,
      "piles": 6592,
      "caprock": 6593,
      "depressionary": 6594,
      "aved": 6595,
      "planime": 6596,
      "Dissecting": 6597,
      "coordin": 6598,
      "compromised": 6599,
      "lime": 6600,
      "homogen": 6601,
      "capture": 6602,
      "stream": 6603,
      "think": 6604,
      "lithic": 6605,
      "ighboring": 6606,
      "strian": 6607,
      "intersectional": 6608,
      "completen": 6609,
      "complementing": 6610,
      "Geologist": 6611,
      "angles": 6612,
      "tectonism": 6613,
      "Surfaces": 6614,
      "ometric": 6615,
      "Addressing": 6616,
      "baseline": 6617,
      "crowded": 6618,
      "demonstra": 6619,
      "descent": 6620,
      "desolate": 6621,
      "canic": 6622,
      "canyon": 6623,
      "epochal": 6624,
      "Overhead": 6625,
      "paleolunar": 6626,
      "discerned": 6627,
      "continuing": 6628,
      "continuation": 6629,
      "originates": 6630,
      "originate": 6631,
      "saturates": 6632,
      "washes": 6633,
      "compartments": 6634,
      "comparison": 6635,
      "opening": 6636,
      "drops": 6637,
      "dropping": 6638,
      "interdigitations": 6639,
      "ringing": 6640,
      "result": 6641,
      "contextual": 6642,
      "environmental": 6643,
      "topology": 6644,
      "efforts": 6645,
      "modest": 6646,
      "terrace": 6647,
      "angularly": 6648,
      "precludes": 6649,
      "renew": 6650,
      "resisted": 6651,
      "patchworks": 6652,
      "bumpier": 6653,
      "incorporation": 6654,
      "intrinsically": 6655,
      "bigger": 6656,
      "richly": 6657,
      "negligibly": 6658,
      "carves": 6659,
      "affinity": 6660,
      "terminator": 6661,
      "superimpositions": 6662,
      "Variable": 6663,
      "rippling": 6664,
      "interpret": 6665,
      "imentary": 6666,
      "sedimented": 6667,
      "stripping": 6668,
      "Plaine": 6669,
      "strain": 6670,
      "scatterings": 6671,
      "Visual": 6672,
      "Descriptions": 6673,
      "chronous": 6674,
      "Separate": 6675,
      "combining": 6676,
      "segregates": 6677,
      "rifts": 6678,
      "bisect": 6679,
      "contributed": 6680,
      "encapsulation": 6681,
      "24D": 6682,
      "require": 6683,
      "requir": 6684,
      "burying": 6685,
      "Refinement": 6686,
      "Remaining": 6687,
      "naturally": 6688,
      "recession": 6689,
      "pathway": 6690,
      "Gray": 6691,
      "Concept": 6692,
      "frequent": 6693,
      "support": 6694,
      "cratometrically": 6695,
      "cratospheric": 6696,
      "cratometric": 6697,
      "concluding": 6698,
      "identify": 6699,
      "BB8": 6700,
      "rilling": 6701,
      "meanwhile": 6702,
      "Feature": 6703,
      "Undefined": 6704,
      "ribbed": 6705,
      "fluidic": 6706,
      "gradations": 6707,
      "articulating": 6708,
      "successions": 6709,
      "lineamentations": 6710,
      "accreting": 6711,
      "accretes": 6712,
      "simply": 6713,
      "undeformed": 6714,
      "cratonization": 6715,
      "annulu": 6716,
      "uniquely": 6717,
      "Transitions": 6718,
      "radiates": 6719,
      "connectivity": 6720,
      "surement": 6721,
      "stabilizing": 6722,
      "incision": 6723,
      "crestal": 6724,
      "blending": 6725,
      "persists": 6726,
      "persistence": 6727,
      "paleogeography": 6728,
      "newest": 6729,
      "instead": 6730,
      "Intruded": 6731,
      "craterezed": 6732,
      "achieved": 6733,
      "Rougher": 6734,
      "Roughly": 6735,
      "macrosc": 6736,
      "PNU": 6737,
      "Intrusionary": 6738,
      "anchoring": 6739,
      "confirm": 6740,
      "tracework": 6741,
      "macrostructure": 6742,
      "receive": 6743,
      "critically": 6744,
      "distally": 6745,
      "considered": 6746,
      "Strata": 6747,
      "Stratified": 6748,
      "collapsed": 6749,
      "Depressions": 6750,
      "micromet": 6751,
      "itudes": 6752,
      "plaineous": 6753,
      "Successively": 6754,
      "mask": 6755,
      "masks": 6756,
      "ordered": 6757,
      "modulat": 6758,
      "restrictively": 6759,
      "steps": 6760,
      "Complementary": 6761,
      "compartmentalization": 6762,
      "taken": 6763,
      "quarter": 6764,
      "merging": 6765,
      "measurable": 6766,
      "measurement": 6767,
      "pooled": 6768,
      "flattens": 6769,
      "Intermingling": 6770,
      "Regions": 6771,
      "Regarding": 6772,
      "ribbons": 6773,
      "engulfs": 6774,
      "engulfing": 6775,
      "lacun": 6776,
      "bridging": 6777,
      "polygonal": 6778,
      "constituents": 6779,
      "eptibility": 6780,
      "exteriorly": 6781,
      "reinforces": 6782,
      "embraced": 6783,
      ")$,": 6784,
      "reworked": 6785,
      "reticulate": 6786,
      "luminosity": 6787,
      "submerges": 6788,
      "meteorite": 6789,
      "diminut": 6790,
      "seams": 6791,
      "pervading": 6792,
      "approaching": 6793,
      "Eratostrian": 6794,
      "Superimposition": 6795,
      "opposing": 6796,
      "resolves": 6797,
      "infiltrate": 6798,
      "bathymetric": 6799,
      "reinforcing": 6800,
      "Observable": 6801,
      "Unmapped": 6802,
      "Inferiorly": 6803,
      "ambient": 6804,
      "magnitude": 6805,
      "beautifully": 6806,
      "North": 6807,
      "Northern": 6808,
      "houses": 6809,
      "jumble": 6810,
      "deviations": 6811,
      "ochre": 6812,
      "Eratosthenia": 6813,
      "mechanics": 6814,
      "reshaping": 6815,
      "embayed": 6816,
      "Juxtapositions": 6817,
      "equatorially": 6818,
      "pervaded": 6819,
      "Copérnican": 6820,
      "Upon": 6821,
      "harbors": 6822,
      "eruption": 6823,
      "erupted": 6824,
      "enhance": 6825,
      "construction": 6826,
      "preferential": 6827,
      "preferentially": 6828,
      "transgression": 6829,
      "traversals": 6830,
      "denoting": 6831,
      "denotes": 6832,
      "Geomorphically": 6833,
      "Geomorphologically": 6834,
      "disturbing": 6835,
      "circumscribing": 6836,
      "circumscribes": 6837,
      "brecciation": 6838,
      "infilla": 6839,
      "infillations": 6840,
      "caused": 6841,
      "causing": 6842,
      "gathered": 6843,
      "Grooves": 6844,
      "Grooved": 6845,
      "merely": 6846,
      "tougher": 6847,
      "alloped": 6848,
      "assumes": 6849,
      "perturb": 6850,
      "formative": 6851,
      "patina": 6852,
      "vegetated": 6853,
      "mineralogical": 6854,
      "trajectories": 6855,
      "evolving": 6856,
      "amalgamation": 6857,
      "Analyzing": 6858,
      "collided": 6859,
      "effusion": 6860,
      "sculptured": 6861,
      "mechanisms": 6862,
      "abyssal": 6863,
      "mitigated": 6864,
      "randomly": 6865,
      "vigorous": 6866,
      "accurately": 6867,
      "geochronological": 6868,
      "obliterate": 6869,
      "2A5ED4": 6870,
      "Basally": 6871,
      "Bombardment": 6872,
      "BC424D": 6873,
      "Basement": 6874,
      "Cryater": 6875,
      "Directly": 6876,
      "Foreground": 6877,
      "F38BB8": 6878,
      "Gradient": 6879,
      "IPU": 6880,
      "Legend": 6881,
      "Lastly": 6882,
      "Mottled": 6883,
      "Neighboring": 6884,
      "Narrow": 6885,
      "Outcrop": 6886,
      "Sedimentary": 6887,
      "Toward": 6888,
      "Volcanic": 6889,
      "average": 6890,
      "aqua": 6891,
      "barrier": 6892,
      "barely": 6893,
      "coupled": 6894,
      "clut": 6895,
      "dashed": 6896,
      "dusky": 6897,
      "eezed": 6898,
      "gigantic": 6899,
      "mappable": 6900,
      "pluvial": 6901,
      "pushed": 6902,
      "punched": 6903,
      "rightward": 6904,
      "rhyth": 6905,
      "saddle": 6906,
      "slowly": 6907,
      "squeezed": 6908,
      "snakes": 6909,
      "sinusoidal": 6910,
      "synchronous": 6911,
      "target": 6912,
      "tidal": 6913,
      "yields": 6914,
      "}\\%$).": 6915,
      "insular": 6916,
      "inconsequential": 6917,
      "investigation": 6918,
      "attenuated": 6919,
      "repose": 6920,
      "orbital": 6921,
      "susceptibility": 6922,
      "subordinately": 6923,
      "stops": 6924,
      "exactly": 6925,
      "exemplified": 6926,
      "thoroughly": 6927,
      "convoluted": 6928,
      "perpendicular": 6929,
      "deformed": 6930,
      "magenta": 6931,
      "antiquity": 6932,
      "difficult": 6933,
      "intervenes": 6934,
      "pancakes": 6935,
      "observer": 6936,
      "trails": 6937,
      "ephemeral": 6938,
      "epeirogenic": 6939,
      "universally": 6940,
      "planimetric": 6941,
      "coordinates": 6942,
      "completeness": 6943,
      "demonstrable": 6944,
      "Conceptual": 6945,
      "annulus": 6946,
      "macroscop": 6947,
      "micrometeor": 6948,
      "diminutive": 6949,
      "\"—": 6950,
      "$,": 6951,
      "%;": 6952,
      "):": 6953,
      "):*": 6954,
      ",'": 6955,
      ".'": 6956,
      ".]": 6957,
      ".**": 6958,
      ".***": 6959,
      ".)*": 6960,
      ".)***": 6961,
      "029": 6962,
      "1A": 6963,
      "7A": 6964,
      "AA": 6965,
      "AR": 6966,
      "Ac": 6967,
      "Ar": 6968,
      "Act": 6969,
      "AFU": 6970,
      "BM": 6971,
      "BS": 6972,
      "Bits": 6973,
      "Bod": 6974,
      "Bel": 6975,
      "Bold": 6976,
      "Bann": 6977,
      "Ch": 6978,
      "Cy": 6979,
      "Che": 6980,
      "Crat": 6981,
      "CFF": 6982,
      "Dy": 6983,
      "Dif": 6984,
      "Dep": 6985,
      "D029": 6986,
      "E6": 6987,
      "Ed": 6988,
      "Fin": 6989,
      "For": 6990,
      "Foc": 6991,
      "Form": 6992,
      "Frequ": 6993,
      "FD029": 6994,
      "IL": 6995,
      "IN": 6996,
      "Ident": 6997,
      "ITU": 6998,
      "IOHF": 6999,
      "IUCU": 7000,
      "IAFU": 7001,
      "JF": 7002,
      "Jagged": 7003,
      "LM": 7004,
      "Lith": 7005,
      "Lying": 7006,
      "MF": 7007,
      "Me": 7008,
      "Mas": 7009,
      "Mant": 7010,
      "Marea": 7011,
      "Nar": 7012,
      "NBM": 7013,
      "NJF": 7014,
      "Panc": 7015,
      "Peach": 7016,
      "Plac": 7017,
      "Round": 7018,
      "Rim": 7019,
      "Rest": 7020,
      "Rol": 7021,
      "Sol": 7022,
      "Spar": 7023,
      "Slate": 7024,
      "SCF": 7025,
      "Satellite": 7026,
      "SAR": 7027,
      "T1": 7028,
      "T2": 7029,
      "Tect": 7030,
      "Tucked": 7031,
      "Tiny": 7032,
      "Ul": 7033,
      "UMF": 7034,
      "Ventrally": 7035,
      "Wind": 7036,
      "Work": 7037,
      "Wav": 7038,
      "Wave": 7039,
      "Where": 7040,
      "You": 7041,
      "Youn": 7042,
      "ae": 7043,
      "aj": 7044,
      "aw": 7045,
      "ake": 7046,
      "aked": 7047,
      "aust": 7048,
      "aeolian": 7049,
      "bo": 7050,
      "ban": 7051,
      "bol": 7052,
      "bits": 7053,
      "bay": 7054,
      "breac": 7055,
      "bers": 7056,
      "bapen": 7057,
      "clo": 7058,
      "care": 7059,
      "cial": 7060,
      "cous": 7061,
      "cep": 7062,
      "cuate": 7063,
      "cef": 7064,
      "cau": 7065,
      "cause": 7066,
      "circle": 7067,
      "curely": 7068,
      "dou": 7069,
      "dest": 7070,
      "did": 7071,
      "dri": 7072,
      "dling": 7073,
      "dun": 7074,
      "dimm": 7075,
      "ely": 7076,
      "ela": 7077,
      "eas": 7078,
      "ell": 7079,
      "efine": 7080,
      "fad": 7081,
      "fur": 7082,
      "flying": 7083,
      "free": 7084,
      "fam": 7085,
      "gru": 7086,
      "gating": 7087,
      "gically": 7088,
      "gative": 7089,
      "gose": 7090,
      "grated": 7091,
      "genced": 7092,
      "ghen": 7093,
      "goes": 7094,
      "hin": 7095,
      "had": 7096,
      "hid": 7097,
      "hum": 7098,
      "hang": 7099,
      "holith": 7100,
      "hair": 7101,
      "ict": 7102,
      "iel": 7103,
      "icts": 7104,
      "jig": 7105,
      "jut": 7106,
      "janssen": 7107,
      "jacency": 7108,
      "jutting": 7109,
      "kly": 7110,
      "kew": 7111,
      "ls": 7112,
      "lon": 7113,
      "lant": 7114,
      "lits": 7115,
      "lded": 7116,
      "lace": 7117,
      "mé": 7118,
      "mly": 7119,
      "mig": 7120,
      "multip": 7121,
      "mir": 7122,
      "mically": 7123,
      "mbrian": 7124,
      "mble": 7125,
      "mbers": 7126,
      "ng": 7127,
      "nical": 7128,
      "nad": 7129,
      "native": 7130,
      "ost": 7131,
      "oted": 7132,
      "oise": 7133,
      "ostratigraphic": 7134,
      "oged": 7135,
      "pin": 7136,
      "pon": 7137,
      "pine": 7138,
      "pol": 7139,
      "pain": 7140,
      "pul": 7141,
      "pag": 7142,
      "pene": 7143,
      "passive": 7144,
      "pects": 7145,
      "ptic": 7146,
      "poured": 7147,
      "plowed": 7148,
      "paved": 7149,
      "rou": 7150,
      "ros": 7151,
      "rook": 7152,
      "rors": 7153,
      "rane": 7154,
      "son": 7155,
      "sound": 7156,
      "sible": 7157,
      "sile": 7158,
      "slate": 7159,
      "sident": 7160,
      "slen": 7161,
      "smas": 7162,
      "sonic": 7163,
      "saw": 7164,
      "tab": 7165,
      "tall": 7166,
      "tight": 7167,
      "tides": 7168,
      "tte": 7169,
      "tess": 7170,
      "tally": 7171,
      "tiers": 7172,
      "uates": 7173,
      "uced": 7174,
      "ustr": 7175,
      "vent": 7176,
      "vity": 7177,
      "wed": 7178,
      "wou": 7179,
      "wig": 7180,
      "wil": 7181,
      "when": 7182,
      "xation": 7183,
      "xili": 7184,
      "you": 7185,
      "yant": 7186,
      "yiel": 7187,
      "}\\": 7188,
      "—*": 7189,
      "erly": 7190,
      "eroid": 7191,
      "erratic": 7192,
      "inver": 7193,
      "infer": 7194,
      "insignificant": 7195,
      "incomplete": 7196,
      "inser": 7197,
      "inher": 7198,
      "inactive": 7199,
      "inconspicuous": 7200,
      "inactiv": 7201,
      "arm": 7202,
      "arid": 7203,
      "arced": 7204,
      "atic": 7205,
      "ateral": 7206,
      "ators": 7207,
      "attest": 7208,
      "attached": 7209,
      "itary": 7210,
      "itially": 7211,
      "itched": 7212,
      "anges": 7213,
      "thest": 7214,
      "theless": 7215,
      "ction": 7216,
      "ctuating": 7217,
      "isn": 7218,
      "iscent": 7219,
      "istribut": 7220,
      "ission": 7221,
      "rela": 7222,
      "resur": 7223,
      "remo": 7224,
      "reli": 7225,
      "remin": 7226,
      "reforming": 7227,
      "recur": 7228,
      "rete": 7229,
      "recurren": 7230,
      "reased": 7231,
      "retre": 7232,
      "replaced": 7233,
      "replace": 7234,
      "rebuilding": 7235,
      "remode": 7236,
      "refinement": 7237,
      "aled": 7238,
      "albe": 7239,
      "alters": 7240,
      "alky": 7241,
      "allowing": 7242,
      "allowed": 7243,
      "aloged": 7244,
      "alateral": 7245,
      "raterary": 7246,
      "oram": 7247,
      "origraph": 7248,
      "ortly": 7249,
      "ortment": 7250,
      "orographic": 7251,
      "orously": 7252,
      "orned": 7253,
      "ensur": 7254,
      "enam": 7255,
      "enmes": 7256,
      "envelopment": 7257,
      "enery": 7258,
      "aches": 7259,
      "accor": 7260,
      "acraterary": 7261,
      "ray": 7262,
      "raded": 7263,
      "rayed": 7264,
      "raped": 7265,
      "supr": 7266,
      "susp": 7267,
      "suffer": 7268,
      "outw": 7269,
      "ioned": 7270,
      "ionally": 7271,
      "ectable": 7272,
      "ectral": 7273,
      "anders": 7274,
      "iced": 7275,
      "icial": 7276,
      "ickly": 7277,
      "sts": 7278,
      "stone": 7279,
      "strad": 7280,
      "stained": 7281,
      "stressed": 7282,
      "stitched": 7283,
      "ented": 7284,
      "entially": 7285,
      "enters": 7286,
      "last": 7287,
      "lamin": 7288,
      "lake": 7289,
      "lages": 7290,
      "label": 7291,
      "brant": 7292,
      "Impr": 7293,
      "Imbedded": 7294,
      "Imbapen": 7295,
      "Immbrian": 7296,
      "Imbria": 7297,
      "osol": 7298,
      "ounds": 7299,
      "asm": 7300,
      "aset": 7301,
      "aspects": 7302,
      "gets": 7303,
      "geote": 7304,
      "gevity": 7305,
      "loading": 7306,
      "imimposed": 7307,
      "ofacies": 7308,
      "ofile": 7309,
      "exam": 7310,
      "explained": 7311,
      "unital": 7312,
      "unitary": 7313,
      "disper": 7314,
      "displaced": 7315,
      "displace": 7316,
      "displacing": 7317,
      "discreet": 7318,
      "cratery": 7319,
      "craterion": 7320,
      "craterary": 7321,
      "cratereat": 7322,
      "cratertop": 7323,
      "crateritic": 7324,
      "facings": 7325,
      "facade": 7326,
      "depost": 7327,
      "delimits": 7328,
      "deple": 7329,
      "delic": 7330,
      "sepi": 7331,
      "securely": 7332,
      "surfacing": 7333,
      "rugose": 7334,
      "mated": 7335,
      "matches": 7336,
      "concern": 7337,
      "conce": 7338,
      "concurrently": 7339,
      "congru": 7340,
      "legend": 7341,
      "leaved": 7342,
      "iver": 7343,
      "perform": 7344,
      "perfo": 7345,
      "perce": 7346,
      "impses": 7347,
      "implant": 7348,
      "ominence": 7349,
      "verse": 7350,
      "vertheless": 7351,
      "tograph": 7352,
      "totally": 7353,
      "distinctions": 7354,
      "distinctiven": 7355,
      "modes": 7356,
      "mock": 7357,
      "model": 7358,
      "molded": 7359,
      "ructive": 7360,
      "terraplains": 7361,
      "terraformed": 7362,
      "impacto": 7363,
      "impactary": 7364,
      "impactation": 7365,
      "impactographic": 7366,
      "impactational": 7367,
      "impactomorph": 7368,
      "terrainal": 7369,
      "ifs": 7370,
      "ific": 7371,
      "ifacts": 7372,
      "shortly": 7373,
      "borded": 7374,
      "bordes": 7375,
      "overpart": 7376,
      "overflow": 7377,
      "overbur": 7378,
      "overpositioning": 7379,
      "overhang": 7380,
      "adding": 7381,
      "adop": 7382,
      "admixture": 7383,
      "adacencies": 7384,
      "adaj": 7385,
      "adorned": 7386,
      "igo": 7387,
      "regulated": 7388,
      "regarding": 7389,
      "urization": 7390,
      "urned": 7391,
      "urfacing": 7392,
      "printing": 7393,
      "prominence": 7394,
      "forcef": 7395,
      "uplisted": 7396,
      "twined": 7397,
      "estral": 7398,
      "owled": 7399,
      "vibrant": 7400,
      "gging": 7401,
      "featurization": 7402,
      "extrem": 7403,
      "rounds": 7404,
      "boundarying": 7405,
      "mauro": 7406,
      "lineating": 7407,
      "lineage": 7408,
      "lineate": 7409,
      "linework": 7410,
      "itionally": 7411,
      "smoothings": 7412,
      "antly": 7413,
      "latitudes": 7414,
      "ocratic": 7415,
      "belie": 7416,
      "because": 7417,
      "oler": 7418,
      "olive": 7419,
      "patric": 7420,
      "Uppermare": 7421,
      "scan": 7422,
      "scape": 7423,
      "scans": 7424,
      "scored": 7425,
      "scends": 7426,
      "scoring": 7427,
      "scouring": 7428,
      "scalloped": 7429,
      "scission": 7430,
      "scenery": 7431,
      "scraped": 7432,
      "plaining": 7433,
      "plainest": 7434,
      "plainage": 7435,
      "plainward": 7436,
      "plainness": 7437,
      "phic": 7438,
      "phot": 7439,
      "contigu": 7440,
      "ricted": 7441,
      "rilateral": 7442,
      "utnic": 7443,
      "Formational": 7444,
      "umed": 7445,
      "umnar": 7446,
      "landing": 7447,
      "landframe": 7448,
      "likew": 7449,
      "about": 7450,
      "abraded": 7451,
      "marker": 7452,
      "vein": 7453,
      "veloc": 7454,
      "basinally": 7455,
      "compound": 7456,
      "compet": 7457,
      "complim": 7458,
      "materializes": 7459,
      "prevent": 7460,
      "viscous": 7461,
      "chment": 7462,
      "chnical": 7463,
      "chalky": 7464,
      "chasm": 7465,
      "churned": 7466,
      "played": 7467,
      "ividing": 7468,
      "parent": 7469,
      "parcel": 7470,
      "poke": 7471,
      "porated": 7472,
      "pointing": 7473,
      "linearament": 7474,
      "linearities": 7475,
      "graining": 7476,
      "grazing": 7477,
      "centages": 7478,
      "interest": 7479,
      "interadjacent": 7480,
      "interlying": 7481,
      "interdig": 7482,
      "interspaces": 7483,
      "interconnect": 7484,
      "interlinked": 7485,
      "intergraded": 7486,
      "interconnections": 7487,
      "intergradation": 7488,
      "interlaced": 7489,
      "intertidal": 7490,
      "intercep": 7491,
      "interdun": 7492,
      "interlace": 7493,
      "interleaved": 7494,
      "intertwined": 7495,
      "complexed": 7496,
      "complexing": 7497,
      "complexify": 7498,
      "exhumed": 7499,
      "Set": 7500,
      "sharpest": 7501,
      "sharpness": 7502,
      "transfer": 7503,
      "transsect": 7504,
      "transsecting": 7505,
      "subparallel": 7506,
      "subdivisions": 7507,
      "subsident": 7508,
      "panoram": 7509,
      "fidel": 7510,
      "assortment": 7511,
      "astro": 7512,
      "asteroid": 7513,
      "centrically": 7514,
      "centralizing": 7515,
      "user": 7516,
      "lled": 7517,
      "undet": 7518,
      "undulated": 7519,
      "undocument": 7520,
      "undividing": 7521,
      "abuting": 7522,
      "abuttment": 7523,
      "abuttim": 7524,
      "grounds": 7525,
      "groundmass": 7526,
      "members": 7527,
      "meanders": 7528,
      "etime": 7529,
      "etching": 7530,
      "Lowermost": 7531,
      "cleared": 7532,
      "clearing": 7533,
      "clearest": 7534,
      "ationally": 7535,
      "induced": 7536,
      "indigo": 7537,
      "mareic": 7538,
      "underlain": 7539,
      "underground": 7540,
      "indicators": 7541,
      "characters": 7542,
      "situating": 7543,
      "ference": 7544,
      "ferences": 7545,
      "ules": 7546,
      "featureation": 7547,
      "stratal": 7548,
      "stratify": 7549,
      "**(": 7550,
      "**),": 7551,
      "crucial": 7552,
      "crusting": 7553,
      "crustier": 7554,
      "presently": 7555,
      "presentation": 7556,
      "delineative": 7557,
      "quoise": 7558,
      "quickly": 7559,
      "matrixal": 7560,
      "mentioned": 7561,
      "encaust": 7562,
      "juxtapost": 7563,
      "agent": 7564,
      "Infill": 7565,
      "Inte": 7566,
      "Inne": 7567,
      "Incor": 7568,
      "irly": 7569,
      "irling": 7570,
      "irrespective": 7571,
      "variedly": 7572,
      "strategically": 7573,
      "ruggedized": 7574,
      "zoned": 7575,
      "crustally": 7576,
      "inces": 7577,
      "incides": 7578,
      "increas": 7579,
      "increased": 7580,
      "ght": 7581,
      "depositionational": 7582,
      "observing": 7583,
      "observations": 7584,
      "exhibited": 7585,
      "trailing": 7586,
      "trasonic": 7587,
      "ancestral": 7588,
      "mainland": 7589,
      "margines": 7590,
      "marginated": 7591,
      "marginates": 7592,
      "margination": 7593,
      "marginize": 7594,
      "torus": 7595,
      "knowled": 7596,
      "cream": 7597,
      "crease": 7598,
      "mingling": 7599,
      "included": 7600,
      "nicely": 7601,
      "ternally": 7602,
      "Mauve": 7603,
      "regularly": 7604,
      "rested": 7605,
      "overwash": 7606,
      "showings": 7607,
      "curvi": 7608,
      "elevating": 7609,
      "elevate": 7610,
      "peripheraly": 7611,
      "peripheralized": 7612,
      "keeping": 7613,
      "lange": 7614,
      "flats": 7615,
      "flatness": 7616,
      "managed": 7617,
      "lightness": 7618,
      "views": 7619,
      "viewable": 7620,
      "patching": 7621,
      "patchiness": 7622,
      "proto": 7623,
      "propag": 7624,
      "otonous": 7625,
      "essentially": 7626,
      "seeing": 7627,
      "medial": 7628,
      "medially": 7629,
      "floating": 7630,
      "ods": 7631,
      "spacing": 7632,
      "spills": 7633,
      "splits": 7634,
      "spectral": 7635,
      "unvaried": 7636,
      "unmodified": 7637,
      "unable": 7638,
      "unstructured": 7639,
      "unrelated": 7640,
      "unfragmented": 7641,
      "unmixed": 7642,
      "unstratified": 7643,
      "unseen": 7644,
      "unlit": 7645,
      "uncolored": 7646,
      "unequal": 7647,
      "unlabeled": 7648,
      "unaffected": 7649,
      "unfolded": 7650,
      "unambiguous": 7651,
      "unmodeled": 7652,
      "unfam": 7653,
      "unexplained": 7654,
      "eventing": 7655,
      "tinged": 7656,
      "bedo": 7657,
      "flooring": 7658,
      "confounds": 7659,
      "00A9": 7660,
      "morphous": 7661,
      "morphologic": 7662,
      "interfacial": 7663,
      "longer": 7664,
      "coverings": 7665,
      "predate": 7666,
      "predict": 7667,
      "predominates": 7668,
      "neo": 7669,
      "negative": 7670,
      "nevertheless": 7671,
      "cutout": 7672,
      "densest": 7673,
      "denoted": 7674,
      "unknowns": 7675,
      "Implied": 7676,
      "superstructures": 7677,
      "supersed": 7678,
      "superincumbent": 7679,
      "superimimposed": 7680,
      "looked": 7681,
      "pronouncedly": 7682,
      "dual": 7683,
      "southwestward": 7684,
      "blackness": 7685,
      "eccentrically": 7686,
      "plateaued": 7687,
      "tlefield": 7688,
      "outflow": 7689,
      "outflowing": 7690,
      "quadrilateral": 7691,
      "flowover": 7692,
      "Alpine": 7693,
      "Albedo": 7694,
      "puncturing": 7695,
      "troughy": 7696,
      "troughuate": 7697,
      "transitionalized": 7698,
      "foundationally": 7699,
      "opacity": 7700,
      "gmented": 7701,
      "evidences": 7702,
      "furthermore": 7703,
      "fail": 7704,
      "fairly": 7705,
      "striate": 7706,
      "strikes": 7707,
      "nests": 7708,
      "faulted": 7709,
      "maturely": 7710,
      "circulating": 7711,
      "faciest": 7712,
      "noticed": 7713,
      "Montane": 7714,
      "posures": 7715,
      "easterly": 7716,
      "Angular": 7717,
      "infillated": 7718,
      "infillment": 7719,
      "infillled": 7720,
      "northernly": 7721,
      "ogenically": 7722,
      "crosscuts": 7723,
      "crosscutting": 7724,
      "segmentations": 7725,
      "direction": 7726,
      "directions": 7727,
      "identities": 7728,
      "stratigraphies": 7729,
      "stratigraphied": 7730,
      "shaded": 7731,
      "clasts": 7732,
      "moderates": 7733,
      "massy": 7734,
      "tonally": 7735,
      "geographies": 7736,
      "existent": 7737,
      "capacity": 7738,
      "domes": 7739,
      "Darkened": 7740,
      "iles": 7741,
      "ilization": 7742,
      "substantive": 7743,
      "superpositionally": 7744,
      "arce": 7745,
      "arched": 7746,
      "achment": 7747,
      "achron": 7748,
      "distribute": 7749,
      "postdate": 7750,
      "gential": 7751,
      "planed": 7752,
      "planing": 7753,
      "planic": 7754,
      "planate": 7755,
      "planatic": 7756,
      "Thus": 7757,
      "Thinner": 7758,
      "Scan": 7759,
      "Scatter": 7760,
      "Scalloped": 7761,
      "Scarce": 7762,
      "Discreet": 7763,
      "coating": 7764,
      "cores": 7765,
      "cooler": 7766,
      "coincides": 7767,
      "monotonous": 7768,
      "worked": 7769,
      "working": 7770,
      "minimizes": 7771,
      "turquoise": 7772,
      "sectionalized": 7773,
      "lithified": 7774,
      "lithographic": 7775,
      "lithography": 7776,
      "lithofacies": 7777,
      "junctions": 7778,
      "marginalizes": 7779,
      "marginalizing": 7780,
      "marginalization": 7781,
      "note": 7782,
      "ferential": 7783,
      "neighbored": 7784,
      "neighborho": 7785,
      "internalized": 7786,
      "mosaicked": 7787,
      "planarly": 7788,
      "systemic": 7789,
      "strongest": 7790,
      "cornered": 7791,
      "complement": 7792,
      "episodically": 7793,
      "streaming": 7794,
      "lifies": 7795,
      "lifetime": 7796,
      "ulation": 7797,
      "uplanded": 7798,
      "superiormost": 7799,
      "ensemble": 7800,
      "tectonized": 7801,
      "Adding": 7802,
      "Adjacency": 7803,
      "albedoyant": 7804,
      "phasing": 7805,
      "cannot": 7806,
      "pliant": 7807,
      "plenam": 7808,
      "redefine": 7809,
      "redistribut": 7810,
      "concentrates": 7811,
      "Overlay": 7812,
      "Overprinting": 7813,
      "interplays": 7814,
      "wore": 7815,
      "Patched": 7816,
      "palette": 7817,
      "paleosol": 7818,
      "discernable": 7819,
      "traceable": 7820,
      "continual": 7821,
      "originated": 7822,
      "originally": 7823,
      "southeastward": 7824,
      "excell": 7825,
      "saturate": 7826,
      "manifestation": 7827,
      "Prompt": 7828,
      "Profile": 7829,
      "surveying": 7830,
      "elevationally": 7831,
      ":***": 7832,
      "standpoint": 7833,
      "Marked": 7834,
      "Marking": 7835,
      "undulates": 7836,
      "networked": 7837,
      "multigen": 7838,
      "91CA": 7839,
      "fluting": 7840,
      "flung": 7841,
      "fluctuating": 7842,
      "fragmental": 7843,
      "fragmentation": 7844,
      "intersticial": 7845,
      "blockier": 7846,
      "opens": 7847,
      "sprawls": 7848,
      "Olive": 7849,
      "volcanically": 7850,
      "principles": 7851,
      "backs": 7852,
      "respects": 7853,
      "minutely": 7854,
      "innermost": 7855,
      "butted": 7856,
      "colors": 7857,
      "columnar": 7858,
      "scarping": 7859,
      "Topographies": 7860,
      "Highland": 7861,
      "Fracturing": 7862,
      "Percentages": 7863,
      "Period": 7864,
      "contextually": 7865,
      "timeframes": 7866,
      "detachment": 7867,
      "crescentically": 7868,
      "nectaris": 7869,
      "starker": 7870,
      "heterogeneously": 7871,
      "prolific": 7872,
      "secondarily": 7873,
      "tops": 7874,
      "topologically": 7875,
      "converges": 7876,
      "modules": 7877,
      "volcanics": 7878,
      "terraces": 7879,
      "excludes": 7880,
      "Intermixed": 7881,
      "Intercal": 7882,
      "Interconnected": 7883,
      "Intermareal": 7884,
      "Interlaced": 7885,
      "tend": 7886,
      "tenuous": 7887,
      "tends": 7888,
      "tensile": 7889,
      "designations": 7890,
      "ridgeline": 7891,
      "diachron": 7892,
      "pocketing": 7893,
      "residues": 7894,
      "responsible": 7895,
      "resists": 7896,
      "maybe": 7897,
      "accumulate": 7898,
      "evolutionary": 7899,
      "evolutionarily": 7900,
      "floodings": 7901,
      "semblages": 7902,
      "approximate": 7903,
      "divisor": 7904,
      "Brightness": 7905,
      "configurations": 7906,
      "shifted": 7907,
      "sizeable": 7908,
      "intracraterary": 7909,
      "intermediaries": 7910,
      "slot": 7911,
      "Subjacent": 7912,
      "Subtly": 7913,
      "graceful": 7914,
      "inferiormost": 7915,
      "richer": 7916,
      "glimpses": 7917,
      ")**—": 7918,
      "unevenness": 7919,
      "cartograph": 7920,
      "undergo": 7921,
      "termini": 7922,
      "superimpositioned": 7923,
      "deformational": 7924,
      "kening": 7925,
      "interprets": 7926,
      "sheer": 7927,
      "combine": 7928,
      "uninterruptedly": 7929,
      "ressions": 7930,
      "Subtlety": 7931,
      "sedimenting": 7932,
      "cessation": 7933,
      "preservational": 7934,
      "expected": 7935,
      "expansion": 7936,
      "Plainer": 7937,
      "swarm": 7938,
      "swirling": 7939,
      "cohesively": 7940,
      "Extending": 7941,
      "straint": 7942,
      "pinkish": 7943,
      "solitary": 7944,
      "solidification": 7945,
      "chronologic": 7946,
      "chronostratigraphic": 7947,
      "populates": 7948,
      "combinations": 7949,
      "1091CA": 7950,
      "segregating": 7951,
      "lineae": 7952,
      "architectural": 7953,
      "floodplain": 7954,
      "mixtures": 7955,
      "hugging": 7956,
      "collective": 7957,
      "collections": 7958,
      "profiles": 7959,
      "Complexes": 7960,
      "thickening": 7961,
      "contributors": 7962,
      "winds": 7963,
      "encapsulator": 7964,
      "Shiny": 7965,
      "linealities": 7966,
      "concentrically": 7967,
      "southwards": 7968,
      "piecing": 7969,
      "burst": 7970,
      "thickly": 7971,
      "Reading": 7972,
      "recessing": 7973,
      "organizing": 7974,
      "moonscape": 7975,
      "Constraint": 7976,
      "processing": 7977,
      "cratiform": 7978,
      "cratric": 7979,
      "concing": 7980,
      "concludes": 7981,
      "geomorphologically": 7982,
      "proportioned": 7983,
      "concavely": 7984,
      "Parts": 7985,
      "disparity": 7986,
      "crisply": 7987,
      "integration": 7988,
      "integrate": 7989,
      "Plane": 7990,
      "Planains": 7991,
      "dataset": 7992,
      "Sharply": 7993,
      "tangential": 7994,
      "introduction": 7995,
      "fluidly": 7996,
      "Deepest": 7997,
      "abutmenting": 7998,
      "hitting": 7999,
      "Trailing": 8000,
      "transversing": 8001,
      "Traverses": 8002,
      "articulation": 8003,
      "alternative": 8004,
      "Attached": 8005,
      "Superordin": 8006,
      "voided": 8007,
      "accounted": 8008,
      "successional": 8009,
      "lineamentary": 8010,
      "penetrated": 8011,
      "joins": 8012,
      "jointed": 8013,
      "firmly": 8014,
      "Great": 8015,
      "amazing": 8016,
      "lenses": 8017,
      "lithogeological": 8018,
      "lithostratigraphically": 8019,
      "simplifies": 8020,
      "accents": 8021,
      "accentuates": 8022,
      "cratony": 8023,
      "cratonized": 8024,
      "Contiguous": 8025,
      "Contacts": 8026,
      "calls": 8027,
      "passage": 8028,
      "epochally": 8029,
      "\\%}$).": 8030,
      "alterations": 8031,
      "generations": 8032,
      "generational": 8033,
      "Strips": 8034,
      "supplement": 8035,
      "Transverse": 8036,
      "Sinuously": 8037,
      "namic": 8038,
      "connective": 8039,
      "assignment": 8040,
      "circumference": 8041,
      "circumferential": 8042,
      "sustains": 8043,
      "stuck": 8044,
      "wrapped": 8045,
      "incisions": 8046,
      "incisively": 8047,
      "cresting": 8048,
      "blends": 8049,
      "farther": 8050,
      "paleoregions": 8051,
      "paleotopographical": 8052,
      "paleotopographic": 8053,
      "paleosurfaces": 8054,
      "paleoterrane": 8055,
      "visualizes": 8056,
      "visualize": 8057,
      "foreland": 8058,
      "forefield": 8059,
      "forefront": 8060,
      "Externally": 8061,
      "Exposures": 8062,
      "finest": 8063,
      "finalized": 8064,
      "finishes": 8065,
      "finished": 8066,
      "drainages": 8067,
      "Lowland": 8068,
      "Note": 8069,
      "Intrusive": 8070,
      "Intruding": 8071,
      "Photographically": 8072,
      "Specified": 8073,
      "scarcity": 8074,
      "repeats": 8075,
      "pulled": 8076,
      "lumpier": 8077,
      "scarcely": 8078,
      "PNC": 8079,
      "PNT": 8080,
      "confinements": 8081,
      "Shadowy": 8082,
      "quietly": 8083,
      "sandwich": 8084,
      "written": 8085,
      "chunked": 8086,
      "Margins": 8087,
      "Marginalized": 8088,
      "craggier": 8089,
      "settlement": 8090,
      "Irregularly": 8091,
      "Pinkish": 8092,
      "spotty": 8093,
      "percentages": 8094,
      "upwards": 8095,
      "Stratographically": 8096,
      "variances": 8097,
      "trackuate": 8098,
      "Streaming": 8099,
      "Streaked": 8100,
      "diagonal": 8101,
      "Delineating": 8102,
      "wearing": 8103,
      "horizons": 8104,
      "auxili": 8105,
      "augmented": 8106,
      "trenching": 8107,
      "hemmed": 8108,
      "plaineau": 8109,
      "plaineutnic": 8110,
      "interlock": 8111,
      "observationally": 8112,
      "immensely": 8113,
      "Positionally": 8114,
      "oidal": 8115,
      "gravitationally": 8116,
      "breaching": 8117,
      "dipping": 8118,
      "maturities": 8119,
      "metamorph": 8120,
      "transcends": 8121,
      "tonality": 8122,
      "cyclical": 8123,
      "conformability": 8124,
      "distantly": 8125,
      "retained": 8126,
      "orderly": 8127,
      "imprint": 8128,
      "chaotically": 8129,
      "tractions": 8130,
      "elliptically": 8131,
      "placial": 8132,
      "placers": 8133,
      "Column": 8134,
      "Terran": 8135,
      "Terrane": 8136,
      "Well": 8137,
      "}$,": 8138,
      "}$.": 8139,
      "relegating": 8140,
      "grayish": 8141,
      "restrictions": 8142,
      "packing": 8143,
      "illuminates": 8144,
      "illuminating": 8145,
      "Abutment": 8146,
      "iliar": 8147,
      "expressed": 8148,
      "differentiations": 8149,
      "peaked": 8150,
      "Stratigraphy": 8151,
      "Assemblages": 8152,
      "merged": 8153,
      "rarely": 8154,
      "heightened": 8155,
      "sunlight": 8156,
      "involvement": 8157,
      "described": 8158,
      "Steeply": 8159,
      "clifftop": 8160,
      "succeeding": 8161,
      "widths": 8162,
      "pooling": 8163,
      "descriptions": 8164,
      "Regionally": 8165,
      "Superpositionally": 8166,
      "sinuations": 8167,
      "Resolution": 8168,
      "Resurfacing": 8169,
      "lacunar": 8170,
      "lacustr": 8171,
      "nuances": 8172,
      "sliced": 8173,
      "artifacts": 8174,
      "bridged": 8175,
      "aprons": 8176,
      "polymorphous": 8177,
      "sinuospatial": 8178,
      "sinuosoidal": 8179,
      "Radar": 8180,
      "axial": 8181,
      "axially": 8182,
      "batholith": 8183,
      "battlefield": 8184,
      "eye": 8185,
      "fifth": 8186,
      "meteors": 8187,
      "protective": 8188,
      "embrace": 8189,
      "Interstitially": 8190,
      "Bands": 8191,
      "colorations": 8192,
      "testify": 8193,
      "edifice": 8194,
      "impinges": 8195,
      "submerging": 8196,
      "associating": 8197,
      "coalescent": 8198,
      "coalescence": 8199,
      "buffers": 8200,
      "hymetric": 8201,
      "happens": 8202,
      "approaches": 8203,
      "violence": 8204,
      "Superimpose": 8205,
      "infiltrated": 8206,
      "infiltrates": 8207,
      "liquids": 8208,
      "reinforce": 8209,
      "discordances": 8210,
      "discordantly": 8211,
      "Matrix": 8212,
      "Oblique": 8213,
      "Unmarked": 8214,
      "flexure": 8215,
      "slid": 8216,
      "sliver": 8217,
      "vividly": 8218,
      "becoming": 8219,
      "gradational": 8220,
      "amplitudes": 8221,
      "joints": 8222,
      "anomalous": 8223,
      "contemporaneously": 8224,
      "Flowing": 8225,
      "Northeast": 8226,
      "Section": 8227,
      "Sections": 8228,
      "Sporadically": 8229,
      "bilaterally": 8230,
      "gathering": 8231,
      "sentences": 8232,
      "})$,": 8233,
      "asymmetric": 8234,
      "deviates": 8235,
      "deviation": 8236,
      "deviate": 8237,
      "permeate": 8238,
      "registered": 8239,
      "registers": 8240,
      "genetically": 8241,
      "unusually": 8242,
      "ductile": 8243,
      "pictured": 8244,
      "Interiorally": 8245,
      "Recently": 8246,
      "equatorial": 8247,
      "equatorward": 8248,
      "tessellate": 8249,
      "encasement": 8250,
      "underpinning": 8251,
      "seamlessly": 8252,
      "contemporaneity": 8253,
      "precursors": 8254,
      "Copérnician": 8255,
      "Copérniccan": 8256,
      "longitudinal": 8257,
      "Uppe": 8258,
      "catches": 8259,
      "cataloged": 8260,
      "catchment": 8261,
      "catastro": 8262,
      "finger": 8263,
      "feels": 8264,
      "harder": 8265,
      "harsh": 8266,
      "rigorously": 8267,
      "waviness": 8268,
      "enhances": 8269,
      "enhanced": 8270,
      "constructs": 8271,
      "constructed": 8272,
      "scratched": 8273,
      "conduit": 8274,
      "transgressive": 8275,
      "transgressions": 8276,
      "proceeding": 8277,
      "draperies": 8278,
      "pierces": 8279,
      "coevally": 8280,
      "petrological": 8281,
      "disturbance": 8282,
      "disturbances": 8283,
      "lengths": 8284,
      "enclavement": 8285,
      "breccial": 8286,
      "brecciated": 8287,
      "Provinces": 8288,
      "Pockets": 8289,
      "hierarchy": 8290,
      "(*#": 8291,
      "rarer": 8292,
      "rarest": 8293,
      "rarity": 8294,
      "warm": 8295,
      "warping": 8296,
      "warmer": 8297,
      "initially": 8298,
      "initiated": 8299,
      "initiating": 8300,
      "allopatric": 8301,
      "acutely": 8302,
      "assume": 8303,
      "cratereventation": 8304,
      "perturbed": 8305,
      "patination": 8306,
      "vegetatively": 8307,
      "interfingered": 8308,
      "interfingering": 8309,
      "interfingers": 8310,
      "situates": 8311,
      "trajectory": 8312,
      "projecting": 8313,
      "projection": 8314,
      "evolved": 8315,
      "amalgamated": 8316,
      "Analyze": 8317,
      "peneplanated": 8318,
      "peneplanation": 8319,
      "peneplanization": 8320,
      "cryptic": 8321,
      "cryocratic": 8322,
      "cryogenically": 8323,
      "colliding": 8324,
      "effects": 8325,
      "hyperveloc": 8326,
      "registering": 8327,
      "abysses": 8328,
      "habitat": 8329,
      "mitigates": 8330,
      "vigorously": 8331,
      "geochronologic": 8332,
      "obliterating": 8333,
      "---": 8334,
      "A946": 8335,
      "Bathin": 8336,
      "Bathymetric": 8337,
      "Downslope": 8338,
      "Earth": 8339,
      "Earlier": 8340,
      "Middle": 8341,
      "Raw": 8342,
      "Raised": 8343,
      "Sonar": 8344,
      "Sonogra": 8345,
      "clarity": 8346,
      "clarifying": 8347,
      "course": 8348,
      "courses": 8349,
      "global": 8350,
      "globally": 8351,
      "ninety": 8352,
      "ogram": 8353,
      "tongue": 8354,
      "tongues": 8355,
      "attributes": 8356,
      "attributable": 8357,
      "ensconcing": 8358,
      "offering": 8359,
      "examined": 8360,
      "examination": 8361,
      "mobile": 8362,
      "mobilization": 8363,
      "address": 8364,
      "apennine": 8365,
      "adjustment": 8366,
      "adjustments": 8367,
      "utilized": 8368,
      "utilizing": 8369,
      "Segments": 8370,
      "Segmented": 8371,
      "abuttaled": 8372,
      "protrusion": 8373,
      "protrusions": 8374,
      "speak": 8375,
      "speaks": 8376,
      "needing": 8377,
      "homogenized": 8378,
      "homogenizes": 8379,
      "renewed": 8380,
      "renewal": 8381,
      "interpretations": 8382,
      "required": 8383,
      "requiring": 8384,
      "modulating": 8385,
      "modulates": 8386,
      "lacunas": 8387,
      "lacunae": 8388,
      "enhancements": 8389,
      "infilladed": 8390,
      "infillaments": 8391,
      "perturbations": 8392,
      "Outcrops": 8393,
      "Towards": 8394,
      "clutter": 8395,
      "cluttered": 8396,
      "rhythmic": 8397,
      "rhythmically": 8398,
      "macroscopic": 8399,
      "macroscopically": 8400,
      "micrometeorite": 8401,
      "micrometeoritic": 8402,
      "1AA946": 8403,
      "Acoustic": 8404,
      "Arcuate": 8405,
      "Active": 8406,
      "BSCU": 8407,
      "Body": 8408,
      "Belt": 8409,
      "Banned": 8410,
      "Changes": 8411,
      "Cyan": 8412,
      "Check": 8413,
      "Cratonic": 8414,
      "Dynamic": 8415,
      "Differences": 8416,
      "Depicts": 8417,
      "Edges": 8418,
      "Finer": 8419,
      "Focal": 8420,
      "Former": 8421,
      "Frequent": 8422,
      "FD029B": 8423,
      "ILMU": 8424,
      "INP": 8425,
      "Identified": 8426,
      "IOHFS": 8427,
      "LMA": 8428,
      "Lithological": 8429,
      "Meandering": 8430,
      "Masifs": 8431,
      "Mantle": 8432,
      "Naris": 8433,
      "Pancake": 8434,
      "Placid": 8435,
      "Restricted": 8436,
      "Rolling": 8437,
      "Solid": 8438,
      "Sparser": 8439,
      "Tectonic": 8440,
      "Ultrasonic": 8441,
      "Winding": 8442,
      "Waves": 8443,
      "Young": 8444,
      "borate": 8445,
      "bank": 8446,
      "bolides": 8447,
      "breached": 8448,
      "cloaked": 8449,
      "carefully": 8450,
      "caught": 8451,
      "doubly": 8452,
      "destructive": 8453,
      "dried": 8454,
      "dimmer": 8455,
      "elaborate": 8456,
      "easy": 8457,
      "fades": 8458,
      "furthest": 8459,
      "ghened": 8460,
      "hiding": 8461,
      "hummock": 8462,
      "hairline": 8463,
      "jigsaw": 8464,
      "longevity": 8465,
      "mélange": 8466,
      "migration": 8467,
      "multiply": 8468,
      "mirrors": 8469,
      "nadir": 8470,
      "pinks": 8471,
      "pond": 8472,
      "polished": 8473,
      "painting": 8474,
      "pulses": 8475,
      "peneplained": 8476,
      "roughened": 8477,
      "rosy": 8478,
      "sonogram": 8479,
      "sounding": 8480,
      "slender": 8481,
      "smashed": 8482,
      "tabular": 8483,
      "taller": 8484,
      "tesseral": 8485,
      "wedging": 8486,
      "would": 8487,
      "wiggly": 8488,
      "wild": 8489,
      "yielding": 8490,
      "inverts": 8491,
      "infers": 8492,
      "inserted": 8493,
      "inherent": 8494,
      "inactivate": 8495,
      "relaxation": 8496,
      "resurgenced": 8497,
      "removed": 8498,
      "relict": 8499,
      "reminiscent": 8500,
      "recurring": 8501,
      "recurrence": 8502,
      "retreat": 8503,
      "remodeling": 8504,
      "albeit": 8505,
      "alaterally": 8506,
      "origraphic": 8507,
      "ensuring": 8508,
      "enmeshed": 8509,
      "according": 8510,
      "supralaterally": 8511,
      "suspended": 8512,
      "suffered": 8513,
      "outwash": 8514,
      "straddling": 8515,
      "laminar": 8516,
      "labels": 8517,
      "Imprinted": 8518,
      "Imbapenninus": 8519,
      "geotechnical": 8520,
      "examples": 8521,
      "dispersal": 8522,
      "cratereation": 8523,
      "cratertopic": 8524,
      "depostional": 8525,
      "depletion": 8526,
      "delicately": 8527,
      "sepia": 8528,
      "concerning": 8529,
      "concealed": 8530,
      "congruent": 8531,
      "perforated": 8532,
      "perceived": 8533,
      "implantation": 8534,
      "distinctiveness": 8535,
      "impactomorphology": 8536,
      "overparting": 8537,
      "overburden": 8538,
      "adopts": 8539,
      "adajcing": 8540,
      "forceful": 8541,
      "extremity": 8542,
      "believe": 8543,
      "photometrically": 8544,
      "contiguity": 8545,
      "likewise": 8546,
      "competent": 8547,
      "complimented": 8548,
      "preventing": 8549,
      "parcels": 8550,
      "interdigits": 8551,
      "intercepts": 8552,
      "interdune": 8553,
      "transsects": 8554,
      "panoramic": 8555,
      "fidelity": 8556,
      "asteroids": 8557,
      "undetectable": 8558,
      "undocumented": 8559,
      "abuttimg": 8560,
      "encaustic": 8561,
      "juxtapostion": 8562,
      "Integrated": 8563,
      "Inneer": 8564,
      "Incorporated": 8565,
      "increasingly": 8566,
      "knowledge": 8567,
      "creamy": 8568,
      "propagates": 8569,
      "unfamiliar": 8570,
      "00A9E6": 8571,
      "predictable": 8572,
      "cutouts": 8573,
      "supersede": 8574,
      "failure": 8575,
      "Scattering": 8576,
      "Discreetly": 8577,
      "neighborhoods": 8578,
      "plenames": 8579,
      "redistribution": 8580,
      "paleosols": 8581,
      "excellent": 8582,
      "multigenic": 8583,
      "Intercalated": 8584,
      "diachronic": 8585,
      "cartographic": 8586,
      "cratricrete": 8587,
      "Superordinate": 8588,
      "auxiliary": 8589,
      "metamorphic": 8590,
      "lacustrine": 8591,
      "catastrophic": 8592,
      "hypervelocity": 8593,
      "Sonograms": 8594,
      "hummocky": 8595
    },
    "merges": [
      [
        "e",
        "r"
      ],
      [
        "i",
        "n"
      ],
      [
        "h",
        "e"
      ],
      [
        "a",
        "r"
      ],
      [
        "a",
        "t"
      ],
      [
        "i",
        "t"
      ],
      [
        "a",
        "n"
      ],
      [
        "t",
        "he"
      ],
      [
        "n",
        "it"
      ],
      [
        "c",
        "t"
      ],
      [
        "e",
        "d"
      ],
      [
        "i",
        "s"
      ],
      [
        "U",
        "nit"
      ],
      [
        "r",
        "e"
      ],
      [
        "o",
        "n"
      ],
      [
        "i",
        "an"
      ],
      [
        "a",
        "l"
      ],
      [
        "r",
        "at"
      ],
      [
        "in",
        "g"
      ],
      [
        "rat",
        "er"
      ],
      [
        "o",
        "r"
      ],
      [
        "e",
        "n"
      ],
      [
        "a",
        "c"
      ],
      [
        "T",
        "he"
      ],
      [
        "e",
        "s"
      ],
      [
        "r",
        "a"
      ],
      [
        "s",
        "u"
      ],
      [
        "o",
        "u"
      ],
      [
        "i",
        "on"
      ],
      [
        "e",
        "ct"
      ],
      [
        "l",
        "y"
      ],
      [
        "an",
        "d"
      ],
      [
        "i",
        "c"
      ],
      [
        "s",
        "t"
      ],
      [
        "n",
        "d"
      ],
      [
        "ect",
        "ar"
      ],
      [
        "N",
        "ectar"
      ],
      [
        "en",
        "t"
      ],
      [
        "Nectar",
        "ian"
      ],
      [
        "l",
        "a"
      ],
      [
        "b",
        "r"
      ],
      [
        "C",
        "rater"
      ],
      [
        "I",
        "m"
      ],
      [
        "er",
        "ra"
      ],
      [
        "Im",
        "br"
      ],
      [
        "o",
        "m"
      ],
      [
        "b",
        "y"
      ],
      [
        "Imbr",
        "ian"
      ],
      [
        "o",
        "s"
      ],
      [
        "ou",
        "nd"
      ],
      [
        "a",
        "s"
      ],
      [
        "su",
        "r"
      ],
      [
        "g",
        "e"
      ],
      [
        "l",
        "o"
      ],
      [
        "ar",
        "e"
      ],
      [
        "i",
        "m"
      ],
      [
        "o",
        "f"
      ],
      [
        "e",
        "x"
      ],
      [
        "u",
        "nit"
      ],
      [
        "t",
        "h"
      ],
      [
        "u",
        "re"
      ],
      [
        "d",
        "is"
      ],
      [
        "a",
        "ct"
      ],
      [
        "la",
        "in"
      ],
      [
        "c",
        "rater"
      ],
      [
        "f",
        "ac"
      ],
      [
        "d",
        "e"
      ],
      [
        "s",
        "e"
      ],
      [
        "sur",
        "fac"
      ],
      [
        "r",
        "u"
      ],
      [
        "surfac",
        "e"
      ],
      [
        "ar",
        "y"
      ],
      [
        "d",
        "er"
      ],
      [
        "m",
        "at"
      ],
      [
        "c",
        "on"
      ],
      [
        "l",
        "e"
      ],
      [
        "i",
        "es"
      ],
      [
        "t",
        "in"
      ],
      [
        "i",
        "v"
      ],
      [
        "p",
        "er"
      ],
      [
        "im",
        "p"
      ],
      [
        "b",
        "ound"
      ],
      [
        "om",
        "in"
      ],
      [
        "as",
        "in"
      ],
      [
        "v",
        "er"
      ],
      [
        "tin",
        "ct"
      ],
      [
        "T",
        "erra"
      ],
      [
        "t",
        "o"
      ],
      [
        "dis",
        "tinct"
      ],
      [
        "w",
        "h"
      ],
      [
        "lain",
        "s"
      ],
      [
        "m",
        "o"
      ],
      [
        "at",
        "ed"
      ],
      [
        "ru",
        "ct"
      ],
      [
        "o",
        "lo"
      ],
      [
        "olo",
        "g"
      ],
      [
        "ic",
        "al"
      ],
      [
        "h",
        "is"
      ],
      [
        "st",
        "ruct"
      ],
      [
        "t",
        "erra"
      ],
      [
        "imp",
        "act"
      ],
      [
        "terra",
        "in"
      ],
      [
        "ge",
        "olog"
      ],
      [
        "unit",
        "s"
      ],
      [
        "in",
        "e"
      ],
      [
        "i",
        "f"
      ],
      [
        "geolog",
        "ical"
      ],
      [
        "T",
        "his"
      ],
      [
        "s",
        "h"
      ],
      [
        "b",
        "or"
      ],
      [
        "o",
        "ver"
      ],
      [
[...]
